[PAD]	0
[UNK]	0
[SOS]	0
[EOS]	0
▁क	-0
▁स	-1
▁ह	-2
▁प	-3
▁म	-4
्र	-5
ार	-6
▁है	-7
ें	-8
▁ज	-9
▁अ	-10
▁के	-11
▁व	-12
या	-13
▁न	-14
▁ब	-15
▁उ	-16
▁त	-17
ों	-18
▁द	-19
▁ल	-20
▁औ	-21
ने	-22
▁और	-23
▁में	-24
र्	-25
▁र	-26
ता	-27
्य	-28
▁की	-29
▁कर	-30
ान	-31
▁कि	-32
▁प्र	-33
▁आ	-34
▁को	-35
िक	-36
▁से	-37
्त	-38
▁भ	-39
▁का	-40
ना	-41
▁इ	-42
▁ग	-43
ित	-44
▁(	-45
▁पर	-46
▁य	-47
ाल	-48
▁हो	-49
▁ए	-50
्व	-51
▁च	-52
ही	-53
न्	-54
▁लि	-55
▁श	-56
ते	-57
▁वि	-58
▁सं	-59
▁जा	-60
▁हैं	-61
▁इस	-62
▁उस	-63
के	-64
ला	-65
▁ख	-66
ोग	-67
था	-68
्ष	-69
ति	-70
ड़	-71
▁एक	-72
स्	-73
ुम	-74
िय	-75
▁लिए	-76
हा	-77
▁सम	-78
हीं	-79
्या	-80
ती	-81
▁फ	-82
्ट	-83
▁अप	-84
▁उन	-85
▁जो	-86
▁तो	-87
▁सा	-88
▁नहीं	-89
वा	-90
▁दे	-91
▁तुम	-92
▁नि	-93
▁हम	-94
रा	-95
से	-96
दा	-97
िया	-98
▁भी	-99
▁ने	-100
त्र	-101
का	-102
ल्	-103
सी	-104
▁रा	-105
▁जि	-106
▁या	-107
▁बा	-108
री	-109
कार	-110
गा	-111
नी	-112
क्ष	-113
▁किया	-114
ज़	-115
▁अन	-116
ास	-117
▁यह	-118
▁ही	-119
ले	-120
सा	-121
ष्ट	-122
की	-123
ेश	-124
ारा	-125
कर	-126
मा	-127
▁करने	-128
▁थ	-129
ंग	-130
▁अध	-131
▁मु	-132
त्	-133
▁लोग	-134
▁वह	-135
िर	-136
▁स्	-137
▁हु	-138
क्त	-139
▁कु	-140
कि	-141
▁दि	-142
▁कार	-143
▁रह	-144
ाम	-145
▁ड	-146
▁उप	-147
ारे	-148
ाह	-149
न्ह	-150
▁सक	-151
द्	-152
▁अपने	-153
ियों	-154
ारी	-155
▁वे	-156
मान	-157
▁था	-158
▁ले	-159
▁ऐ	-160
▁1	-161
िल	-162
स्त	-163
▁ध	-164
रे	-165
वि	-166
ूप	-167
्च	-168
गे	-169
▁पू	-170
▁सु	-171
्री	-172
▁भार	-173
भा	-174
▁जिस	-175
ंत	-176
▁आप	-177
में	-178
▁गया	-179
▁पह	-180
▁उन्ह	-181
ैं	-182
ओं	-183
ंध	-184
▁तथा	-185
▁वाल	-186
दि	-187
्ह	-188
▁कुछ	-189
ली	-190
▁छ	-191
▁किसी	-192
▁ख़	-193
▁द्व	-194
ीन	-195
▁तुम्ह	-196
ूल	-197
▁दो	-198
▁अनु	-199
▁स्व	-200
▁साथ	-201
ाप	-202
ुदा	-203
▁मे	-204
▁जब	-205
को	-206
देश	-207
▁घ	-208
म्	-209
▁रूप	-210
खा	-211
ोज	-212
▁चाह	-213
▁अधिक	-214
▁कोई	-215
▁निर्	-216
ंद	-217
ंड	-218
ाय	-219
ुर	-220
द्ध	-221
▁उनके	-222
▁विश	-223
गी	-224
▁ला	-225
ार्	-226
▁थे	-227
▁ट	-228
▁तक	-229
भी	-230
▁द्वारा	-231
न्द	-232
ढ़	-233
▁करें	-234
▁करते	-235
▁पा	-236
▁व्य	-237
▁राज	-238
▁प्रति	-239
गर	-240
▁लोगों	-241
▁भा	-242
ाना	-243
र्व	-244
▁बना	-245
▁दिया	-246
नों	-247
▁क्ष	-248
▁परि	-249
▁2	-250
क़	-251
▁वर्	-252
योग	-253
त्त	-254
▁जाए	-255
▁बह	-256
लाह	-257
ंत्र	-258
ुत	-259
▁कह	-260
▁भारत	-261
धार	-262
▁मा	-263
▁फिर	-264
जी	-265
ये	-266
ाद	-267
िए	-268
▁राष्ट	-269
▁तर	-270
▁अल्	-271
▁सि	-272
▁कार्य	-273
क्	-274
▁ये	-275
रण	-276
▁मैं	-277
्ञ	-278
ुन	-279
▁अव	-280
▁कहा	-281
क्र	-282
▁स्थ	-283
▁जाता	-284
बंध	-285
्छ	-286
▁रहे	-287
▁उसके	-288
क्ति	-289
▁क्या	-290
फ़	-291
▁"	-292
▁रख	-293
▁इन	-294
▁सब	-295
▁ई	-296
ूर	-297
ष्	-298
▁करना	-299
▁अल्लाह	-300
▁ज़	-301
ड़ा	-302
नि	-303
▁ख़ुदा	-304
▁अपनी	-305
▁थी	-306
द्य	-307
▁सर	-308
ंच	-309
ानी	-310
ब्	-311
जा	-312
न्न	-313
▁फ़	-314
▁मह	-315
च्छ	-316
त्य	-317
र्ण	-318
▁जी	-319
स्थ	-320
▁बात	-321
▁हुए	-322
मी	-323
्यों	-324
दी	-325
पर	-326
▁सू	-327
▁विक	-328
▁उन्हें	-329
▁करता	-330
▁सी	-331
्रे	-332
▁होता	-333
िन	-334
वाल	-335
श्च	-336
▁क़	-337
ेत्र	-338
▁ओ	-339
ोंने	-340
▁रहा	-341
ड़े	-342
▁सकता	-343
कृ	-344
िका	-345
▁उसे	-346
ाइ	-347
ाप्त	-348
चार	-349
▁हि	-350
▁दी	-351
▁बी	-352
र्थ	-353
▁जान	-354
बर	-355
च्च	-356
▁गु	-357
मे	-358
वर्	-359
ूस	-360
▁क्षेत्र	-361
▁मान	-362
▁देख	-363
टा	-364
▁बहुत	-365
▁समय	-366
▁राष्ट्र	-367
ड़ी	-368
ज्ञ	-369
▁मि	-370
दान	-371
00	-372
पू	-373
हर	-374
▁पु	-375
▁जै	-376
र्म	-377
▁बाद	-378
भि	-379
ोल	-380
▁पै	-381
शन	-382
वन	-383
▁आय	-384
ियम	-385
कों	-386
टी	-387
पति	-388
वे	-389
▁तरह	-390
▁सह	-391
▁बे	-392
▁वाले	-393
▁उन्होंने	-394
▁हुआ	-395
▁काम	-396
▁पास	-397
वी	-398
▁देश	-399
▁पहले	-400
▁अंत	-401
..	-402
ोक	-403
प्र	-404
▁हमने	-405
ेष	-406
चना	-407
▁उत्	-408
स्था	-409
्रीय	-410
▁ना	-411
▁होगा	-412
▁जिन	-413
ुल	-414
▁उनकी	-415
क्षा	-416
▁यदि	-417
▁तुम्हारे	-418
ौर	-419
▁गई	-420
झे	-421
▁बि	-422
▁गए	-423
ख़	-424
▁प्राप्त	-425
्रा	-426
धान	-427
▁सरकार	-428
▁अन्य	-429
▁संबंध	-430
▁दिन	-431
▁होने	-432
▁ओर	-433
▁हू	-434
न्त	-435
▁वर्ष	-436
▁पी	-437
▁सम्	-438
धि	-439
यों	-440
▁सभी	-441
▁कम	-442
एँ	-443
▁छो	-444
▁विश्व	-445
हां	-446
▁चु	-447
▁19	-448
▁ऐसे	-449
▁करो	-450
िक्ष	-451
▁हमारे	-452
गत	-453
लि	-454
▁राष्ट्रपति	-455
स्ता	-456
करण	-457
वं	-458
▁नाम	-459
▁प्रा	-460
दार	-461
▁झ	-462
▁निक	-463
श्य	-464
▁प्रकार	-465
▁बद	-466
ंक	-467
▁सकते	-468
एं	-469
टे	-470
▁साम	-471
▁ता	-472
भाव	-473
▁चाहिए	-474
सर	-475
िश	-476
ीय	-477
तीय	-478
▁s	-479
▁मिल	-480
▁इसके	-481
ग्र	-482
▁बु	-483
▁ऊ	-484
तर	-485
▁बढ़	-486
स्ट	-487
वर	-488
्स	-489
▁किए	-490
िप	-491
▁उसकी	-492
चा	-493
▁हर	-494
त्व	-495
▁जाने	-496
▁होती	-497
बा	-498
हाँ	-499
ंप	-500
जन	-501
▁अच्छ	-502
शा	-503
ोजना	-504
तिक	-505
ूम	-506
दर्	-507
▁ची	-508
▁नी	-509
▁'	-510
▁दूस	-511
▁रस	-512
माण	-513
▁ईमान	-514
रो	-515
▁ठ	-516
शी	-517
▁अगर	-518
▁करे	-519
पूर्ण	-520
यी	-521
बी	-522
मत	-523
िति	-524
▁ऐसा	-525
▁एवं	-526
▁हों	-527
गार	-528
ास्त	-529
▁राज्य	-530
द्योग	-531
▁समझ	-532
▁पहु	-533
▁कारण	-534
▁विकास	-535
सार	-536
पाद	-537
▁अब	-538
▁व्यक्ति	-539
▁लग	-540
▁भारतीय	-541
ची	-542
ात	-543
▁कृ	-544
्यू	-545
▁मो	-546
ेंगे	-547
ध्य	-548
▁मुझे	-549
वल	-550
त्म	-551
▁रसूल	-552
▁हुई	-553
ाली	-554
▁(_	-555
▁हा	-556
ुक्त	-557
ाइल	-558
द्र	-559
▁स्त	-560
वार	-561
टर	-562
ेज	-563
▁जन	-564
किन	-565
▁पूर्व	-566
धा	-567
यन	-568
▁व्या	-569
01	-570
ष्ठ	-571
ेल	-572
▁लगा	-573
ज़ा	-574
मु	-575
▁मूल	-576
तन	-577
▁दु	-578
▁क्यों	-579
▁उसने	-580
पी	-581
▁लेकिन	-582
▁दिखा	-583
▁लिया	-584
▁बन	-585
क्रम	-586
▁वा	-587
तः	-588
▁दोनों	-589
▁जाती	-590
on	-591
िम	-592
▁प्रश	-593
▁तुम्हें	-594
लों	-595
▁मौ	-596
▁सद	-597
▁क्र	-598
दे	-599
ोर	-600
▁वै	-601
लय	-602
▁अस	-603
▁अपना	-604
ाला	-605
▁उपयोग	-606
▁ऐसी	-607
वाद	-608
लग	-609
▁खा	-610
्ड	-611
▁आव	-612
▁जीवन	-613
▁विशेष	-614
▁चल	-615
▁होते	-616
▁3	-617
▁अभि	-618
हाय	-619
चे	-620
▁à	-621
▁ग्र	-622
▁प्रदान	-623
िंग	-624
धिक	-625
तों	-626
▁बारे	-627
▁रही	-628
▁बीच	-629
▁ढ	-630
▁बै	-631
व्य	-632
▁रु	-633
▁वाला	-634
▁मुख	-635
▁मन	-636
कारी	-637
▁बार	-638
फल	-639
▁भाग	-640
▁यु	-641
▁उत्त	-642
।"	-643
▁समा	-644
चित	-645
काश	-646
▁खु	-647
▁श्री	-648
▁शिक्ष	-649
me	-650
▁निय	-651
▁जैसे	-652
ेक	-653
▁सहाय	-654
▁वास्त	-655
▁स्था	-656
▁उसका	-657
ंभ	-658
▁ऑ	-659
तना	-660
▁आधार	-661
ठा	-662
ख्या	-663
डी	-664
िस	-665
वेश	-666
▁आज	-667
▁सेवा	-668
ti	-669
षण	-670
िला	-671
▁कै	-672
▁न्या	-673
कता	-674
▁जाएगा	-675
▁देने	-676
्ल	-677
हित	-678
षा	-679
▁केवल	-680
▁चीज़	-681
धन	-682
▁उनका	-683
▁दृ	-684
▁गा	-685
▁माल	-686
ल्प	-687
▁हमें	-688
▁प्रयोग	-689
▁मेरे	-690
ून	-691
▁रब	-692
ग़	-693
ार्थ	-694
▁आवश्य	-695
▁सो	-696
▁जिसमें	-697
ूद	-698
ज्ञान	-699
क्षण	-700
▁हूँ	-701
▁दर	-702
▁बो	-703
▁वही	-704
▁विचार	-705
▁सर्व	-706
रिक	-707
▁निश्च	-708
▁मार्	-709
▁स्थान	-710
ियां	-711
णी	-712
▁ताकि	-713
र्य	-714
▁स्प	-715
▁पैदा	-716
ित्र	-717
▁मै	-718
पित	-719
ुट	-720
▁वाली	-721
▁प्रत्य	-722
्न	-723
न्तु	-724
▁n	-725
▁सबसे	-726
▁इसे	-727
in	-728
▁बड़ा	-729
▁उसी	-730
िता	-731
रों	-732
▁जाना	-733
ंस	-734
त्ता	-735
▁निर्धार	-736
िनियम	-737
यास	-738
▁माम	-739
▁हमारी	-740
तु	-741
▁अथ	-742
▁विष	-743
▁पार	-744
लब्	-745
▁अधिनियम	-746
र्क	-747
र्ष	-748
▁रो	-749
▁धारा	-750
हार	-751
▁देता	-752
▁तब	-753
▁जाते	-754
▁अधिकार	-755
▁शु	-756
▁इसमें	-757
▁दा	-758
ेर	-759
▁राष्ट्रीय	-760
▁आर	-761
लिए	-762
ूत	-763
▁कंप	-764
भाग	-765
▁आस	-766
▁डि	-767
▁उपलब्	-768
▁योजना	-769
▁उत्पाद	-770
ियाँ	-771
ब्द	-772
पा	-773
▁जिसे	-774
▁व्यव	-775
ुनिया	-776
▁बस	-777
▁लिख	-778
▁अथवा	-779
द्योगिक	-780
an	-781
▁हे	-782
बे	-783
▁संदेश	-784
▁पश्च	-785
▁फ़ाइल	-786
▁सामान	-787
कृत	-788
ूह	-789
ताओं	-790
▁परवर	-791
वरण	-792
▁बल्	-793
▁शाम	-794
▁उससे	-795
्यान	-796
ंज	-797
दिगार	-798
मिक	-799
▁शुर	-800
▁सूचना	-801
▁क्योंकि	-802
▁दर्	-803
वान	-804
▁उनसे	-805
सं	-806
▁परवरदिगार	-807
भव	-808
क्रिया	-809
▁मार्ग	-810
▁ज्ञ	-811
▁पुर	-812
काल	-813
▁महत्व	-814
िट	-815
▁तै	-816
▁स्ट	-817
त्या	-818
tion	-819
श्व	-820
▁सकती	-821
▁लो	-822
▁बैं	-823
त्रा	-824
▁दौर	-825
धी	-826
▁संप	-827
▁मंत्र	-828
▁डाल	-829
▁शिक्षा	-830
डर	-831
▁करती	-832
▁अर्	-833
▁पहुँ	-834
▁व्याप	-835
यार	-836
▁उपलब्ध	-837
ुक	-838
▁मू	-839
ट्ट	-840
▁वृ	-841
कृति	-842
▁दूसरे	-843
▁मद	-844
▁स्थिति	-845
▁डा	-846
भिन्न	-847
ुष	-848
▁लोक	-849
▁योग	-850
▁इसलिए	-851
▁कें	-852
ंति	-853
▁जर	-854
ंजी	-855
▁संग	-856
▁बच्च	-857
▁पुन	-858
▁जिन्ह	-859
▁सहायता	-860
ोट	-861
युक्त	-862
▁छोड़	-863
नेवाल	-864
▁प्रभाव	-865
er	-866
▁उच्च	-867
▁होना	-868
ेद	-869
ंश	-870
तान	-871
▁बड़ी	-872
▁हाथ	-873
▁महा	-874
ष्टि	-875
▁जु	-876
▁वित	-877
▁उद्	-878
▁उनमें	-879
न्द्र	-880
▁अर्थ	-881
ेट	-882
▁हूं	-883
▁होगी	-884
इन	-885
क्ट	-886
ताब	-887
एस	-888
▁कभी	-889
स्तु	-890
ोप	-891
▁मेरी	-892
वाह	-893
...	-894
यं	-895
▁शामिल	-896
▁कई	-897
▁अधीन	-898
▁सके	-899
▁प्रण	-900
▁विभिन्न	-901
▁स्वा	-902
▁आया	-903
ूट	-904
र्ट	-905
्यालय	-906
▁अति	-907
ame	-908
ोह	-909
▁बल्कि	-910
ंट	-911
▁बता	-912
▁अंतर	-913
स्थान	-914
▁इससे	-915
▁दौरान	-916
▁हाल	-917
▁लिये	-918
हत	-919
▁कहते	-920
▁करके	-921
▁5	-922
▁सदस	-923
▁4	-924
तम	-925
▁किस	-926
त्मक	-927
▁आगे	-928
▁सुर	-929
▁यहाँ	-930
▁अनुस	-931
▁ब्र	-932
रूप	-933
ण्ड	-934
मुख	-935
ेम	-936
र्इ	-937
▁अनुसार	-938
▁पता	-939
कट	-940
▁दूर	-941
▁भाषा	-942
्ला	-943
▁बैठ	-944
▁कर्म	-945
▁अवसर	-946
▁जहां	-947
सल	-948
▁इसी	-949
▁भूम	-950
▁अंग	-951
▁विषय	-952
द्धि	-953
▁अभ	-954
ेह	-955
▁होंगे	-956
▁सूची	-957
▁शी	-958
▁तरफ	-959
▁ग़	-960
ासन	-961
ोजन	-962
ैन	-963
स्व	-964
▁उनको	-965
▁मुख्य	-966
▁t	-967
▁यही	-968
▁पड़	-969
▁(1	-970
▁पि	-971
दन	-972
फी	-973
▁अग	-974
शि	-975
▁याद	-976
ग्रह	-977
्म	-978
▁आई	-979
▁परिवर्	-980
▁लाभ	-981
▁सामने	-982
▁इसका	-983
pr	-984
यर	-985
जे	-986
▁शै	-987
▁जिसके	-988
मीन	-989
▁स्वी	-990
▁१	-991
▁सामान्य	-992
▁उठा	-993
▁प्रक्रिया	-994
▁पूरा	-995
ित्व	-996
और	-997
▁अनुम	-998
▁स्पष्ट	-999
▁करेगा	-1000
▁पूर्ण	-1001
▁देते	-1002
लो	-1003
कर्	-1004
▁चि	-1005
सम	-1006
▁शा	-1007
▁201	-1008
▁उसमें	-1009
▁200	-1010
▁‘	-1011
▁संबंधित	-1012
▁तैयार	-1013
▁ऋ	-1014
▁संख्या	-1015
ियो	-1016
▁पद	-1017
▁उत्तर	-1018
प्त	-1019
त्ति	-1020
▁चुन	-1021
▁संस्	-1022
▁घर	-1023
▁बाहर	-1024
▁जाएँ	-1025
▁बदल	-1026
es	-1027
▁अलग	-1028
▁जल	-1029
▁वास्तव	-1030
ंतु	-1031
▁निर्माण	-1032
जार	-1033
▁लगे	-1034
▁चाहते	-1035
▁बढ़ा	-1036
ज्य	-1037
▁प्रत्येक	-1038
सि	-1039
टना	-1040
हरा	-1041
▁भेज	-1042
लेख	-1043
तंत्र	-1044
्श	-1045
▁कान	-1046
▁आपको	-1047
▁पृ	-1048
▁कौ	-1049
ूँ	-1050
▁प्रौ	-1051
िये	-1052
ंचा	-1053
▁पत्र	-1054
ीक	-1055
▁त्र	-1056
▁नई	-1057
वास	-1058
हास	-1059
▁सुन	-1060
गम	-1061
▁रंग	-1062
्यादा	-1063
▁आद	-1064
▁पढ़	-1065
▁भर	-1066
▁अध्य	-1067
▁बनाने	-1068
▁तीन	-1069
▁अने	-1070
▁शब्द	-1071
पि	-1072
संद	-1073
र्या	-1074
▁बड़े	-1075
▁संर	-1076
▁अच्छा	-1077
ालन	-1078
▁पुस्त	-1079
▁जारी	-1080
आई	-1081
▁मौज	-1082
▁गुण	-1083
दर्श	-1084
ध्यम	-1085
छे	-1086
ोल्	-1087
▁कार्यक्रम	-1088
▁प्रार	-1089
▁नियम	-1090
▁किताब	-1091
ैर	-1092
▁पूरी	-1093
▁शुरू	-1094
▁शि	-1095
इट	-1096
▁प्रकाश	-1097
▁स्वयं	-1098
▁अत्य	-1099
▁तुम्हारी	-1100
▁आदि	-1101
▁शक्ति	-1102
बार	-1103
▁आपके	-1104
▁नीति	-1105
मंत्र	-1106
▁फै	-1107
▁प्रयास	-1108
al	-1109
▁प्रौद्योगिक	-1110
▁रखा	-1111
हम	-1112
▁रे	-1113
▁संस्था	-1114
ालय	-1115
दाय	-1116
▁पानी	-1117
▁चार	-1118
▁कॉ	-1119
ंब	-1120
टक	-1121
धे	-1122
▁ऊपर	-1123
ज़ाब	-1124
▁निश्चय	-1125
▁गये	-1126
ियोजना	-1127
टन	-1128
▁निर्धारित	-1129
पत्र	-1130
▁वस्तु	-1131
विद	-1132
▁मदद	-1133
शत	-1134
▁खुदा	-1135
म्प	-1136
▁ते	-1137
▁सौ	-1138
▁कल	-1139
▁ज्ञान	-1140
भार	-1141
▁परिण	-1142
हन	-1143
▁अनेक	-1144
▁परियोजना	-1145
▁मी	-1146
▁ली	-1147
▁तू	-1148
▁a	-1149
रती	-1150
स्थित	-1151
▁हेतु	-1152
▁मार	-1153
▁चाहता	-1154
ूं	-1155
▁सिवा	-1156
क्षित	-1157
▁जग	-1158
अप	-1159
▁गिर	-1160
▁दुनिया	-1161
ूरी	-1162
▁प्रधान	-1163
ेशक	-1164
्रो	-1165
▁वी	-1166
▁करा	-1167
▁धर्म	-1168
▁d	-1169
▁न्याया	-1170
▁गति	-1171
▁रुप	-1172
▁चला	-1173
▁बनाया	-1174
▁गयी	-1175
▁संघ	-1176
बन्	-1177
▁गो	-1178
▁महत्वपूर्ण	-1179
ृत	-1180
बाद	-1181
▁बैंक	-1182
▁उद्योग	-1183
▁स्तर	-1184
शील	-1185
▁करनेवाल	-1186
▁बन्द	-1187
▁आए	-1188
रु	-1189
र्ड	-1190
षि	-1191
▁वित्त	-1192
▁तुम्हारा	-1193
▁“	-1194
▁&	-1195
▁बेह	-1196
▁अन्त	-1197
▁जोड़	-1198
▁श्रे	-1199
▁स्क	-1200
पन	-1201
▁डर	-1202
▁प्रो	-1203
▁जिसने	-1204
▁डे	-1205
▁संस्थान	-1206
▁ध्यान	-1207
▁परिणाम	-1208
▁ज़र	-1209
▁भवन	-1210
▁करेंगे	-1211
▁मत	-1212
▁प्रमाण	-1213
▁विदेश	-1214
नीय	-1215
▁यहां	-1216
▁#	-1217
la	-1218
मित	-1219
▁देना	-1220
र्थिक	-1221
it	-1222
▁मैंने	-1223
▁बेशक	-1224
▁ठीक	-1225
▁बिना	-1226
▁देखा	-1227
▁समूह	-1228
तिहास	-1229
दिष्ट	-1230
लन	-1231
▁प्रबंध	-1232
▁नीचे	-1233
▁व्यक्त	-1234
▁प्रतिशत	-1235
निर्	-1236
ोन	-1237
ल्क	-1238
ज़ी	-1239
▁पो	-1240
▁अंतर्	-1241
▁जमा	-1242
▁क्षेत्रों	-1243
▁आवश्यकता	-1244
▁समाज	-1245
▁प्रमुख	-1246
⁄4	-1247
▁शरी	-1248
▁प्रौद्योगिकी	-1249
द्व	-1250
ोल्डर	-1251
ंख	-1252
▁सफल	-1253
▁लेख	-1254
▁बर	-1255
or	-1256
▁ज्यादा	-1257
श्	-1258
▁जिसका	-1259
ामी	-1260
▁लेकर	-1261
▁झु	-1262
▁प्रय	-1263
▁हिस्	-1264
वादी	-1265
▁पीछे	-1266
जिक	-1267
गू	-1268
▁माध्यम	-1269
▁किन्तु	-1270
विधा	-1271
▁पाठ	-1272
स्या	-1273
इस	-1274
▁जबकि	-1275
▁ज़मीन	-1276
▁मगर	-1277
क्स	-1278
भग	-1279
▁सीमा	-1280
▁सार	-1281
▁विश्वास	-1282
ख्त	-1283
▁समर्थ	-1284
म्बर	-1285
▁6	-1286
▁धरती	-1287
धारा	-1288
▁समान	-1289
▁लौ	-1290
स्प	-1291
▁दिए	-1292
▁मज	-1293
ल्म	-1294
▁कंपनी	-1295
दारी	-1296
वृ	-1297
▁ती	-1298
▁विस्त	-1299
▁अतः	-1300
▁होकर	-1301
▁खंड	-1302
▁केंद्र	-1303
▁अमे	-1304
▁आर्थिक	-1305
शो	-1306
ल्ली	-1307
▁पिछ	-1308
र्ति	-1309
▁कठ	-1310
▁विंड	-1311
▁कृषि	-1312
ंह	-1313
▁मूल्य	-1314
्यता	-1315
▁बरा	-1316
स्क	-1317
▁अम	-1318
▁उद्देश	-1319
▁अज़ाब	-1320
▁इसकी	-1321
▁आदेश	-1322
▁भे	-1323
▁चाहे	-1324
ic	-1325
ियन	-1326
▁खोल	-1327
▁कला	-1328
▁लड़	-1329
▁सुधार	-1330
उस	-1331
▁इनकार	-1332
▁वाय	-1333
गें	-1334
▁रखते	-1335
▁रोग	-1336
201	-1337
▁जनता	-1338
मता	-1339
▁तुमसे	-1340
▁जानकारी	-1341
▁भाव	-1342
▁निम्	-1343
▁श्र	-1344
▁विद्य	-1345
▁उल्	-1346
▁लगभग	-1347
विध	-1348
▁पर्या	-1349
▁बदला	-1350
▁आने	-1351
▁स्वीकार	-1352
▁जैसा	-1353
▁छा	-1354
ानों	-1355
▁अभी	-1356
▁अवधि	-1357
▁सारे	-1358
▁हिन्द	-1359
णा	-1360
▁काफी	-1361
44	-1362
ठन	-1363
बद्ध	-1364
▁चौ	-1365
▁रोक	-1366
्ले	-1367
▁समस्या	-1368
ेशन	-1369
▁निश	-1370
▁लागू	-1371
▁नियंत्र	-1372
र्फ	-1373
▁निकाल	-1374
▁मेरा	-1375
ॉल	-1376
▁साल	-1377
▁जानता	-1378
▁जगह	-1379
▁सहयोग	-1380
▁मिला	-1381
▁गण	-1382
र्च	-1383
▁वहां	-1384
ee	-1385
▁मंद	-1386
माजिक	-1387
▁पक्ष	-1388
▁तरी	-1389
▁गुना	-1390
▁सुविधा	-1391
▁अच्छे	-1392
▁k	-1393
▁विश्वविद	-1394
▁मानव	-1395
▁मध्य	-1396
▁वक्त	-1397
ूब	-1398
▁विभाग	-1399
▁क़ौ	-1400
▁ऋण	-1401
▁धन	-1402
उन	-1403
▁खोज	-1404
▁परिवर्तन	-1405
आर	-1406
▁विज्ञान	-1407
▁लक्ष	-1408
▁मामले	-1409
▁अच्छी	-1410
▁कोश	-1411
तें	-1412
▁क्रिया	-1413
▁फ़ोल्डर	-1414
▁सामाजिक	-1415
पुर	-1416
▁यू	-1417
चान	-1418
▁निकल	-1419
▁दें	-1420
▁जाएगी	-1421
▁प्रणाली	-1422
▁व्यापार	-1423
▁स्थापित	-1424
हरी	-1425
▁समाप्त	-1426
▁आम	-1427
▁अतिरिक	-1428
ृत्य	-1429
▁कुल	-1430
▁पं	-1431
डियो	-1432
▁इं	-1433
▁चयन	-1434
▁सभा	-1435
▁निम्न	-1436
▁आवश्यक	-1437
र्द	-1438
▁दक्ष	-1439
पाल	-1440
▁पहुंच	-1441
ht	-1442
▁दिल	-1443
▁फर	-1444
स्तुत	-1445
मंत्री	-1446
▁भु	-1447
▁कवि	-1448
¤3	-1449
¤3⁄4	-1450
▁घो	-1451
▁7	-1452
▁C	-1453
▁आध	-1454
▁आग	-1455
द्द	-1456
▁सिद्ध	-1457
▁वर्ग	-1458
▁यक़	-1459
▁जीव	-1460
मार	-1461
▁कहीं	-1462
▁जाओ	-1463
▁वेब	-1464
दर्शन	-1465
▁पूछ	-1466
्‍	-1467
तनी	-1468
ज़र	-1469
ंव	-1470
▁सुरक्षा	-1471
▁टे	-1472
▁उसको	-1473
▁जानते	-1474
▁बराबर	-1475
जि	-1476
▁”	-1477
न्म	-1478
चन	-1479
लत	-1480
राम	-1481
▁विवरण	-1482
तियों	-1483
दम	-1484
▁प्रती	-1485
चि	-1486
स्तान	-1487
▁कोर्इ	-1488
ान्त	-1489
हरण	-1490
जों	-1491
डा	-1492
ंदर	-1493
▁मर	-1494
▁जिससे	-1495
▁चे	-1496
▁18	-1497
▁स्थित	-1498
कु	-1499
▁रहने	-1500
र्स	-1501
▁टी	-1502
पना	-1503
िश्त	-1504
ंधान	-1505
एम	-1506
▁:	-1507
▁निर्ण	-1508
44;	-1509
▁#44;	-1510
धित	-1511
▁डी	-1512
▁अतिरिक्त	-1513
▁पे	-1514
बल	-1515
▁उदा	-1516
▁महिला	-1517
फा	-1518
▁रहते	-1519
▁देशों	-1520
▁क़ौम	-1521
बू	-1522
▁अल	-1523
▁विन	-1524
▁नया	-1525
op	-1526
▁8	-1527
ीकरण	-1528
▁आकार	-1529
जर	-1530
▁नए	-1531
भर	-1532
▁चुका	-1533
▁सन्	-1534
▁चुके	-1535
▁सच्च	-1536
▁अंतर्गत	-1537
▁तुमने	-1538
मि	-1539
ेंट	-1540
▁कहने	-1541
कृतिक	-1542
▁लेने	-1543
▁कर्	-1544
▁संवि	-1545
डे	-1546
पन्न	-1547
▁पड़े	-1548
▁राम	-1549
वाई	-1550
▁सही	-1551
▁हिंद	-1552
▁उत्पादन	-1553
¥	-1554
▁संस	-1555
ष्ट्रीय	-1556
▁लाए	-1557
▁रखने	-1558
ेशा	-1559
▁जाये	-1560
▁अनुसंधान	-1561
ab	-1562
▁मंदिर	-1563
▁आकाश	-1564
▁ज़ि	-1565
वेदन	-1566
प्	-1567
▁एन	-1568
▁तु	-1569
क्ता	-1570
▁यातना	-1571
▁0	-1572
▁अप्र	-1573
▁खेल	-1574
▁त्रुट	-1575
▁इन्	-1576
तार	-1577
ट्टी	-1578
▁नही	-1579
सित	-1580
िष्ट	-1581
बो	-1582
ग्री	-1583
रोध	-1584
तमान	-1585
▁उठ	-1586
पूर्व	-1587
▁बुरा	-1588
ंधी	-1589
▁%	-1590
▁उद्देश्य	-1591
ष्ण	-1592
en	-1593
▁महान	-1594
▁राशि	-1595
▁यात्रा	-1596
▁व्यवस्था	-1597
▁।	-1598
▁सां	-1599
▁माँ	-1600
क्षम	-1601
▁क्षमता	-1602
▁वालों	-1603
▁निवेश	-1604
▁S	-1605
▁बहु	-1606
▁भू	-1607
▁प्रदेश	-1608
▁पत्	-1609
▁पृष्ठ	-1610
▁निस्	-1611
हित्य	-1612
▁विधि	-1613
▁बचा	-1614
▁बाल	-1615
ठला	-1616
स्थ्य	-1617
▁परी	-1618
▁उपधारा	-1619
▁जिन्हें	-1620
▁-	-1621
▁एस	-1622
कर्ता	-1623
▁सदस्य	-1624
▁निष्	-1625
▁परन्तु	-1626
▁संपर्क	-1627
▁अधिकारी	-1628
▁''	-1629
▁प्रारंभ	-1630
ot	-1631
▁रि	-1632
▁मनुष	-1633
▁समु	-1634
ूरत	-1635
▁राह	-1636
▁मूसा	-1637
▁वर्षों	-1638
▁वर्तमान	-1639
क्म	-1640
ोस	-1641
▁बनाए	-1642
ोर्ट	-1643
त्मा	-1644
▁विशिष्ट	-1645
षित	-1646
▁युद्ध	-1647
श्र	-1648
▁इतिहास	-1649
▁सिर्फ	-1650
▁वाप	-1651
ज्	-1652
▁परिवार	-1653
ख़िर	-1654
▁स्वतंत्र	-1655
▁थीं	-1656
▁सत्य	-1657
▁आरंभ	-1658
यान	-1659
▁निर्देश	-1660
▁अर	-1661
▁कौन	-1662
दर	-1663
▁प्रस्तुत	-1664
धारण	-1665
▁वर्ण	-1666
▁दूसरी	-1667
▁तुमको	-1668
▁त्रुटि	-1669
▁न्याय	-1670
¤	-1671
¤°	-1672
▁_	-1673
▁न्यायालय	-1674
▁सका	-1675
gm	-1676
▁<	-1677
▁झुठला	-1678
▁वहाँ	-1679
▁साहित्य	-1680
ांत	-1681
थम	-1682
▁२	-1683
मिल	-1684
▁पेश	-1685
गल	-1686
▁हमारा	-1687
▁दृष्टि	-1688
जो	-1689
भू	-1690
गु	-1691
▁प्रशिक्ष	-1692
▁स्वास्थ्य	-1693
▁दिल्ली	-1694
रिका	-1695
▁चा	-1696
सलमान	-1697
▁हुक्म	-1698
जित	-1699
ii	-1700
▁आन	-1701
▁kgm	-1702
▁शहर	-1703
▁शरीर	-1704
तक	-1705
le	-1706
जरा	-1707
▁शे	-1708
▁अपे	-1709
▁प्रधानमंत्री	-1710
ानीय	-1711
००	-1712
▁देगा	-1713
ar	-1714
▁थो	-1715
▁10	-1716
▁लाख	-1717
▁देखते	-1718
▁रात	-1719
▁वास्ते	-1720
▁दक्षि	-1721
▁बच्चों	-1722
▁जिनके	-1723
▁बेहतर	-1724
▁शिक	-1725
▁विश्वविद्यालय	-1726
▁चित्र	-1727
कम	-1728
▁तौर	-1729
ोजित	-1730
▁श्रेणी	-1731
▁आसमान	-1732
खित	-1733
नाथ	-1734
झा	-1735
▁निर	-1736
▁कैसे	-1737
लू	-1738
▁अंग्रे	-1739
ran	-1740
ंतिम	-1741
रि	-1742
at	-1743
निश्च	-1744
▁घटना	-1745
बत	-1746
▁अमेरिका	-1747
▁(2	-1748
Name	-1749
क्षर	-1750
्रिय	-1751
▁सम्बन्	-1752
▁एक्स	-1753
तने	-1754
▁संसा	-1755
वाब	-1756
▁भि	-1757
ैस	-1758
▁शीर्ष	-1759
▁हमेशा	-1760
▁निर्णय	-1761
ुओं	-1762
▁विकसित	-1763
▁जिन्होंने	-1764
▁स्थानीय	-1765
लाई	-1766
▁सेट	-1767
-1	-1768
▁तहत	-1769
तो	-1770
संदेह	-1771
▁भूमि	-1772
▁उदाहरण	-1773
▁name	-1774
▁नौ	-1775
),	-1776
▁काल	-1777
ड़ों	-1778
▁प्रस्ता	-1779
▁रू	-1780
▁प्रस	-1781
ज्ञा	-1782
▁बंद	-1783
▁मिले	-1784
शिया	-1785
▁हाला	-1786
▁सर्	-1787
▁दया	-1788
▁हक़	-1789
रीब	-1790
▁अला	-1791
▁निर्धारण	-1792
▁विदेशी	-1793
शल	-1794
▁अनि	-1795
▁भेजा	-1796
▁बंग	-1797
मन	-1798
गति	-1799
▁प्रेम	-1800
ज़िल	-1801
▁दस्ता	-1802
▁अंतिम	-1803
▁बल	-1804
ष्य	-1805
▁मौजूद	-1806
▁A	-1807
▁चिक	-1808
▁अनुभव	-1809
्याल	-1810
र्जा	-1811
साय	-1812
▁उन्	-1813
ंगा	-1814
▁पक	-1815
▁परंतु	-1816
▁छोटे	-1817
▁प्रस्ताव	-1818
▁रचना	-1819
▁सार्व	-1820
▁निश्चित	-1821
वासी	-1822
▁प्रवेश	-1823
▁संच	-1824
000	-1825
▁लगता	-1826
▁भूमिका	-1827
च्छा	-1828
▁मांग	-1829
▁दिशा	-1830
▁प्राधिक	-1831
दू	-1832
फिर	-1833
▁जहाँ	-1834
राही	-1835
▁किये	-1836
▁गांधी	-1837
▁तत्व	-1838
▁इस्ला	-1839
सू	-1840
▁लं	-1841
ोगे	-1842
¥	-1843
▁बोल	-1844
▁रिप	-1845
▁अफ	-1846
ील	-1847
▁पहचान	-1848
▁रहता	-1849
▁निस्संदेह	-1850
▁भाई	-1851
▁सक्रिय	-1852
▁अनुमति	-1853
▁वाद	-1854
्रेस	-1855
यां	-1856
▁पाया	-1857
▁संयुक्त	-1858
▁इंड	-1859
▁छवि	-1860
▁जन्म	-1861
दारों	-1862
▁दुर्	-1863
▁जिसकी	-1864
ैंड	-1865
ेंस	-1866
▁नव	-1867
यात	-1868
ोक्ता	-1869
▁इस्त	-1870
▁आधारित	-1871
▁घा	-1872
▁माना	-1873
▁जह	-1874
▁विस्तार	-1875
हे	-1876
▁9	-1877
▁c	-1878
▁वार	-1879
▁नागर	-1880
▁राजनी	-1881
▁पहुँच	-1882
▁दस्तावे	-1883
▁जल्	-1884
▁कृप	-1885
▁नियंत्रण	-1886
▁लक्ष्य	-1887
▁विकल्प	-1888
▁संबंधी	-1889
▁निर्दिष्ट	-1890
लिखित	-1891
▁यक़ीन	-1892
िकों	-1893
स्म	-1894
एल	-1895
▁वित्तीय	-1896
▁संक	-1897
दय	-1898
▁संभव	-1899
ार्ड	-1900
▁हिस्सा	-1901
option	-1902
▁बाजार	-1903
▁मित्र	-1904
▁स्थापना	-1905
▁गर्	-1906
वरी	-1907
▁मंत्रालय	-1908
▁कमी	-1909
ुनिक	-1910
▁जांच	-1911
मू	-1912
जह	-1913
▁15	-1914
वस्था	-1915
्राम	-1916
वीं	-1917
ृत्यु	-1918
▁अग्र	-1919
▁सहायक	-1920
▁मनुष्य	-1921
▁तकनी	-1922
ंतर	-1923
्टी	-1924
▁सोच	-1925
▁पहुँचा	-1926
न्ट	-1927
▁I	-1928
▁पुकार	-1929
▁बच	-1930
▁डाक	-1931
▁संविधान	-1932
चल	-1933
▁गुम	-1934
साइट	-1935
is	-1936
▁प्रथम	-1937
▁सिंह	-1938
▁प्रगति	-1939
▁झू	-1940
सान	-1941
▁वृद्धि	-1942
ंगे	-1943
म्मे	-1944
▁फल	-1945
▁लेते	-1946
▁तंत्र	-1947
▁अधि	-1948
▁प्रबंधन	-1949
▁नाज़िल	-1950
गि	-1951
.201	-1952
▁20	-1953
▁समिति	-1954
ंसा	-1955
▁दिनों	-1956
घा	-1957
▁पहली	-1958
▁केन्द्र	-1959
▁अलावा	-1960
गतान	-1961
▁उपकरण	-1962
निश्चित	-1963
▁पिछले	-1964
▁ट्र	-1965
rans	-1966
यामत	-1967
▁मृत्यु	-1968
र्श	-1969
▁मॉ	-1970
ानि	-1971
▁शो	-1972
स्थिति	-1973
यु	-1974
▁सहित	-1975
▁लें	-1976
▁जाय	-1977
▁रखता	-1978
र्जी	-1979
▁कृपया	-1980
▁उत्पन्न	-1981
▁गुनाह	-1982
▁सेना	-1983
▁समर्थन	-1984
पट	-1985
▁भीतर	-1986
▁खाता	-1987
ँच	-1988
▁न्यू	-1989
▁विंडो	-1990
▁पुस्तक	-1991
न्यास	-1992
▁मही	-1993
▁पूंजी	-1994
पण	-1995
द्रा	-1996
▁अध्ययन	-1997
▁पुनः	-1998
▁हटा	-1999
▁प्रश्न	-2000
▁मंत्री	-2001
शाली	-2002
▁एम	-2003
▁देव	-2004
▁खे	-2005
ransla	-2006
ज़े	-2007
▁12	-2008
▁सुनिश्चित	-2009
▁मिटा	-2010
optional	-2011
▁निशान	-2012
▁संभाव	-2013
▁चिकित	-2014
▁सर्वर	-2015
▁प्रशिक्षण	-2016
िको	-2017
▁आत्म	-2018
▁199	-2019
▁भुगतान	-2020
▁योग्य	-2021
्रोत	-2022
ौती	-2023
▁फ़र	-2024
▁ति	-2025
स्ती	-2026
▁राजा	-2027
▁तुल	-2028
▁क्षमा	-2029
ापन	-2030
▁अनुप	-2031
शु	-2032
▁pr	-2033
▁ऊर्जा	-2034
▁वास्तविक	-2035
बान	-2036
▁मात्रा	-2037
▁दक्षिण	-2038
▁सफलता	-2039
्ष्	-2040
▁@	-2041
▁चाल	-2042
▁समुदा	-2043
▁धार	-2044
▁भावना	-2045
तुम	-2046
▁लिखा	-2047
▁संग्रह	-2048
▁पौ	-2049
जनिक	-2050
▁ख़ु	-2051
▁आदमी	-2052
स्कार	-2053
▁हैः	-2054
▁भिन्न	-2055
▁कांग	-2056
गाह	-2057
▁उपबंध	-2058
पु	-2059
▁सत्ता	-2060
▁सरकारी	-2061
▁आधुनिक	-2062
क्या	-2063
▁आख़िर	-2064
▁transla	-2065
?"	-2066
ेमाल	-2067
▁मुसलमान	-2068
▁हित	-2069
ुआ	-2070
▁जाएँगे	-2071
▁बिल	-2072
म्ब	-2073
वाले	-2074
▁उनपर	-2075
▁इस्तेमाल	-2076
▁पुरा	-2077
ण्श	-2078
▁11	-2079
ऊण्श	-2080
्छ्ष्	-2081
ऊण्श्छ्ष्	-2082
त्सा	-2083
▁फाइल	-2084
▁दाय	-2085
▁वेबसाइट	-2086
▁(1)	-2087
▁वापस	-2088
▁राज्यों	-2089
▁बच्चे	-2090
▁सिर	-2091
▁मुक़	-2092
▁रिपोर्ट	-2093
ियान	-2094
ैल	-2095
ँह	-2096
गो	-2097
▁चुनें	-2098
▁खुल	-2099
▁जैसी	-2100
ly	-2101
▁प्रे	-2102
पे	-2103
स्ति	-2104
▁युवा	-2105
वस	-2106
विष्य	-2107
re	-2108
▁खो	-2109
om	-2110
▁सम्मान	-2111
▁खाते	-2112
▁खुद	-2113
▁प्रदर्श	-2114
▁सार्वजनिक	-2115
▁कट	-2116
▁क्ल	-2117
▁कप	-2118
▁सुना	-2119
▁उम्	-2120
▁वन	-2121
द्रीय	-2122
▁वो	-2123
▁मामलों	-2124
खी	-2125
▁आक	-2126
भूत	-2127
▁पूरे	-2128
▁हस्ता	-2129
▁पुरुष	-2130
▁उद्य	-2131
▁दृश्य	-2132
▁कमा	-2133
▁रहो	-2134
▁प्रकृति	-2135
ंथ	-2136
▁अह	-2137
▁साफ	-2138
▁मश	-2139
▁अत्यन्त	-2140
▁भविष्य	-2141
▁जे	-2142
▁उल्लेख	-2143
राह	-2144
निक	-2145
ामीण	-2146
▁यूर	-2147
▁निकट	-2148
▁मालूम	-2149
▁कम्प	-2150
▁चले	-2151
▁संपाद	-2152
▁खरी	-2153
▁जहन्न	-2154
▁बातें	-2155
▁संगठन	-2156
▁शासन	-2157
▁शुभ	-2158
▁संशो	-2159
▁आत	-2160
▁कोशिश	-2161
्यूटर	-2162
ख्स	-2163
▁यक़ीनन	-2164
ायद	-2165
ग़म्बर	-2166
▁जरूरत	-2167
▁बातों	-2168
ारों	-2169
▁गुर	-2170
▁दिखाएँ	-2171
नाव	-2172
र्चा	-2173
त्त्व	-2174
▁खिला	-2175
▁लाल	-2176
▁सत	-2177
ity	-2178
तृ	-2179
फ्	-2180
▁डॉ	-2181
▁सदस्यों	-2182
ंडल	-2183
▁वैज्ञान	-2184
बूत	-2185
श्वर	-2186
▁संके	-2187
▁पस	-2188
ob	-2189
चर	-2190
ारोह	-2191
▁अन्	-2192
▁शख्स	-2193
▁करोड़	-2194
िब	-2195
▁ग्रामीण	-2196
▁ढा	-2197
वाही	-2198
.0	-2199
▁संसद	-2200
▁विनिर्	-2201
▁जिनमें	-2202
▁ऑफ	-2203
▁सक्षम	-2204
▁नदी	-2205
लाइन	-2206
एक	-2207
मय	-2208
▁छिप	-2209
चारी	-2210
▁कानून	-2211
▁सामग्री	-2212
▁अपेक्षा	-2213
▁उचित	-2214
एफ	-2215
म्भ	-2216
▁लॉ	-2217
▁पर्य	-2218
▁समझा	-2219
▁देखने	-2220
ल्ल	-2221
▁गी	-2222
▁पहा	-2223
//	-2224
▁नेट	-2225
ड़क	-2226
▁बने	-2227
▁प्रशासन	-2228
▁तारी	-2229
▁̧	-2230
वर्ष	-2231
दर्भ	-2232
▁कहो	-2233
▁अपरा	-2234
▁संरचना	-2235
▁ईसा	-2236
र्ग	-2237
▁समारोह	-2238
▁रिक	-2239
▁इतना	-2240
गीत	-2241
▁जित	-2242
▁जवाब	-2243
▁केंद्रीय	-2244
काम	-2245
▁प्रकट	-2246
▁बाज़	-2247
▁दिखाई	-2248
--	-2249
▁पश्चात	-2250
▁M	-2251
▁P	-2252
▁'%	-2253
¤¿	-2254
▁व्यापक	-2255
▁अध्यक्ष	-2256
he	-2257
▁स्कूल	-2258
▁देती	-2259
▁पुरस्कार	-2260
▁री	-2261
▁संदर्भ	-2262
▁प्रतिनि	-2263
▁काफ़	-2264
▁रक्षा	-2265
मह	-2266
प्रे	-2267
▁बाप	-2268
▁हास	-2269
▁मुँह	-2270
टल	-2271
वालों	-2272
▁तौ	-2273
थमिक	-2274
▁टै	-2275
च्छेद	-2276
ीप	-2277
▁दशा	-2278
▁रोज	-2279
▁बयान	-2280
▁गांव	-2281
▁प्रोत्सा	-2282
▁निर्यात	-2283
ृह	-2284
://	-2285
-#	-2286
▁बुला	-2287
▁खाद	-2288
▁इनमें	-2289
टों	-2290
श्त	-2291
▁आँ	-2292
पूर्वक	-2293
▁पड़ा	-2294
▁गैर	-2295
▁वजह	-2296
ोग्राम	-2297
▁सहेज	-2298
बह	-2299
▁कांग्रेस	-2300
सत	-2301
▁योगदान	-2302
▁औद्योगिक	-2303
वधान	-2304
बि	-2305
▁बदले	-2306
▁अधिका	-2307
ंगी	-2308
▁मुद्रा	-2309
ैक	-2310
▁do	-2311
▁दौ	-2312
▁शायद	-2313
▁मुझ	-2314
▁प्राय	-2315
▁लौट	-2316
▁पथ	-2317
▁translation	-2318
▁सर्वो	-2319
tp	-2320
ंकन	-2321
ख़ुदा	-2322
¤	-2323
चीन	-2324
▁डिस्क	-2325
▁ठहरा	-2326
▁निजी	-2327
▁आवेदन	-2328
कान	-2329
▁प्राथमिक	-2330
▁स्वतंत्रता	-2331
▁किंतु	-2332
▁पालन	-2333
▁चाहिये	-2334
▁आयु	-2335
ल्पना	-2336
▁शर्	-2337
वर्ती	-2338
eed	-2339
▁रखना	-2340
▁केन्द	-2341
▁रहेंगे	-2342
ैतिक	-2343
▁not	-2344
▁̈	-2345
एन	-2346
▁रखो	-2347
▁आतंक	-2348
▁आयतों	-2349
▁प्रतिक	-2350
▁लेखा	-2351
राज	-2352
▁ध्व	-2353
▁यूरोप	-2354
▁उल	-2355
▁रखे	-2356
रुद्ध	-2357
्वी	-2358
▁एशिया	-2359
▁चयनित	-2360
http	-2361
▁अर्था	-2362
▁रेल	-2363
▁संस्कृति	-2364
▁भग	-2365
दृ	-2366
रल	-2367
▁संगीत	-2368
▁आयात	-2369
र्न	-2370
घु	-2371
▁इस्लाम	-2372
▁प्रभा	-2373
वत	-2374
▁need	-2375
▁किन	-2376
क्रमण	-2377
▁लागत	-2378
▁अवश्य	-2379
▁व्यक्तियों	-2380
▁T	-2381
▁सृ	-2382
▁बोर्ड	-2383
▁तय	-2384
ूदा	-2385
▁उद्यम	-2386
▁रकम	-2387
▁आशा	-2388
पक	-2389
ृति	-2390
खंड	-2391
▁इब	-2392
वर्क	-2393
▁राय	-2394
लिस	-2395
न्व	-2396
ड़ाई	-2397
▁निदेश	-2398
▁आयोजित	-2399
लब	-2400
▁कार्यालय	-2401
▁बज	-2402
▁आवा	-2403
▁विधान	-2404
सिक	-2405
▁शता	-2406
▁दश	-2407
ोलन	-2408
▁ढंग	-2409
▁तत्	-2410
▁पांच	-2411
▁प्रभावित	-2412
फर	-2413
▁सकें	-2414
लाम	-2415
▁डाला	-2416
मेल	-2417
मो	-2418
नेवाला	-2419
िकी	-2420
▁दल	-2421
▁पर्याप्त	-2422
▁बंगाल	-2423
▁प्रकाशित	-2424
▁भौ	-2425
्सा	-2426
सन	-2427
▁अध्या	-2428
▁निधि	-2429
▁http	-2430
▁दूसरा	-2431
▁अवस्था	-2432
st	-2433
▁मुक्त	-2434
▁स्रोत	-2435
▁समुदाय	-2436
इयों	-2437
▁व्यवहार	-2438
▁असम	-2439
▁निर्धारिती	-2440
▁शांति	-2441
परी	-2442
सु	-2443
▁does	-2444
मक	-2445
ably	-2446
थि	-2447
▁झूठ	-2448
▁prob	-2449
nt	-2450
▁196	-2451
▁ब्या	-2452
▁probably	-2453
▁पाल	-2454
नेवाले	-2455
▁देंगे	-2456
▁राजनीतिक	-2457
▁नर	-2458
▁विभा	-2459
िल्म	-2460
▁हल	-2461
ड्ड	-2462
▁सलाह	-2463
▁हासिल	-2464
ुता	-2465
माज़	-2466
द्यपि	-2467
▁चुकी	-2468
फ्त	-2469
स्‍	-2470
▁बनी	-2471
▁पर्यावरण	-2472
▁मुखर्जी	-2473
क्का	-2474
▁प्रभ	-2475
कला	-2476
राष्ट्रीय	-2477
नो	-2478
▁चर	-2479
▁दिवस	-2480
ol	-2481
▁रक्त	-2482
ou	-2483
▁निम्नलिखित	-2484
ग्	-2485
रीय	-2486
▁गि	-2487
▁अनुप्र	-2488
▁सुरक्षित	-2489
स्पर	-2490
▁असफल	-2491
राज्य	-2492
कत	-2493
City	-2494
▁संय	-2495
▁तीस	-2496
षद	-2497
नेट	-2498
▁केन्द्रीय	-2499
▁लाने	-2500
):	-2501
▁भारी	-2502
फ्ट	-2503
▁दृष्ट	-2504
▁चर्चा	-2505
▁संरक्षण	-2506
▁पदार्थ	-2507
ालिम	-2508
▁सेवाओं	-2509
▁̧à	-2510
कल	-2511
मीद	-2512
ियर	-2513
क्षक	-2514
▁धी	-2515
डिया	-2516
▁समझौ	-2517
घ्र	-2518
धाई	-2519
▁यद्यपि	-2520
▁आपकी	-2521
पो	-2522
्टर	-2523
▁तेल	-2524
▁सीधे	-2525
स्त्र	-2526
▁क्रम	-2527
▁बैठक	-2528
▁प्रमाणपत्र	-2529
ंद्र	-2530
▁कहना	-2531
कारा	-2532
वत्ता	-2533
ैव	-2534
्यो	-2535
▁इका	-2536
▁अनुक	-2537
▁शब्दों	-2538
▁विशाल	-2539
▁बाग़	-2540
▁आत्मा	-2541
▁डेटा	-2542
दूस	-2543
▁साह	-2544
▁आता	-2545
▁दिख	-2546
se	-2547
▁फरमा	-2548
▁दू	-2549
▁बधाई	-2550
-2	-2551
भाल	-2552
▁आयोग	-2553
▁नगर	-2554
भीर	-2555
हाद	-2556
िक्	-2557
बाह	-2558
▁पेट	-2559
▁सिद्धांत	-2560
ंबर	-2561
▁तरीके	-2562
▁यथा	-2563
हीन	-2564
▁भागी	-2565
व्यवस्था	-2566
▁कदम	-2567
▁उत	-2568
▁पंजी	-2569
त्तर	-2570
कीय	-2571
▁विरुद्ध	-2572
▁ख़बर	-2573
▁क़ुर	-2574
▁बढ	-2575
▁संसाधन	-2576
▁उपस्थित	-2577
of	-2578
ंदा	-2579
क्टर	-2580
क्शन	-2581
णि	-2582
▁p	-2583
▁दस	-2584
▁छोटी	-2585
यल	-2586
▁पल	-2587
दो	-2588
▁D	-2589
▁सच	-2590
▁पैग़म्बर	-2591
▁गिरोह	-2592
धनों	-2593
▁अनिवार	-2594
भूति	-2595
यक	-2596
षणा	-2597
▁बैठे	-2598
▁एह	-2599
▁पृथ	-2600
▁ज़ालिम	-2601
ज्ञात	-2602
▁अत्या	-2603
▁गुणवत्ता	-2604
▁छोड़कर	-2605
▁प्रदर्शन	-2606
▁मशीन	-2607
किंग	-2608
लिम	-2609
▁पसंद	-2610
ार्मिक	-2611
▁रखी	-2612
▁जिला	-2613
▁प्राकृतिक	-2614
▁भंड	-2615
▁स्म	-2616
▁विविध	-2617
▁१९	-2618
▁छात्र	-2619
▁नेटवर्क	-2620
▁{	-2621
न्दर	-2622
प्ता	-2623
▁प्रभावी	-2624
उट	-2625
चक	-2626
▁जाति	-2627
▁प्राचीन	-2628
▁25	-2629
वाला	-2630
यह	-2631
▁सख्त	-2632
▁सम्बन्ध	-2633
ल्लाह	-2634
▁बताया	-2635
वेयर	-2636
.1	-2637
न्स	-2638
▁अंक	-2639
▁आते	-2640
▁अता	-2641
▁लघु	-2642
▁पकड़	-2643
▁नमाज़	-2644
ब्दी	-2645
▁उपाय	-2646
▁पर्व	-2647
her	-2648
▁अधिकांश	-2649
ल्ड	-2650
▁प्रसन्न	-2651
▁भोजन	-2652
▁इच्छा	-2653
▁मेहर	-2654
▁पश्चिम	-2655
▁तुलना	-2656
त्री	-2657
▁आंद	-2658
▁इला	-2659
▁विद्यार्थ	-2660
रज़	-2661
▁हट	-2662
मेलन	-2663
▁समृ	-2664
चारियों	-2665
▁बौ	-2666
▁अगले	-2667
धिकार	-2668
nic	-2669
▁ज़रूर	-2670
▁महारा	-2671
फे	-2672
▁अनिवार्य	-2673
▁शिकाय	-2674
▁गतिविध	-2675
▁धार्मिक	-2676
¤2	-2677
▁b	-2678
▁वर्णन	-2679
▁16	-2680
▁गर्इ	-2681
▁रखें	-2682
थर	-2683
ंकि	-2684
कारों	-2685
▁(19	-2686
वह	-2687
▁195	-2688
▁वैज्ञानिक	-2689
▁वायु	-2690
जूद	-2691
न्दा	-2692
▁मना	-2693
▁बनाना	-2694
▁समाधान	-2695
▁परीक्षा	-2696
▁कंप्यूटर	-2697
्ब	-2698
▁प्रोग्राम	-2699
▁ऊँ	-2700
▁हस्ताक्षर	-2701
▁F	-2702
▁लेना	-2703
▁बन्दों	-2704
▁शक	-2705
ह्न	-2706
▁हृ	-2707
▁पश्चा	-2708
एगा	-2709
दायत	-2710
▁अधिकारियों	-2711
▁लगी	-2712
▁ग्रह	-2713
▁वीडियो	-2714
▁[	-2715
il	-2716
▁ब्याज	-2717
▁विज	-2718
रित	-2719
▁अक	-2720
याँ	-2721
ल्स	-2722
▁आपका	-2723
▁जोड़ें	-2724
स्य	-2725
▁मिली	-2726
▁मुह	-2727
▁मोह	-2728
खे	-2729
्रीन	-2730
▁खड़े	-2731
ेप	-2732
▁संभावना	-2733
▁सम्मेलन	-2734
▁कूट	-2735
▁मिलता	-2736
▁अक्	-2737
▁ईश्वर	-2738
▁शीघ्र	-2739
▁संस्थानों	-2740
यें	-2741
▁कुंजी	-2742
▁तुमपर	-2743
▁उन्हीं	-2744
नाम	-2745
राहीम	-2746
▁जल्दी	-2747
▁आख़िरत	-2748
▁पाने	-2749
▁दबा	-2750
▁वाक़	-2751
साथ	-2752
▁संपत्ति	-2753
रू	-2754
▁पद्ध	-2755
झी	-2756
ंपरा	-2757
ज़ार	-2758
्वा	-2759
ल्कुल	-2760
▁सात	-2761
▁शैली	-2762
▁दर्शा	-2763
रान	-2764
▁उम्मीद	-2765
▁मजबूत	-2766
▁198	-2767
▁तुममें	-2768
स्लिम	-2769
न्नत	-2770
▁आती	-2771
▁उपभ	-2772
▁करनी	-2773
औन	-2774
▁चीज	-2775
ाई	-2776
▁B	-2777
संग	-2778
▁प्रणब	-2779
ोजनों	-2780
▁बर्	-2781
▁तारीख	-2782
▁वैश्व	-2783
▁G	-2784
ार्क	-2785
िकोण	-2786
▁हिन्दी	-2787
▁कविता	-2788
▁पुनर्	-2789
वों	-2790
ेगा	-2791
स्टम	-2792
▁संसार	-2793
▁समझते	-2794
▁ब्रिट	-2795
¤1	-2796
▁छु	-2797
स्टर	-2798
ॉप	-2799
▁श्रेणीः	-2800
▁चिकित्सा	-2801
▁खरीद	-2802
▁हालत	-2803
▁कने	-2804
िश्ते	-2805
▁जरूरी	-2806
▁कार्यों	-2807
▁रहती	-2808
et	-2809
▁एज	-2810
▁गं	-2811
,000	-2812
▁पहल	-2813
स्वरूप	-2814
▁स्त्र	-2815
▁खर्च	-2816
▁सम्मिल	-2817
ँकि	-2818
▁डरा	-2819
▁इन्ह	-2820
▁दिलों	-2821
मेंट	-2822
▁अंश	-2823
▁हिदायत	-2824
धियों	-2825
▁विद	-2826
▁मानते	-2827
▁पुलिस	-2828
▁रहना	-2829
▁सित	-2830
ठित	-2831
▁सीमित	-2832
्वेष	-2833
बु	-2834
ठी	-2835
्प	-2836
जली	-2837
▁पिता	-2838
कालीन	-2839
▁तथ	-2840
विक	-2841
▁अनुप्रयोग	-2842
▁निर्भर	-2843
ww	-2844
▁सैन	-2845
▁निर्मित	-2846
▁ब्रिटिश	-2847
▁हजार	-2848
ालित	-2849
-#-#	-2850
▁सारी	-2851
▁जहन्नुम	-2852
▁भंडार	-2853
▁फेर	-2854
▁विफल	-2855
शय	-2856
▁युग	-2857
सिद्ध	-2858
▁वार्ष	-2859
▁साधारण	-2860
▁करनेवालों	-2861
ब्र	-2862
▁परंपरा	-2863
▁बिल्कुल	-2864
▁रास्त	-2865
▁इबराहीम	-2866
▁पहुंचा	-2867
▁दुख	-2868
▁नो	-2869
▁प्रवि	-2870
देव	-2871
▁अपील	-2872
▁आपने	-2873
▁भगवान	-2874
▁छोटा	-2875
htm	-2876
दर्शी	-2877
▁गलत	-2878
▁शाखा	-2879
▁शताब्दी	-2880
▁बख	-2881
▁अर्थव्यवस्था	-2882
▁m	-2883
▁संकेत	-2884
डल	-2885
राब	-2886
▁ताल	-2887
मीर	-2888
▁परिच	-2889
▁संशोधन	-2890
तया	-2891
▁भ्र	-2892
▁194	-2893
▁13	-2894
▁आदर्श	-2895
▁नसी	-2896
▁किसानों	-2897
अपने	-2898
्राष्ट्रीय	-2899
▁शेष	-2900
▁अभिलेख	-2901
म्म	-2902
▁R	-2903
्यालयों	-2904
▁सच्चे	-2905
▁विरोध	-2906
▁विचारों	-2907
▁तरफ़	-2908
▁शैतान	-2909
▁प्रतिष्ठ	-2910
▁हवा	-2911
वृत्ति	-2912
▁प्रदर्शित	-2913
▁व्यक्तिगत	-2914
▁खुलती	-2915
▁मौजूदा	-2916
▁अंदर	-2917
▁अत्यंत	-2918
▁एव	-2919
कात	-2920
भूम	-2921
▁समुद्र	-2922
▁निर्वा	-2923
स्कृतिक	-2924
▁आंदोलन	-2925
▁प्रयोजनों	-2926
ंगल	-2927
म्र	-2928
ध्या	-2929
▁महीने	-2930
▁197	-2931
▁अप्रैल	-2932
▁संघर्ष	-2933
धर	-2934
▁विंडों	-2935
▁इंटर	-2936
▁फी	-2937
▁शक़	-2938
▁सम्मिलित	-2939
्‍य	-2940
▁निगम	-2941
▁14	-2942
दूसरे	-2943
▁अंग्रेजी	-2944
वै	-2945
▁नेता	-2946
सब	-2947
▁सत्या	-2948
ब्ल	-2949
▁विद्व	-2950
▁f	-2951
▁कठिन	-2952
▁कीमत	-2953
▁मुस्लिम	-2954
लग्न	-2955
▁L	-2956
कुल	-2957
ताल	-2958
▁काट	-2959
▁स्थायी	-2960
िना	-2961
▁̈à	-2962
▁नागरिक	-2963
▁सदैव	-2964
▁बढ़ाने	-2965
▁विवाह	-2966
▁घट	-2967
▁चरण	-2968
तरा	-2969
ल्ला	-2970
▁1.	-2971
्रेड	-2972
ेक्ट	-2973
▁बुद्धि	-2974
▁चढ़	-2975
हरे	-2976
▁इंडिया	-2977
▁लगाया	-2978
परि	-2979
▁फैला	-2980
▁महत्त्व	-2981
िमी	-2982
ष्ट्र	-2983
ियत	-2984
जनक	-2985
▁जोर	-2986
▁रहेगा	-2987
▁आकाशों	-2988
▁नोट	-2989
▁तेजी	-2990
▁जिम्मे	-2991
न्त्र	-2992
▁झग	-2993
गिज़	-2994
▁शुल्क	-2995
ार्म	-2996
्यान्व	-2997
▁मार्च	-2998
▁मिट्टी	-2999
aà	-3000
▁घोषणा	-3001
▁पहला	-3002
ment	-3003
di	-3004
▁N	-3005
▁जाँच	-3006
▁खास	-3007
▁अनुच्छेद	-3008
▁एल	-3009
▁संत	-3010
मैं	-3011
▁भली	-3012
▁मिस	-3013
▁जिसको	-3014
साद	-3015
▁नये	-3016
▁हालाँकि	-3017
▁कार्यान्व	-3018
▁(2)	-3019
दाता	-3020
▁आंक	-3021
▁निशानियाँ	-3022
▁प्रत्यक्ष	-3023
▁दृष्टिकोण	-3024
▁लेखक	-3025
▁कहेंगे	-3026
ra	-3027
▁व्यय	-3028
ाब	-3029
▁U	-3030
▁सज़ा	-3031
▁परिषद	-3032
▁फिल	-3033
▁दायित्व	-3034
भूमि	-3035
▁चुनाव	-3036
▁सॉ	-3037
▁अस्त	-3038
▁परिवर्त	-3039
▁बढ़ावा	-3040
भाषा	-3041
इड	-3042
▁बाव	-3043
▁प्	-3044
▁चलते	-3045
▁सरल	-3046
नु	-3047
▁17	-3048
▁संस्कृत	-3049
बाहरी	-3050
यण	-3051
▁बीमा	-3052
▁मालिक	-3053
साब	-3054
▁अफ्री	-3055
▁गवाह	-3056
ंबई	-3057
्वाह	-3058
▁पंजा	-3059
्यूशन	-3060
▁पाक	-3061
▁गंभीर	-3062
▁पड़ता	-3063
▁ग्राह	-3064
फार	-3065
▁फे	-3066
ोने	-3067
▁देखें	-3068
▁असा	-3069
रिया	-3070
फ़ार	-3071
▁ड्र	-3072
▁सांस्कृतिक	-3073
जीव	-3074
कृष्ट	-3075
▁इनके	-3076
▁कानू	-3077
▁रुपये	-3078
शाला	-3079
▁तर्क	-3080
▁रहें	-3081
▁उपयुक्त	-3082
▁लेता	-3083
सभा	-3084
▁अधिस	-3085
▁बौद्ध	-3086
▁वैश्विक	-3087
▁आपस	-3088
अल्लाह	-3089
ितीय	-3090
▁नसीहत	-3091
▁तकनीकी	-3092
▁30	-3093
▁भूल	-3094
ंचे	-3095
▁वस्तुओं	-3096
प्ताह	-3097
क्षेत्र	-3098
दूर	-3099
▁पाए	-3100
दना	-3101
▁पश्चात्	-3102
▁बनाकर	-3103
मारी	-3104
▁दोष	-3105
▁लोड	-3106
▁कार्र	-3107
▁H	-3108
▁गाय	-3109
▁सत्र	-3110
▁रोजगार	-3111
▁सश	-3112
वृत्त	-3113
▁घरों	-3114
▁पात्र	-3115
▁मिलने	-3116
▁अंतरराष्ट्रीय	-3117
▁खुश	-3118
ढ़ी	-3119
▁प्राण	-3120
▁प्रतीक	-3121
ख़्श	-3122
▁मस	-3123
▁खूब	-3124
▁महिलाओं	-3125
▁क्षेत्रीय	-3126
▁देखो	-3127
▁बनाई	-3128
नियों	-3129
▁जिनका	-3130
▁प्रयासों	-3131
भारत	-3132
सूस	-3133
▁हृदय	-3134
ादी	-3135
एँगे	-3136
क्ष्म	-3137
¤®	-3138
▁प्रसार	-3139
▁बुरी	-3140
▁नियुक्त	-3141
▁साझी	-3142
▁पत्थर	-3143
▁जादू	-3144
मर	-3145
▁विनिर्दिष्ट	-3146
▁टुक	-3147
▁नाटक	-3148
▁प्रभार	-3149
▁मज़	-3150
▁E	-3151
ुमार	-3152
▁खाद्य	-3153
▁शास्त	-3154
▁व्याख्या	-3155
खर	-3156
िकाओं	-3157
▁भय	-3158
▁अनुवाद	-3159
▁अधिकतर	-3160
▁कठोर	-3161
▁दिखाया	-3162
▁भरो	-3163
▁स्वरूप	-3164
ूंगा	-3165
कामना	-3166
▁संदे	-3167
▁अधिसू	-3168
प्रिय	-3169
▁दिये	-3170
ूँगा	-3171
▁उत्तम	-3172
▁पद्धति	-3173
▁शास	-3174
▁बिजली	-3175
▁विस्तृत	-3176
▁अधिकतम	-3177
▁प्लग	-3178
▁समाचार	-3179
▁एच	-3180
धानी	-3181
▁अनुसू	-3182
चित्र	-3183
▁सिस्टम	-3184
बूल	-3185
▁खोलें	-3186
▁व्याव	-3187
▁संस्करण	-3188
▁ज़ु	-3189
▁इजरा	-3190
▁कहानी	-3191
▁गुजरा	-3192
▁स्वामी	-3193
▁नियत	-3194
नर	-3195
''	-3196
▁सरक	-3197
▁इतनी	-3198
▁वाक़ि	-3199
▁समक्ष	-3200
▁बख्श	-3201
कद	-3202
▁अंध	-3203
▁दीर्	-3204
▁बावजूद	-3205
▁शक्त	-3206
व्र	-3207
▁शिव	-3208
▁मार्गदर्शन	-3209
▁ग्राम	-3210
▁पार्टी	-3211
▁प्रयुक्त	-3212
▁अरब	-3213
▁शेयर	-3214
▁प्रेर	-3215
▁शुभकामना	-3216
▁इंज	-3217
वें	-3218
▁सीख	-3219
▁वाता	-3220
▁क़यामत	-3221
▁आतंकवाद	-3222
्रिया	-3223
▁माह	-3224
▁कटौती	-3225
▁हालांकि	-3226
बूद	-3227
िक्री	-3228
▁बुनिया	-3229
मल	-3230
▁(3	-3231
द्धा	-3232
▁मूल्या	-3233
▁पश्चिमी	-3234
▁करनेवाला	-3235
▁त्व	-3236
ंटे	-3237
लिंग	-3238
▁विनि	-3239
▁फैस	-3240
▁अनुकूल	-3241
▁निरंतर	-3242
▁पाय	-3243
▁चिह्न	-3244
▁सज	-3245
ुत्व	-3246
▁परस्पर	-3247
▁फाय	-3248
तृत्व	-3249
वहन	-3250
▁मोड	-3251
▁छिपा	-3252
▁विमान	-3253
ॉन	-3254
भाष	-3255
▁w	-3256
)।	-3257
न्ना	-3258
▁मेल	-3259
▁स्पष्टीकरण	-3260
र्र	-3261
▁मास	-3262
त्न	-3263
▁दर्शन	-3264
▁रोज़ी	-3265
▁सामना	-3266
▁सम्प	-3267
▁खाली	-3268
▁सबको	-3269
त्‍	-3270
▁डाटा	-3271
दों	-3272
सों	-3273
▁विध	-3274
▁परिस्थित	-3275
▁अवै	-3276
¥	-3277
▁एफ	-3278
▁दीवार	-3279
खिल	-3280
▁प्रच	-3281
▁वार्षिक	-3282
▁संचार	-3283
▁the	-3284
▁वायदा	-3285
अपनी	-3286
▁गहरा	-3287
▁मिशन	-3288
▁हार	-3289
▁गतिविधियों	-3290
▁कल्या	-3291
▁मिलकर	-3292
▁रेखा	-3293
▁प्रसिद्ध	-3294
▁विल	-3295
▁वातावरण	-3296
▁पूर्ववर्ष	-3297
▁सकेगा	-3298
▁हाथों	-3299
बादत	-3300
▁आसान	-3301
्ति	-3302
▁यंत्र	-3303
▁मुसलमानों	-3304
▁संलग्न	-3305
▁ऑन	-3306
▁सचि	-3307
▁अके	-3308
जिए	-3309
▁जानवर	-3310
20	-3311
वासियों	-3312
▁खड़ा	-3313
पास	-3314
▁राजन	-3315
▁अना	-3316
ोल्यूशन	-3317
▁तला	-3318
▁बॉ	-3319
▁चलता	-3320
▁द्वार	-3321
▁कार्ड	-3322
▁नियमों	-3323
स्वी	-3324
▁समर्	-3325
ट्र	-3326
नेवालों	-3327
▁e	-3328
▁हिन्दू	-3329
▁लिखने	-3330
यत	-3331
िज	-3332
ोकन	-3333
▁नियमित	-3334
जु	-3335
दिक	-3336
▁टाइ	-3337
▁इत्या	-3338
▁अपराध	-3339
ून्य	-3340
▁करनेवाले	-3341
▁कर्मचारियों	-3342
▁नामक	-3343
▁क्लिक	-3344
ेंशन	-3345
▁आरो	-3346
▁करी	-3347
किस्तान	-3348
▁संपूर्ण	-3349
▁सूक्ष्म	-3350
भु	-3351
▁मंज	-3352
▁खी	-3353
▁महसूस	-3354
पुट	-3355
▁अवि	-3356
▁स्वागत	-3357
▁फ़ैस	-3358
¤¤	-3359
ंकर	-3360
किल	-3361
▁वेतन	-3362
▁अभिव्य	-3363
वाली	-3364
ँव	-3365
▁भला	-3366
▁मतलब	-3367
▁हानि	-3368
▁ग्रहण	-3369
▁मल	-3370
लोड	-3371
▁अनुमान	-3372
▁स्त्री	-3373
ंखला	-3374
▁परीक्षण	-3375
टिल	-3376
▁सुझा	-3377
▁रौ	-3378
▁अंड	-3379
▁शिकायत	-3380
ंका	-3381
▁आंत	-3382
▁बंध	-3383
▁तमा	-3384
▁स्‍	-3385
▁माँग	-3386
▁सारा	-3387
▁हाँ	-3388
▁दीन	-3389
▁विश्ले	-3390
▁पैर	-3391
ंचाई	-3392
▁चैन	-3393
▁सदन	-3394
▁उपचार	-3395
▁अफ्रीका	-3396
बरी	-3397
▁कथ	-3398
▁वर	-3399
▁अस्प	-3400
▁हरगिज़	-3401
▁दावा	-3402
▁झुठलाया	-3403
▁अद्य	-3404
▁पंच	-3405
▁g	-3406
▁कार्रवाई	-3407
▁अवैध	-3408
▁सर्वा	-3409
▁x	-3410
▁–	-3411
▁24	-3412
▁प्रेष	-3413
▁देकर	-3414
▁बनाएँ	-3415
▁हिसाब	-3416
ाक	-3417
▁स्वच्छ	-3418
हि	-3419
पों	-3420
▁बाहरी	-3421
▁पंक्ति	-3422
▁बजा	-3423
▁माता	-3424
ताव	-3425
▁अद	-3426
▁साम्रा	-3427
▁अक्सर	-3428
....	-3429
▁इन्हें	-3430
▁टन	-3431
▁आये	-3432
टेड	-3433
▁मूर्ति	-3434
▁शुभकामनाएं	-3435
el	-3436
▁in	-3437
▁भरोसा	-3438
र्त	-3439
▁इबादत	-3440
▁जाएं	-3441
ष्क	-3442
▁वाह	-3443
▁भौतिक	-3444
▁सूर्य	-3445
▁सहेजें	-3446
ँति	-3447
▁प्राप्ति	-3448
▁प्रावधान	-3449
▁परा	-3450
▁तौबा	-3451
▁कल्याण	-3452
▁मात्र	-3453
▁जीवित	-3454
▁कारबार	-3455
▁चम	-3456
▁उपय	-3457
▁पीठ	-3458
▁जिनकी	-3459
▁O	-3460
▁दंड	-3461
▁समस्याओं	-3462
▁पेज	-3463
▁पाठ्य	-3464
▁प्रसन्नता	-3465
▁h	-3466
▁खाने	-3467
रेट	-3468
▁जनवरी	-3469
▁अंतर्राष्ट्रीय	-3470
तिहासिक	-3471
▁आयुक्त	-3472
▁कल्पना	-3473
▁खाना	-3474
▁शख़्श	-3475
▁संकल्प	-3476
▁आकर्ष	-3477
▁सुंदर	-3478
▁पत्त	-3479
▁उद	-3480
ंघ	-3481
▁ब्रा	-3482
▁बढ़कर	-3483
▁फॉ	-3484
▁अनुमो	-3485
▁खेती	-3486
▁भेजे	-3487
▁फा	-3488
▁हिस्से	-3489
▁व्यवसाय	-3490
▁मिलती	-3491
नांक	-3492
दिन	-3493
▁50	-3494
▁क्रा	-3495
▁कितने	-3496
पान	-3497
शब्द	-3498
▁मौसम	-3499
वट	-3500
▁कथा	-3501
▁उत्स	-3502
धीन	-3503
लाल	-3504
▁मानसिक	-3505
▁ढूं	-3506
▁खुशी	-3507
▁माबूद	-3508
▁भलाई	-3509
▁लगाने	-3510
▁पुराने	-3511
▁प्रजा	-3512
न्‍	-3513
▁वितरण	-3514
▁परियोजनाओं	-3515
▁बू	-3516
बारा	-3517
▁संबो	-3518
▁कार्यक्रमों	-3519
्वे	-3520
▁ज़रुर	-3521
▁आयोजन	-3522
▁क्षति	-3523
ियार	-3524
दु	-3525
▁शुरुआ	-3526
▁छुट	-3527
▁प्रार्थ	-3528
क्ट्र	-3529
▁तिथि	-3530
ायक	-3531
▁दूध	-3532
ce	-3533
▁नेतृत्व	-3534
▁दस्तावेज	-3535
▁धो	-3536
ृंखला	-3537
पै	-3538
रार	-3539
चीत	-3540
▁चलो	-3541
▁जून	-3542
▁बदलें	-3543
▁जायेगा	-3544
▁गणराज्य	-3545
▁पंचा	-3546
▁जानी	-3547
क्षेप	-3548
ूर्ति	-3549
▁चै	-3550
▁मनो	-3551
▁एवोल्यूशन	-3552
▁"%	-3553
pres	-3554
▁दोस्त	-3555
▁कदा	-3556
▁विवाद	-3557
▁धीरे	-3558
▁ब्रह	-3559
▁आइ	-3560
▁द्र	-3561
▁उसपर	-3562
▁न्यून	-3563
▁सप्ताह	-3564
जू	-3565
▁बोझ	-3566
लम	-3567
अलग	-3568
वान्वेष	-3569
▁अल्प	-3570
श्म	-3571
▁ज़ुल्म	-3572
वित्र	-3573
▁शत्र	-3574
▁मुद्द	-3575
▁हस्त	-3576
▁कितनी	-3577
▁हिंदू	-3578
▁कुफ्	-3579
ाले	-3580
क्षी	-3581
णु	-3582
▁इत्यादि	-3583
ूबर	-3584
ut	-3585
▁उड़	-3586
▁दयाल	-3587
▁प्ले	-3588
वर्तन	-3589
▁निरा	-3590
▁यूनि	-3591
त्मिक	-3592
लील	-3593
वक	-3594
▁शून्य	-3595
▁अभियान	-3596
दुनिया	-3597
▁अनुसरण	-3598
▁उपन्यास	-3599
्यार	-3600
▁क़सम	-3601
▁कराने	-3602
▁ख़र्च	-3603
▁कोड	-3604
यम	-3605
▁काफ़िर	-3606
▁निभा	-3607
छा	-3608
िक़	-3609
▁निर्देशिका	-3610
ियल	-3611
▁तट	-3612
▁जुड़े	-3613
▁मूल्यांकन	-3614
▁100	-3615
▁उत्कृष्ट	-3616
फ्र	-3617
▁खुले	-3618
▁तकली	-3619
▁मध	-3620
मंडल	-3621
▁मुला	-3622
▁३	-3623
▁आउट	-3624
ंता	-3625
▁आँख	-3626
▁प्रार्थना	-3627
शक्ति	-3628
▁पत्नी	-3629
▁लम्	-3630
▁पर्यटन	-3631
पादन	-3632
णिज्य	-3633
▁अंतरण	-3634
▁बजे	-3635
▁बनाते	-3636
▁सुख	-3637
▁पराम	-3638
▁होनी	-3639
▁प्रयोजन	-3640
▁संस्थाओं	-3641
न्दगी	-3642
▁शुद्ध	-3643
▁पट्टी	-3644
id	-3645
▁संगण	-3646
मीटर	-3647
गण	-3648
▁आनंद	-3649
▁बातचीत	-3650
▁कमांड	-3651
▁अस्तित्व	-3652
म्मद	-3653
्याग	-3654
िकाना	-3655
▁विशेषता	-3656
▁कर्मचारी	-3657
▁फूल	-3658
▁गुरु	-3659
▁डरते	-3660
▁̄	-3661
क़यामत	-3662
▁आस्ति	-3663
▁ऐतिहासिक	-3664
ुप	-3665
▁हद	-3666
▁मिटाएँ	-3667
▁बेटे	-3668
▁नवान्वेष	-3669
श्मीर	-3670
▁तेरे	-3671
घाटन	-3672
▁अत्यधिक	-3673
▁प्रेरित	-3674
▁इजरायल	-3675
▁विद्यार्थियों	-3676
धीश	-3677
▁पंचांग	-3678
रक	-3679
▁फ़ॉ	-3680
▁विद्युत	-3681
ंटी	-3682
ूक	-3683
▁गंगा	-3684
मानी	-3685
▁लक्षण	-3686
▁निशानी	-3687
▁मान्यता	-3688
▁साब	-3689
▁आध्या	-3690
ent	-3691
ओगे	-3692
▁+	-3693
क्सी	-3694
▁मामला	-3695
▁इकाई	-3696
▁उदार	-3697
्ठा	-3698
▁गुप्त	-3699
▁बुराई	-3700
▁गैस	-3701
फ़र	-3702
▁तुर	-3703
▁प्रारूप	-3704
वीय	-3705
▁मानक	-3706
▁शुक्र	-3707
ोम	-3708
मान्य	-3709
▁शीर्षक	-3710
▁स्क्रीन	-3711
▁मुक़ाब	-3712
▁संबंधों	-3713
परिक	-3714
▁विवे	-3715
▁तेज	-3716
▁बिक्री	-3717
वां	-3718
▁इकट	-3719
▁आयतें	-3720
ुस	-3721
▁देखभाल	-3722
▁साधन	-3723
राई	-3724
▁कक्ष	-3725
▁सौंप	-3726
िश्तों	-3727
्ता	-3728
▁दुआ	-3729
▁चारों	-3730
▁बैंकों	-3731
्वर	-3732
▁बाह	-3733
▁लाया	-3734
▁फसल	-3735
▁काव्य	-3736
▁सुबह	-3737
▁दिला	-3738
▁वादा	-3739
लोग	-3740
▁स्तंभ	-3741
▁बुनियादी	-3742
▁प्रतिक्रिया	-3743
▁खिलाफ	-3744
▁वाणिज्य	-3745
▁ईमानदारों	-3746
▁किसान	-3747
▁इरा	-3748
▁प्रोट	-3749
र्ज	-3750
▁पाकिस्तान	-3751
िनी	-3752
▁मछ	-3753
▁प्रभुत्व	-3754
▁ख़ास	-3755
▁लोकप्रिय	-3756
▁नष्ट	-3757
ुमा	-3758
▁टिप	-3759
▁फिल्म	-3760
▁स्थिर	-3761
▁निदेशक	-3762
▁विरा	-3763
▁गृह	-3764
▁छूट	-3765
▁मंच	-3766
omment	-3767
करी	-3768
▁कहता	-3769
▁मानो	-3770
▁विशेषज्ञ	-3771
▁हराम	-3772
ॉकि	-3773
िक्स	-3774
▁फ्ल	-3775
▁करार	-3776
▁ठिकाना	-3777
जोर	-3778
▁प्रचार	-3779
▁आठ	-3780
मार्	-3781
▁गरीब	-3782
लेज	-3783
▁चेह	-3784
▁कुशल	-3785
▁स्थल	-3786
संख्या	-3787
मात्र	-3788
▁दिनांक	-3789
▁लोकतंत्र	-3790
▁लॉग	-3791
▁समी	-3792
▁किरा	-3793
▁ग़रज़	-3794
▁पुत्र	-3795
▁2.	-3796
▁कौशल	-3797
▁भाषण	-3798
▁स्थानों	-3799
▁परहे	-3800
▁फ़ैसला	-3801
ed	-3802
आन	-3803
▁विषयों	-3804
▁गोप	-3805
▁घरे	-3806
¥	-3807
क्षिक	-3808
▁समस्त	-3809
ानु	-3810
▁माइ	-3811
▁ख्याल	-3812
खिम	-3813
▁अक्ष	-3814
uk	-3815
▁सवाल	-3816
▁रास्ता	-3817
▁लगातार	-3818
▁सामर्थ	-3819
▁परहेज़	-3820
▁193	-3821
▁पहाड़	-3822
▁आध्यात्मिक	-3823
▁आख	-3824
▁इतने	-3825
▁बरसा	-3826
▁उपयोक्ता	-3827
क्रिय	-3828
▁बनने	-3829
▁अर्थात्	-3830
▁सीधा	-3831
▁सेवाएं	-3832
▁अमेरिक	-3833
ec	-3834
▁कृत	-3835
तुम्ह	-3836
▁न्यूनतम	-3837
ैसे	-3838
कालिक	-3839
क्यों	-3840
▁नाट	-3841
▁पढ़ने	-3842
▁सभ	-3843
▁लेन	-3844
▁अद्यतन	-3845
▁ग्रंथ	-3846
▁21	-3847
▁अदा	-3848
▁रद्द	-3849
▁मिश्र	-3850
▁अभिप्रे	-3851
▁प्रोत्साहन	-3852
जात	-3853
भेद	-3854
वर्ड	-3855
▁लु	-3856
4)	-3857
▁संगठ	-3858
▁असमर्थ	-3859
▁एका	-3860
▁२००	-3861
▁परामर्श	-3862
र्वा	-3863
▁सुल	-3864
▁उम्र	-3865
▁इंजीन	-3866
▁थोड़ा	-3867
▁दूरी	-3868
▁पवित्र	-3869
▁पूजा	-3870
▁आग्रह	-3871
▁स्त्रियों	-3872
▁नहर	-3873
विल	-3874
▁साइ	-3875
▁प्रायः	-3876
माने	-3877
▁गुमराही	-3878
▁नजर	-3879
▁विरो	-3880
▁विजय	-3881
▁जहा	-3882
शास्त	-3883
▁मेहरबान	-3884
▁संसाधनों	-3885
▁पारित	-3886
रणा	-3887
▁कठिना	-3888
व्या	-3889
▁एकत्र	-3890
▁गवाही	-3891
▁विनियम	-3892
▁मंड	-3893
▁आंतरिक	-3894
कड़ी	-3895
डि	-3896
▁मज़ा	-3897
ालत	-3898
▁नेहर	-3899
स्तियों	-3900
▁अमरी	-3901
चलित	-3902
▁नागरिकों	-3903
▁तभी	-3904
▁मिन	-3905
▁अन्तर्	-3906
▁बेच	-3907
▁अज	-3908
▁उतार	-3909
▁घरेलू	-3910
▁प्रदू	-3911
ूसु	-3912
▁विज्ञ	-3913
▁महत्त्वपूर्ण	-3914
ालिब	-3915
▁इले	-3916
▁हथ	-3917
▁शाह	-3918
▁भागों	-3919
▁तीव्र	-3920
▁ध्वनि	-3921
▁वृक्ष	-3922
▁तरीका	-3923
कें	-3924
▁मीडिया	-3925
▁इंग	-3926
▁मुंबई	-3927
▁समन्व	-3928
▁गीत	-3929
▁विधे	-3930
▁देखकर	-3931
▁आज़	-3932
शे	-3933
▁बीज	-3934
▁बाँ	-3935
▁डाउन	-3936
▁शुरुआत	-3937
कीम	-3938
▁माप	-3939
▁निपट	-3940
▁रुपए	-3941
लाद	-3942
▁देवी	-3943
▁जाएंगे	-3944
▁गल	-3945
िक्र	-3946
▁आदम	-3947
यू	-3948
▁जोखिम	-3949
▁हालॉकि	-3950
णों	-3951
क़ी	-3952
▁सर्वे	-3953
▁भागीदारी	-3954
देन	-3955
लाभ	-3956
▁युक्त	-3957
▁आपूर्ति	-3958
िकल	-3959
▁मोमि	-3960
▁उद्घाटन	-3961
▁अभिप्रेत	-3962
▁=	-3963
▁दयावान	-3964
भाँति	-3965
▁पूछा	-3966
▁संवर्	-3967
▁ऑनलाइन	-3968
▁रास्ते	-3969
▁परिस्थितियों	-3970
▁जल्द	-3971
नल	-3972
▁ख़ुद	-3973
तल	-3974
▁भारती	-3975
:%	-3976
▁कोल	-3977
▁संचालन	-3978
ज़त	-3979
▁ढूंढ	-3980
▁नृत्य	-3981
▁भाषाओं	-3982
!"	-3983
▁u	-3984
▁तमाम	-3985
▁सर्वोच्च	-3986
▁अका	-3987
▁आसानी	-3988
▁सहकारी	-3989
दीय	-3990
▁तुझे	-3991
▁बदलाव	-3992
▁गुजरात	-3993
बन्ध	-3994
▁ज्ञापन	-3995
▁दृढ़	-3996
▁बाबत	-3997
विज्ञान	-3998
▁दूसरों	-3999
शनल	-4000
सायन	-4001
▁लंबा	-4002
▁सिवाय	-4003
▁साम्राज्य	-4004
▁...	-4005
▁नज़र	-4006
▁लड़के	-4007
▁करीब	-4008
▁राज्यपाल	-4009
इश	-4010
डु	-4011
▁गठन	-4012
▁पुस्तिका	-4013
ac	-4014
▁स्वतः	-4015
▁ख़ूब	-4016
▁सामर्थ्य	-4017
▁26	-4018
▁मई	-4019
▁दयालुता	-4020
▁शिश	-4021
▁बोले	-4022
▁अगस्त	-4023
▁स्मृति	-4024
html	-4025
्रांस	-4026
▁पॉ	-4027
▁कानूनी	-4028
▁प्रि	-4029
ड़ने	-4030
वियों	-4031
▁लोगो	-4032
▁काफिर	-4033
▁उपयोगी	-4034
ail	-4035
भाग्य	-4036
▁दीर्घ	-4037
▁प्रका	-4038
महिम	-4039
▁लड़ाई	-4040
▁सदा	-4041
▁देखता	-4042
▁मीटर	-4043
▁न्यायाधीश	-4044
▁घोषित	-4045
▁अधिकारों	-4046
▁निर्वाचन	-4047
▁तमिल	-4048
िस्ट	-4049
क्षीय	-4050
▁फैसला	-4051
म्स	-4052
▁रजि	-4053
▁लाइ	-4054
▁दस्तावेज़	-4055
▁पढ़ा	-4056
▁किनारे	-4057
▁मैदान	-4058
▁तथ्य	-4059
शाह	-4060
ॉक	-4061
द्री	-4062
कर्ताओं	-4063
▁संबोधित	-4064
▁जरूर	-4065
नन	-4066
ौल	-4067
▁मां	-4068
▁द्वीप	-4069
▁औष	-4070
▁कॉन्	-4071
▁वाद्य	-4072
50	-4073
iv	-4074
न्दी	-4075
▁काग	-4076
▁पशु	-4077
▁आश्च	-4078
▁चेतना	-4079
▁प्राथमिकता	-4080
ीनी	-4081
▁कलक	-4082
▁जितना	-4083
▁चलने	-4084
▁रीति	-4085
▁ग़ालिब	-4086
▁नक़	-4087
▁फोन	-4088
▁अज्ञात	-4089
▁वैध	-4090
धित्व	-4091
▁छह	-4092
वंश	-4093
▁̄à	-4094
शेष	-4095
▁ज़ाह	-4096
▁विन्यास	-4097
▁सूर	-4098
▁मुना	-4099
फारिश	-4100
भाषित	-4101
▁नु	-4102
संगत	-4103
▁समृद्ध	-4104
▁उत्पादों	-4105
▁लिखी	-4106
▁करेगी	-4107
▁हिंदी	-4108
घात	-4109
िव	-4110
फ़ा	-4111
▁गुज़र	-4112
दत्त	-4113
▁कर्त	-4114
मिन	-4115
▁संवाद	-4116
ंदी	-4117
ऊँ	-4118
▁महामहिम	-4119
दित	-4120
▁जटिल	-4121
▁आक्रमण	-4122
गोल	-4123
यदि	-4124
परीत	-4125
▁ख्वाह	-4126
▁एकल	-4127
षक	-4128
▁अन्दर	-4129
▁उठाने	-4130
ैर्य	-4131
▁यून	-4132
▁बीमारी	-4133
-201	-4134
▁उपबंधों	-4135
▁तस	-4136
▁अनुरूप	-4137
▁विश्लेषण	-4138
▁क़ि	-4139
▁बजाय	-4140
▁निरी	-4141
▁संकट	-4142
▁जाओगे	-4143
▁ताप	-4144
▁होंगी	-4145
बाइल	-4146
▁औरतों	-4147
▁नेहरू	-4148
▁लाइन	-4149
▁नैतिक	-4150
▁अनुरोध	-4151
▁परिणामस्वरूप	-4152
▁31	-4153
▁सरदार	-4154
र्रर	-4155
▁खुला	-4156
▁कृष्ण	-4157
▁विपरीत	-4158
▁सिफारिश	-4159
▁तार	-4160
▁मौत	-4161
▁उतर	-4162
▁जंग	-4163
▁बीमार	-4164
▁बुद्ध	-4165
▁अध्याय	-4166
▁झा	-4167
▁क़ा	-4168
लोगों	-4169
▁साबित	-4170
कारात्मक	-4171
वली	-4172
▁हिम	-4173
कालय	-4174
वाना	-4175
▁आनन्द	-4176
▁प्रतिनिधित्व	-4177
आप	-4178
▁लेंगे	-4179
▁आश्चर्य	-4180
▁वचन	-4181
▁मैने	-4182
▁बन्दगी	-4183
▁मुक़ाबले	-4184
रस	-4185
मेन	-4186
▁त्याग	-4187
▁यक़ीनी	-4188
▁विद्यमान	-4189
▁चीन	-4190
ंजन	-4191
▁पोर्ट	-4192
▁वर्षा	-4193
▁सॉफ्ट	-4194
▁चक्र	-4195
धक	-4196
▁क़ु	-4197
▁एकता	-4198
▁समझौता	-4199
▁प्रकाशन	-4200
▁सरकारों	-4201
▁सर्वाधिक	-4202
muk	-4203
▁दवा	-4204
▁चीज़ों	-4205
▁कूटशब्द	-4206
्राफ	-4207
▁पलट	-4208
▁नूह	-4209
▁दरवा	-4210
▁आरम्भ	-4211
▁पृथ्वी	-4212
▁प्रतीत	-4213
▁एंड	-4214
▁पंजाब	-4215
▁प्रशंसा	-4216
फ़्र	-4217
▁जनसंख्या	-4218
शासन	-4219
▁लौटा	-4220
▁कितना	-4221
▁प्रतिभा	-4222
▁फ़िर	-4223
▁जिनको	-4224
त्तम	-4225
▁शारी	-4226
लेट	-4227
दरत	-4228
▁नेक	-4229
बीर	-4230
pran	-4231
ing	-4232
▁दर्ज	-4233
▁भेद	-4234
▁अक्षम	-4235
▁सर्वेक्षण	-4236
▁हल्	-4237
jee	-4238
▁सिखा	-4239
▁आवाज़	-4240
▁प्रिय	-4241
abmuk	-4242
▁जमीन	-4243
▁जाकर	-4244
herjee	-4245
pranabmuk	-4246
pranabmukherjee	-4247
▁समाप्ति	-4248
▁करवा	-4249
▁खुली	-4250
▁कोवि	-4251
▁वहीं	-4252
▁डाले	-4253
▁पहुँचे	-4254
गढ़	-4255
▁परम	-4256
▁उपक्रम	-4257
▁पूर्वा	-4258
▁ज़िम्मे	-4259
prh	-4260
वायु	-4261
▁उठाए	-4262
▁ब्ल	-4263
▁अस्थ	-4264
▁आज्ञा	-4265
▁28	-4266
▁आओ	-4267
▁वैसे	-4268
▁धैर्य	-4269
जिस	-4270
▁दशक	-4271
▁अस्था	-4272
▁हैंः	-4273
▁राजनैतिक	-4274
▁इन्कार	-4275
▁पूर्वी	-4276
▁संगठनों	-4277
▁उधार	-4278
▁पसन्द	-4279
▁मुझसे	-4280
▁प्राधिकारी	-4281
▁नबी	-4282
▁पाई	-4283
▁आवास	-4284
▁सच्चा	-4285
▁सशक्त	-4286
▁l	-4287
पथ	-4288
▁दाह	-4289
लीय	-4290
▁(%	-4291
▁जय	-4292
▁टा	-4293
▁पंजीकरण	-4294
▁22	-4295
ंठ	-4296
▁प्रेरणा	-4297
अर	-4298
ज़ल	-4299
▁अर्थात	-4300
▁उद्योगों	-4301
▁काफ़ी	-4302
ूदी	-4303
▁उत्सा	-4304
▁निकाय	-4305
▁शिकार	-4306
▁23	-4307
▁ऑफ़	-4308
▁पाते	-4309
▁साफ़	-4310
▁प्रतीक्षा	-4311
▁कार्यान्वयन	-4312
यो	-4313
कभी	-4314
▁अत	-4315
▁उपभोक्ता	-4316
वित	-4317
ष्‍	-4318
प्रति	-4319
▁शहरी	-4320
▁शारीरिक	-4321
ष्टा	-4322
▁अहम	-4323
▁लिखित	-4324
▁जागर	-4325
प्ति	-4326
त्कार	-4327
▁अधिसूचना	-4328
▁पड़ी	-4329
▁सृजन	-4330
▁औसत	-4331
▁किलो	-4332
▁चुने	-4333
▁प्ल	-4334
▁मुश्	-4335
ri	-4336
▁निगर	-4337
▁निहित	-4338
▁मुद्र	-4339
ंडी	-4340
धों	-4341
▁बाग	-4342
▁धु	-4343
▁मुद्दों	-4344
अत	-4345
अमत	-4346
▁किस्म	-4347
▁इलेक्ट्र	-4348
▁27	-4349
▁टीम	-4350
इल	-4351
▁गौर	-4352
▁सजा	-4353
▁उठाया	-4354
▁तल	-4355
▁औलाद	-4356
▁सन्तान	-4357
qu	-4358
▁नमू	-4359
▁पाठ्यक्रम	-4360
ंगिक	-4361
▁डाय	-4362
▁उच्चतम	-4363
▁सुविधाओं	-4364
▁टेली	-4365
▁सुभाष	-4366
▁तूने	-4367
▁यूसु	-4368
▁अमेरिकी	-4369
▁शैक्षिक	-4370
रात	-4371
सायिक	-4372
▁परेश	-4373
▁जिनसे	-4374
श्रम	-4375
ुस्तान	-4376
▁चुनौती	-4377
थे	-4378
्लो	-4379
▁Name	-4380
जब	-4381
▁साथी	-4382
▁सहज	-4383
▁सिक्	-4384
पालिका	-4385
▁घटा	-4386
स्तिष्क	-4387
▁आंख	-4388
▁डाउनलोड	-4389
▁तकनीक	-4390
थी	-4391
▁of	-4392
▁हत्या	-4393
▁परिवहन	-4394
▁आबाद	-4395
▁मिनट	-4396
▁मस्	-4397
चारिक	-4398
▁प्रोत्साहित	-4399
ड़ते	-4400
▁सड़क	-4401
समय	-4402
▁घंटे	-4403
कीन	-4404
▁आश	-4405
▁जनजा	-4406
▁श्रम	-4407
▁श्रृंखला	-4408
▁फें	-4409
▁गणना	-4410
दास	-4411
▁नयी	-4412
▁सेटिंग	-4413
▁आकर	-4414
▁देर	-4415
▁सराह	-4416
▁पेंशन	-4417
▁ईमानदार	-4418
▁हमसे	-4419
▁आना	-4420
▁पति	-4421
▁अगला	-4422
क्ष्य	-4423
▁कहाँ	-4424
▁कार्यवाही	-4425
ेंज	-4426
▁छात्रों	-4427
क़्त	-4428
संस्	-4429
▁छाप	-4430
्यवाद	-4431
▁स्ना	-4432
▁जैव	-4433
▁सें	-4434
शीलता	-4435
▁पूज्य	-4436
▁बिहार	-4437
▁अन्यथा	-4438
▁निगरानी	-4439
5)	-4440
▁कब	-4441
कुछ	-4442
▁क़ुरान	-4443
दंड	-4444
तीत	-4445
▁समीक्षा	-4446
▁रेलवे	-4447
▁ज़िन्दगी	-4448
क़रीब	-4449
▁परिवर्तित	-4450
▁बहुते	-4451
केट	-4452
▁घड़ी	-4453
▁बदलने	-4454
ंदन	-4455
ंदु	-4456
र्ती	-4457
▁समर्पित	-4458
ैनिक	-4459
▁आलो	-4460
गारों	-4461
▁फिरऔन	-4462
▁कनेक्शन	-4463
▁संयंत्र	-4464
▁केरल	-4465
▁रहमत	-4466
▁जिले	-4467
▁कलकत्ता	-4468
टेन	-4469
ुक्ति	-4470
न्द्रनाथ	-4471
▁इंटरनेट	-4472
▁विरोधी	-4473
▁सै	-4474
▁विधेयक	-4475
टो	-4476
िड	-4477
▁मिलेगा	-4478
ंपरिक	-4479
▁लगते	-4480
▁ज़ाहिर	-4481
ेरत	-4482
▁कहान	-4483
▁नवीन	-4484
▁स्मार	-4485
▁Z	-4486
न्ड	-4487
▁तस्वी	-4488
▁महाराष्ट्र	-4489
ME	-4490
▁धारण	-4491
▁इसको	-4492
▁शिखर	-4493
▁उत्तरा	-4494
ase	-4495
चानक	-4496
▁अकबर	-4497
▁चालू	-4498
▁लाते	-4499
▁सचिव	-4500
▁नुक	-4501
▁नक़ल	-4502
▁लिंक	-4503
▁एड	-4504
▁चो	-4505
▁सुदृ	-4506
▁अनुपात	-4507
▁आसपास	-4508
▁समग्र	-4509
▁सचे	-4510
▁होम	-4511
▁रौशन	-4512
वधि	-4513
▁जेल	-4514
▁तथापि	-4515
▁मुक़र्रर	-4516
मार्ग	-4517
्यूट	-4518
▁तिर	-4519
▁देय	-4520
▁जरिए	-4521
▁प्रारंभिक	-4522
▁आर्	-4523
▁क़ाय	-4524
▁सूत्र	-4525
ंटर	-4526
मियान	-4527
▁पृष्ठभूमि	-4528
▁भेजें	-4529
▁मिसाल	-4530
▁उपा	-4531
▁शहरों	-4532
जल	-4533
▁गुफा	-4534
▁अचानक	-4535
▁सॉफ्टवेयर	-4536
।-	-4537
नाह	-4538
▁शरीक	-4539
▁श्रेष्ठ	-4540
:-	-4541
मेट	-4542
▁बग	-4543
▁”-	-4544
▁बटन	-4545
▁इनका	-4546
▁हवाई	-4547
▁टैग	-4548
वण	-4549
▁मूल्यों	-4550
ढ़ा	-4551
ाये	-4552
▁सुझाव	-4553
▁जलवायु	-4554
▁हार्	-4555
▁जुलाई	-4556
▁(3)	-4557
▁महात्मा	-4558
▁कदापि	-4559
ष्ठा	-4560
ड़ियों	-4561
▁निष्क्रिय	-4562
▁गोल	-4563
लैंड	-4564
▁गें	-4565
▁अभिय	-4566
▁विभाजन	-4567
▁कीट	-4568
▁खींच	-4569
▁W	-4570
▁प्रयत्न	-4571
चालित	-4572
प्राप्त	-4573
iii	-4574
ोबार	-4575
▁मोबाइल	-4576
पार	-4577
मतौर	-4578
▁मुश	-4579
▁शोध	-4580
▁अभिव्यक्ति	-4581
▁शौ	-4582
▁लंबे	-4583
▁रोकने	-4584
▁दरमियान	-4585
मोह	-4586
ोजी	-4587
▁प्राधिकरण	-4588
▁इसने	-4589
▁परमाण	-4590
भ्र	-4591
▁मं	-4592
ंत्रिक	-4593
vi	-4594
रत	-4595
▁Y	-4596
गामी	-4597
▁नाथ	-4598
▁सजदा	-4599
शुदा	-4600
▁द्वितीय	-4601
ेय	-4602
विधि	-4603
▁ग्राहक	-4604
▁नेताओं	-4605
▁विश्वविद्यालयों	-4606
ियामत	-4607
▁घाटे	-4608
ॉट	-4609
▁करोगे	-4610
▁चिंता	-4611
ur	-4612
कां	-4613
नाश	-4614
▁विशेषकर	-4615
ायी	-4616
▁निच	-4617
▁इकट्ठा	-4618
▁पारंपरिक	-4619
▁मर्द	-4620
▁मांस	-4621
▁योजनाओं	-4622
▁सिल	-4623
शास्त्र	-4624
▁रसूलों	-4625
एच	-4626
म्मत	-4627
▁पेड़	-4628
▁चलाने	-4629
▁ज्ञात	-4630
▁फ़ॉन्ट	-4631
▁अनुदान	-4632
▁युक्ति	-4633
▁समर्थित	-4634
क्रिप	-4635
▁प्रतिनिधि	-4636
▁औऱ	-4637
▁शान	-4638
▁क्षमाशील	-4639
▁चुनौ	-4640
▁पुरानी	-4641
▁मुलाकात	-4642
▁मुश्किल	-4643
िकेट	-4644
ूर्ण	-4645
▁नुकसान	-4646
▁आकर्षित	-4647
▁ज़्यादा	-4648
▁सफ	-4649
▁साझा	-4650
न्या	-4651
▁उक्त	-4652
द्वीप	-4653
▁मौल	-4654
▁कामना	-4655
▁राजनीति	-4656
ow	-4657
▁कंपनियों	-4658
▁आराम	-4659
क्रो	-4660
▁आमतौर	-4661
▁अनक़रीब	-4662
लिया	-4663
प्रदाय	-4664
▁दाखिल	-4665
▁घटनाओं	-4666
▁जोड़ने	-4667
ंतरण	-4668
ठे	-4669
▁खान	-4670
hi	-4671
▁जर्म	-4672
▁कम्पनी	-4673
▁बिलकुल	-4674
▁नियंत्रित	-4675
बानी	-4676
▁देखे	-4677
▁संदेह	-4678
▁वाक़िफ	-4679
▁नस्	-4680
▁अपमान	-4681
▁प्रविष्ट	-4682
▁भंडारण	-4683
▁लै	-4684
▁जड़	-4685
▁लकड़ी	-4686
▁दिखाता	-4687
क़ा	-4688
▁औप	-4689
▁नंबर	-4690
▁सुदृढ़	-4691
▁कराया	-4692
▁चन्द्र	-4693
▁अवज्ञा	-4694
मण	-4695
▁80	-4696
▁इनकी	-4697
▁आमंत्र	-4698
साफ़	-4699
▁192	-4700
तावनी	-4701
▁समित	-4702
मै	-4703
▁ईमेल	-4704
▁समावेश	-4705
भाविक	-4706
▁कमजोर	-4707
▁फरवरी	-4708
▁सब्र	-4709
▁प्रशासनिक	-4710
>>	-4711
मती	-4712
▁नाग	-4713
▁बख्शने	-4714
▁तत्वदर्शी	-4715
www	-4716
ज्ज	-4717
▁आफ	-4718
कर्ष	-4719
▁उत्तरी	-4720
िटी	-4721
दायी	-4722
आख़िर	-4723
▁मुद्	-4724
▁नेअमत	-4725
▁संविदा	-4726
▁कुफ्फ़ार	-4727
▁मस्तिष्क	-4728
▁पट्ट	-4729
▁मध्यम	-4730
ार्थी	-4731
ोटो	-4732
ुरान	-4733
ूंकि	-4734
▁दुखद	-4735
▁मुकद	-4736
▁काला	-4737
▁संसदीय	-4738
▁ज़िन्दा	-4739
).	-4740
▁उपस्थिति	-4741
▁राजस्थान	-4742
▁सौर	-4743
▁आवाज	-4744
▁नहरें	-4745
▁शक्तियों	-4746
खो	-4747
न्दु	-4748
ग्रस्त	-4749
▁संतुल	-4750
▁चेतावनी	-4751
▁चुना	-4752
नीन	-4753
▁बढ़ती	-4754
▁2000	-4755
▁कुफ़्र	-4756
ॉल्ट	-4757
ेंसी	-4758
▁सागर	-4759
-0	-4760
▁संपादक	-4761
▁विनिमय	-4762
▁मारे	-4763
▁थोड़े	-4764
▁शत्रु	-4765
▁सलाम	-4766
▁समझने	-4767
▁1961	-4768
▁ढांचे	-4769
▁व्यावसायिक	-4770
fo	-4771
▁रण	-4772
▁ब्राह	-4773
▁कोशिका	-4774
ॉँ	-4775
▁खड़ी	-4776
▁अपेक्षित	-4777
▁आकृति	-4778
▁द्विप	-4779
▁सभ्यता	-4780
▁मुसी	-4781
नेवालो	-4782
▁देखना	-4783
बीह	-4784
अज़ाब	-4785
▁बस्ती	-4786
सोस	-4787
▁बहुम	-4788
▁साझे	-4789
▁फ़रमा	-4790
▁प्रभुत्वशाली	-4791
▁५	-4792
▁टिक	-4793
▁शुरु	-4794
ाइन	-4795
em	-4796
▁चूंकि	-4797
0}	-4798
¤¦	-4799
स्फ	-4800
सारिक	-4801
▁सबके	-4802
▁खोलने	-4803
माल	-4804
ंचित	-4805
▁चली	-4806
पेक्ष	-4807
▁भेंट	-4808
थान	-4809
भावना	-4810
▁दादा	-4811
▁जानने	-4812
स्थापित	-4813
11	-4814
▁मृ	-4815
▁नेकी	-4816
घर	-4817
▁हटकर	-4818
▁कड़ी	-4819
▁नद	-4820
▁रिया	-4821
▁ईमानवालों	-4822
▁परमाणु	-4823
▁मस्जि	-4824
पह	-4825
▁दोहरा	-4826
▁स्वाम	-4827
▁अन्ततः	-4828
▁सांसारिक	-4829
वेद	-4830
▁लिखे	-4831
▁गिरफ्त	-4832
▁विरासत	-4833
ातु	-4834
▁कही	-4835
▁मिट	-4836
▁महल	-4837
▁चीनी	-4838
▁रहेगी	-4839
▁आह	-4840
▁निवास	-4841
▁संबद्ध	-4842
▁प्रतिबद्ध	-4843
▁रवी	-4844
▁दोबारा	-4845
▁४	-4846
▁अन्तर	-4847
▁अभाव	-4848
▁परिसर	-4849
तरित	-4850
▁गांवों	-4851
▁राजधानी	-4852
▁तोड़	-4853
▁युवाओं	-4854
ख्ते	-4855
घटना	-4856
▁वंश	-4857
▁गुमराह	-4858
▁मिलेगी	-4859
नीति	-4860
▁सतह	-4861
▁प्रान्त	-4862
स्पर्	-4863
▁स्वर	-4864
▁सुनने	-4865
फ़ि	-4866
▁पारि	-4867
▁बाह्य	-4868
▁मिलते	-4869
▁सिविल	-4870
▁चरित्र	-4871
▁सम्पूर्ण	-4872
▁सम्बन्धी	-4873
▁पैग़म्बरों	-4874
▁संग्र	-4875
तरी	-4876
नाटक	-4877
▁/	-4878
▁रोगी	-4879
▁परिचय	-4880
▁लंबी	-4881
▁बारगाह	-4882
जिट	-4883
साइ	-4884
▁40	-4885
▁अश	-4886
िप्त	-4887
▁न्यास	-4888
og	-4889
मति	-4890
▁तेरी	-4891
्याद	-4892
▁अभिक	-4893
▁हिंसा	-4894
▁एकमात्र	-4895
▁उल्ल	-4896
▁चेहरे	-4897
▁तस्वीर	-4898
व्यव	-4899
ॉर्ड	-4900
▁वीर	-4901
▁तयशुदा	-4902
▁प्रबंधक	-4903
रचना	-4904
▁इंच	-4905
▁निः	-4906
▁कैसा	-4907
धर्म	-4908
▁दाख़	-4909
▁नियुक्ति	-4910
▁अं	-4911
▁ठहर	-4912
▁नारा	-4913
▁विनष्ट	-4914
चरण	-4915
▁लेखन	-4916
जाम	-4917
बेस	-4918
▁याच	-4919
▁प्री	-4920
▁संगम	-4921
▁सकेंगे	-4922
▁अस्थायी	-4923
dia	-4924
ाइड	-4925
▁अदालत	-4926
▁अवतरित	-4927
▁मिलियन	-4928
¤	-4929
▁()	-4930
सीसी	-4931
▁तलाश	-4932
▁अनुग्रह	-4933
▁थोड़ी	-4934
पत	-4935
▁कच	-4936
▁जला	-4937
▁पुष्टि	-4938
बरा	-4939
िकमत	-4940
▁बाकी	-4941
▁कुरान	-4942
▁भेजने	-4943
▁बिगा	-4944
▁हँ	-4945
▁खण्ड	-4946
▁विविधता	-4947
▁इल्म	-4948
▁लाइस	-4949
▁खि	-4950
▁सन्द	-4951
▁अस्वी	-4952
▁रिक्त	-4953
▁डरो	-4954
्लि	-4955
▁फैल	-4956
रूद्ध	-4957
▁मानवीय	-4958
ेन	-4959
त्स	-4960
▁समझौते	-4961
्यु	-4962
▁वर्गों	-4963
▁क़ियामत	-4964
▁फ़ाइलें	-4965
काब	-4966
▁गेंद	-4967
▁पुस्तकालय	-4968
▁आयी	-4969
मिटेड	-4970
▁आहार	-4971
पंथ	-4972
बाज	-4973
▁मेन	-4974
▁उन्न	-4975
ंडा	-4976
्मण	-4977
पक्ष	-4978
info	-4979
¤	-4980
ंध्र	-4981
▁कॉल	-4982
▁पालने	-4983
▁दर्श	-4984
▁दाख़िल	-4985
▁गिन	-4986
▁इमार	-4987
▁तुरंत	-4988
▁शर्तों	-4989
▁ऑडियो	-4990
र्की	-4991
▁ड्राइ	-4992
▁प्रतियोग	-4993
▁सुविधाएं	-4994
▁चुप	-4995
▁प्रथा	-4996
▁मूर्	-4997
▁बनाता	-4998
▁जाल	-4999
▁भले	-5000
टका	-5001
त्ल	-5002
▁ब्राउ	-5003
▁दिखाने	-5004
ीकृत	-5005
lease	-5006
▁मुर्	-5007
▁सफेद	-5008
▁X	-5009
्पणी	-5010
▁टैब	-5011
▁निकाला	-5012
▁विभाजित	-5013
▁जिम्मेदारी	-5014
कृष्ण	-5015
▁सराहना	-5016
▁लिमिटेड	-5017
▁अनुसूचित	-5018
▁सर्वोत्तम	-5019
30	-5020
ोष	-5021
चार्य	-5022
▁दोनो	-5023
्यास	-5024
▁क़ायम	-5025
▁स्कीम	-5026
▁समुद्री	-5027
निंग	-5028
▁निरीक्षण	-5029
▁डिजा	-5030
▁हिकमत	-5031
▁गुनाहों	-5032
फ़ी	-5033
यिक	-5034
▁बनाये	-5035
▁क़िस्म	-5036
¤1⁄4	-5037
¤¡	-5038
▁वरि	-5039
▁अवधार	-5040
ॉलर	-5041
▁ऑंख	-5042
▁कार्	-5043
▁तारा	-5044
▁शिक्षक	-5045
▁संपादित	-5046
साम	-5047
्रेट	-5048
निष्ठ	-5049
▁डिफ़	-5050
▁बच्चा	-5051
▁स्वीकृति	-5052
▁नवान्वेषण	-5053
जैसे	-5054
संबर	-5055
▁मॉडल	-5056
▁जुड़ा	-5057
▁संध्या	-5058
क्य	-5059
पणन	-5060
▁पत	-5061
▁पार्	-5062
▁फिली	-5063
नात्मक	-5064
▁सितंबर	-5065
▁क्ला	-5066
▁पाँच	-5067
ंछ	-5068
गन	-5069
ैत	-5070
गमन	-5071
▁3.	-5072
▁स्वस्थ	-5073
▁भरा	-5074
▁ख़ुश	-5075
▁कश्मीर	-5076
वलोकन	-5077
्यूब	-5078
▁अनुमोदन	-5079
\\	-5080
▁प्ला	-5081
▁उपखंड	-5082
▁वस्त्र	-5083
▁ठोस	-5084
वर्त	-5085
▁खराब	-5086
▁ताकत	-5087
▁हार्दिक	-5088
▁दबाव	-5089
▁संपादन	-5090
▁बुरे	-5091
नेवाली	-5092
▁क़ुरआन	-5093
▁आवश्यकताओं	-5094
▁वार्	-5095
▁जम्	-5096
श्वास	-5097
▁लाइसेंस	-5098
न्ध	-5099
▁मोदी	-5100
AN	-5101
▁समृद्धि	-5102
▁प्रतिष्ठित	-5103
▁खत्म	-5104
▁हड्ड	-5105
▁दैनिक	-5106
▁प्रदूषण	-5107
▁अपरि	-5108
▁भावी	-5109
▁विहित	-5110
▁नीतियों	-5111
वश	-5112
मगर	-5113
▁अभिलाभ	-5114
▁संग्रहालय	-5115
अल	-5116
हो	-5117
सेट	-5118
िने	-5119
ख्यात	-5120
▁राहत	-5121
मुसलमान	-5122
▁प्लगइन	-5123
▁पर्	-5124
▁चौड़ाई	-5125
▁प्रतिभूति	-5126
ज़िर	-5127
▁सुनते	-5128
▁हक	-5129
▁प्रवाह	-5130
▁प्रचलित	-5131
▁गौ	-5132
▁अली	-5133
▁समूहों	-5134
▁द्विपक्षीय	-5135
▁ऊपरी	-5136
ग्ध	-5137
▁यो	-5138
▁चिप	-5139
वादियों	-5140
▁अफ़	-5141
▁मृत	-5142
▁नाते	-5143
▁स्वचालित	-5144
ैरह	-5145
स्ट्र	-5146
▁सोचा	-5147
▁सुनता	-5148
हिता	-5149
▁जोड़ा	-5150
60	-5151
▁पैके	-5152
▁विक्र	-5153
▁भरे	-5154
▁2016	-5155
▁परिभाषित	-5156
▁बिंदु	-5157
▁उन्होने	-5158
याय	-5159
क़त	-5160
हाल	-5161
▁आदान	-5162
स्कट	-5163
▁उतना	-5164
दीक	-5165
▁अग्रणी	-5166
▁कू	-5167
▁द्वि	-5168
▁मछली	-5169
मंड	-5170
▁सप	-5171
▁सावधान	-5172
ist	-5173
▁मौजि	-5174
▁सरकशी	-5175
▁जहन्नम	-5176
▁स्वाभाविक	-5177
-19	-5178
ome	-5179
ायर	-5180
▁बारी	-5181
उंड	-5182
▁कब्	-5183
▁विपणन	-5184
धारी	-5185
ार्ज	-5186
▁दान	-5187
▁उन्नत	-5188
▁टूट	-5189
▁बोली	-5190
▁संक्रमण	-5191
स्को	-5192
▁उगा	-5193
▁हरि	-5194
▁डो	-5195
)...	-5196
▁भारतीयों	-5197
12	-5198
ूहिक	-5199
▁परे	-5200
▁चिह्नित	-5201
▁श्रद्धा	-5202
▁रेश	-5203
▁फ़िल	-5204
▁बहुतेरे	-5205
ag	-5206
▁छि	-5207
▁गर्म	-5208
▁रोज़	-5209
▁साइट	-5210
▁चैनल	-5211
▁समझे	-5212
▁बाधा	-5213
▁नेपाल	-5214
▁दिसंबर	-5215
▁लेती	-5216
▁कपड़े	-5217
▁ज़ालिमों	-5218
ट्	-5219
▁मक	-5220
सागर	-5221
▁रिज	-5222
▁जन्नत	-5223
▁लानेवालो	-5224
क्क	-5225
फोन	-5226
हाई	-5227
▁चतु	-5228
▁हुक	-5229
▁आजादी	-5230
दल	-5231
रीबी	-5232
स्तर	-5233
▁वकी	-5234
फो	-5235
लक	-5236
▁अँ	-5237
रेखा	-5238
▁ज़रा	-5239
▁मुंह	-5240
Comment	-5241
▁उत्साह	-5242
▁मंदिरों	-5243
▁डिफ़ॉल्ट	-5244
▁अर्ध	-5245
▁भेजी	-5246
▁उतारा	-5247
▁यूनिट	-5248
▁टिप्पणी	-5249
-2018	-5250
कार्य	-5251
▁कृतज्ञ	-5252
▁qu	-5253
▁असर	-5254
▁कैं	-5255
▁लाओ	-5256
▁गिरा	-5257
▁ट्रे	-5258
▁अवसरों	-5259
▁साहित्यिक	-5260
▁2013	-5261
▁छाया	-5262
▁ऊंचाई	-5263
▁वर्गी	-5264
▁मुसीबत	-5265
▁कर्नाटक	-5266
▁छुपा	-5267
▁देखी	-5268
▁प्रविष्टि	-5269
पात	-5270
बाल	-5271
▁टॉ	-5272
▁सन	-5273
▁कर्तव्य	-5274
▁गू	-5275
▁स्ट्र	-5276
-8	-5277
जान	-5278
ेंद्र	-5279
▁कुमार	-5280
▁बन्दे	-5281
▁अस्पताल	-5282
राईल	-5283
▁मानना	-5284
▁समझता	-5285
▁y	-5286
▁६	-5287
माना	-5288
▁दुर	-5289
▁चाहा	-5290
▁लगाए	-5291
्यादती	-5292
▁पर्वत	-5293
us	-5294
▁दह	-5295
▁फ्र	-5296
उप	-5297
तिश	-5298
पिता	-5299
▁खाओ	-5300
क्रिप्ट	-5301
दरा	-5302
▁घटक	-5303
▁क़दम	-5304
▁फ़िल्म	-5305
मेरे	-5306
▁दुः	-5307
▁क्रो	-5308
▁सीधी	-5309
▁संवर्धन	-5310
▁महीनों	-5311
▁सामूहिक	-5312
▁ट्रै	-5313
▁विद्र	-5314
▁हितों	-5315
▁डेस्कट	-5316
▁सदी	-5317
शिष्ट	-5318
▁जिहाद	-5319
▁भक्ति	-5320
ड़ित	-5321
क्षिप्त	-5322
▁स्वर्ण	-5323
▁35	-5324
ष्णु	-5325
▁धन्यवाद	-5326
▁दुर्घटना	-5327
▁V	-5328
▁गार	-5329
▁चाहें	-5330
▁प्रतिस्पर्	-5331
य्य	-5332
▁बोस	-5333
▁मकान	-5334
ंची	-5335
तौर	-5336
▁रूस	-5337
▁अरबी	-5338
तियां	-5339
▁सचेत	-5340
▁बादशाह	-5341
ंटा	-5342
▁क़त्ल	-5343
्मा	-5344
▁उद्ध	-5345
▁गहरी	-5346
▁सत्यापन	-5347
मूल	-5348
दूरी	-5349
▁जवा	-5350
▁यूरोपीय	-5351
▁अन्तर्गत	-5352
▁दिव्य	-5353
▁भरी	-5354
प्रदान	-5355
▁to	-5356
▁वरिष्ठ	-5357
कोश	-5358
सीन	-5359
ार्ट	-5360
▁फर्म	-5361
▁अग्रिम	-5362
▁डिजिट	-5363
▁समानता	-5364
रेख	-5365
्यूल	-5366
▁कारणों	-5367
▁सीमाओं	-5368
ॉनिक	-5369
ेश्वर	-5370
▁आएगा	-5371
▁आरोप	-5372
दर्शिता	-5373
▁पक्षों	-5374
▁जानवरों	-5375
▁देवता	-5376
▁पैमाने	-5377
ंघन	-5378
राव	-5379
मर्श	-5380
▁लूत	-5381
▁पीढ़ी	-5382
▁पासवर्ड	-5383
हमारे	-5384
▁सदस्यता	-5385
▁फु	-5386
शाही	-5387
▁बैक	-5388
▁मक्	-5389
▁दौड़	-5390
▁सीडी	-5391
▁त्वचा	-5392
▁बाध्य	-5393
▁करु	-5394
▁ऊँचा	-5395
▁ब्रि	-5396
▁अक्षर	-5397
▁पत्रिका	-5398
▁संरक्षक	-5399
िकता	-5400
▁उल्लेखनीय	-5401
▁सहमत	-5402
क्तूबर	-5403
▁चाहेंगे	-5404
संप	-5405
ण्य	-5406
▁मुकाब	-5407
▁शिक्षण	-5408
▁यूसुफ	-5409
▁तत्काल	-5410
▁साथियों	-5411
▁अनुज्ञात	-5412
िमा	-5413
▁60	-5414
▁नौकरी	-5415
▁डेस्कटॉप	-5416
▁चीजों	-5417
▁अपनाया	-5418
▁चिकित्स	-5419
न्थ	-5420
▁रवि	-5421
▁जम्मू	-5422
▁प्रतिबंध	-5423
▁quot	-5424
▁दर्दना	-5425
▁विनिर्माण	-5426
▁ग़ौर	-5427
▁दर्द	-5428
▁हमको	-5429
▁जितनी	-5430
▁मिलाकर	-5431
ुरी	-5432
▁इसराईल	-5433
▁मोमिनीन	-5434
▁i	-5435
ेरे	-5436
▁पहलू	-5437
▁उभ	-5438
▁उड़ा	-5439
▁कच्च	-5440
धिकारी	-5441
▁पूर्वो	-5442
▁विद्या	-5443
▁अंतरिक्ष	-5444
▁बांग	-5445
संच	-5446
▁घु	-5447
▁चेक	-5448
▁पुष्	-5449
▁टू	-5450
ित्त	-5451
▁डिजाइन	-5452
▁प्रारम्भ	-5453
▁आंध्र	-5454
क्योंकि	-5455
▁>>	-5456
▁कोय	-5457
फू	-5458
▁तुम्हे	-5459
▁रेडियो	-5460
▁क्रिकेट	-5461
▁विरूद्ध	-5462
▁32	-5463
कू	-5464
▁कष्ट	-5465
▁खिस	-5466
▁मजदूर	-5467
▁याचिका	-5468
▁असाधारण	-5469
▁तकलीफ़	-5470
▁पूर्ति	-5471
▁यथास्थिति	-5472
डो	-5473
जाल	-5474
िरो	-5475
▁पूर्वावलोकन	-5476
▁चोट	-5477
▁नाप	-5478
▁डॉलर	-5479
▁बिगाड़	-5480
▁शोक	-5481
▁अहले	-5482
▁चंद्र	-5483
▁फ़िरऔन	-5484
अनु	-5485
▁29	-5486
श्री	-5487
▁नेशनल	-5488
AT	-5489
काता	-5490
▁एक्	-5491
▁बुल	-5492
म्परा	-5493
ंगों	-5494
▁हिमा	-5495
.2	-5496
▁अर्जित	-5497
▁यूँ	-5498
▁हला	-5499
▁दावे	-5500
▁तीसरे	-5501
▁सम्भव	-5502
▁उपयोगकर्ता	-5503
▁तंग	-5504
▁दर्दनाक	-5505
▁निष्कर्ष	-5506
▁पुस्तकों	-5507
and	-5508
▁वस	-5509
▁तत्वों	-5510
▁प्रतियोगिता	-5511
as	-5512
▁यौ	-5513
▁पौधों	-5514
▁कठिनाई	-5515
▁यथ	-5516
▁चाय	-5517
▁प्रेस	-5518
▁फ़रिश्ते	-5519
ंख्य	-5520
india	-5521
▁2006	-5522
▁अंतः	-5523
▁ब्य	-5524
▁गहन	-5525
▁बजट	-5526
▁घाटी	-5527
▁समाय	-5528
ैया	-5529
त्ते	-5530
▁बचाव	-5531
▁बांध	-5532
▁इंडियन	-5533
▁निशानियों	-5534
▁पाइ	-5535
▁पैरा	-5536
▁संहिता	-5537
▁पंजीकृत	-5538
ion	-5539
नान	-5540
▁रिस	-5541
▁हरे	-5542
▁काली	-5543
ब्ब	-5544
ानिक	-5545
्रोल	-5546
▁दास	-5547
▁राजस्व	-5548
▁अक्तूबर	-5549
▁क्रांति	-5550
SL	-5551
द्दी	-5552
▁साँ	-5553
▁बारह	-5554
▁दुश्म	-5555
▁प्रेषित	-5556
ुसार	-5557
▁पाद	-5558
पूर	-5559
किसी	-5560
▁उपकरणों	-5561
▁फि	-5562
▁ख़ौ	-5563
▁गरीबी	-5564
ation	-5565
ात्मक	-5566
रुप	-5567
▁छोड़ा	-5568
मुसलमानों	-5569
ad	-5570
सेस	-5571
▁मूलभूत	-5572
▁कॉन्फ़ि	-5573
▁त्रुटिः	-5574
¤«	-5575
▁कहे	-5576
▁कहला	-5577
▁कनेक्ट	-5578
कल्प	-5579
पश्च	-5580
▁खतरा	-5581
▁बाबू	-5582
▁सांस	-5583
▁केंद्रित	-5584
▁उपर	-5585
ड़िया	-5586
▁गठित	-5587
▁बल्ले	-5588
▁काउ	-5589
▁नज़	-5590
जनन	-5591
ंडित	-5592
सनीय	-5593
▁परस	-5594
▁धातु	-5595
▁कहेगा	-5596
▁पैकेज	-5597
▁वार्ता	-5598
.5	-5599
▁शक्तिशाली	-5600
▁आब	-5601
निवेश	-5602
▁ईसाई	-5603
▁अधिकरण	-5604
▁मैत्री	-5605
दायक	-5606
▁जायें	-5607
▁चू	-5608
ंकित	-5609
etail	-5610
प्रभु	-5611
▁बैठा	-5612
▁लाना	-5613
▁फायदा	-5614
oc	-5615
▁*	-5616
ढ़े	-5617
▁शेय	-5618
▁सरकश	-5619
▁बैंकिंग	-5620
्नों	-5621
▁अग्	-5622
.)	-5623
ate	-5624
िली	-5625
यंती	-5626
▁आलोचना	-5627
▁व्यक्तित्व	-5628
ज़ोर	-5629
अच्छा	-5630
▁प्रस्तु	-5631
14	-5632
काय	-5633
▁क्व	-5634
▁सहमति	-5635
▁उद्यान	-5636
शांत	-5637
▁</	-5638
▁औरत	-5639
स्ट्री	-5640
बेह	-5641
▁समन्वय	-5642
▁काफ़िरों	-5643
▁वाणिज्यिक	-5644
OR	-5645
टि	-5646
ादिर	-5647
▁2017	-5648
▁अब्द	-5649
▁देगें	-5650
ुत्	-5651
▁जम	-5652
वंबर	-5653
▁नार	-5654
▁मरा	-5655
▁अकाद	-5656
▁जवाहर	-5657
▁काफिरों	-5658
▁सद्	-5659
▁ढांचा	-5660
▁फ़िल्टर	-5661
शः	-5662
▁लगती	-5663
▁संवेदन	-5664
▁परिवारों	-5665
▁1,	-5666
▁भटक	-5667
तू	-5668
▁2007	-5669
▁माने	-5670
▁संदाय	-5671
AP	-5672
▁ग्री	-5673
▁कामों	-5674
▁प्रणाल	-5675
▁कोविन्द	-5676
▁बौद्धिक	-5677
वानी	-5678
▁उर्व	-5679
▁निर्मा	-5680
▁मुक्ति	-5681
▁v	-5682
▁शान्त	-5683
▁मनुष्यों	-5684
▁सल	-5685
▁धारणा	-5686
▁फार्म	-5687
▁टो	-5688
▁पाब	-5689
press	-5690
▁रूपांत	-5691
▁जिम्मेदार	-5692
▁नेत्र	-5693
▁तैय	-5694
▁मादा	-5695
▁जोड़े	-5696
िरी	-5697
▁शरण	-5698
स्पति	-5699
▁पड़ती	-5700
▁प्रोज	-5701
▁मोमिन	-5702
▁सैनिक	-5703
▁विद्यालय	-5704
धानिक	-5705
▁कागज	-5706
▁उल्लंघन	-5707
▁चुनौतियों	-5708
सो	-5709
▁सकाः	-5710
▁शिशु	-5711
▁जायेगी	-5712
▁मॉड	-5713
▁रहस्य	-5714
▁पड़ेगा	-5715
▁ब्रह्म	-5716
▁मुगल	-5717
▁निवासी	-5718
▁औपचारिक	-5719
▁गवर्	-5720
▁बनकर	-5721
▁श्रमिक	-5722
ंजलि	-5723
जीवन	-5724
▁रोका	-5725
▁विद्वान	-5726
ैम	-5727
▁बेटा	-5728
▁साहस	-5729
स्ट्रे	-5730
▁प्रभाग	-5731
▁सुसंगत	-5732
▁फ़रिश्तों	-5733
ुरा	-5734
▁कक्षा	-5735
▁चीज़े	-5736
▁परम्परा	-5737
▁1961-2018	-5738
▁संक्षिप्त	-5739
▁सेल	-5740
▁फेंक	-5741
▁लिंग	-5742
ध्यक्ष	-5743
▁कारोबार	-5744
ियाई	-5745
▁ध्वज	-5746
▁चाहती	-5747
सीय	-5748
िश्र	-5749
▁अकेले	-5750
▁नवंबर	-5751
▁लगाना	-5752
16	-5753
▁चिंत	-5754
▁टुकड़े	-5755
▁तमिलना	-5756
▁प्रवृत्ति	-5757
▁r	-5758
▁2014	-5759
▁वकील	-5760
▁प्रत्या	-5761
▁पहन	-5762
▁वंचित	-5763
▁दक्षिणी	-5764
क्षणिक	-5765
▁पैरवी	-5766
▁निष्पादन	-5767
▁इक	-5768
▁अम्	-5769
▁जयंती	-5770
▁निकले	-5771
▁बढ़ने	-5772
▁कॉन्फ़िगर	-5773
वारी	-5774
▁जिसपर	-5775
▁प्रसंस्	-5776
पेट	-5777
▁अंतराल	-5778
▁बाग़ों	-5779
▁बस्तियों	-5780
काने	-5781
▁बेल	-5782
पूर्ति	-5783
▁क़ुबूल	-5784
▁संभावित	-5785
नाक	-5786
▁बढा	-5787
▁स्वामित्व	-5788
▁गै	-5789
ident	-5790
कर्षण	-5791
▁2005	-5792
▁साव	-5793
स्तानी	-5794
▁चीजें	-5795
▁प्यार	-5796
गों	-5797
▁गर	-5798
▁परसतिश	-5799
▁इस्लामी	-5800
पल	-5801
वती	-5802
्वान	-5803
▁हिमालय	-5804
त्ती	-5805
▁कॉलेज	-5806
▁यहूदी	-5807
▁पदार्थों	-5808
▁छू	-5809
▁अगली	-5810
▁पिछली	-5811
▁विद्यार्थी	-5812
ूली	-5813
▁आल	-5814
▁खतर	-5815
▁अभिन	-5816
▁हाथी	-5817
स्थल	-5818
▁आबादी	-5819
▁समुचित	-5820
▁उपलब्धि	-5821
ल्‍	-5822
19	-5823
▁ज़ोर	-5824
▁लेगा	-5825
सूर	-5826
ब्रे	-5827
▁नोड	-5828
▁साध	-5829
▁तंत्रिका	-5830
▁‘‘	-5831
ofindia	-5832
▁पहुंचे	-5833
▁इजा	-5834
▁सब्	-5835
▁ताला	-5836
▁फोटो	-5837
▁संचालित	-5838
▁प्रवृत्त	-5839
▁गहराई	-5840
▁मस्जिद	-5841
president	-5842
डकर	-5843
▁for	-5844
ख्तेयार	-5845
¤¬	-5846
्द	-5847
▁उभर	-5848
▁देशी	-5849
धीरे	-5850
र्ज़	-5851
▁पीने	-5852
release	-5853
▁प्रोटोक	-5854
▁सम्पर्क	-5855
▁खिल	-5856
▁पैसे	-5857
▁रिजर्व	-5858
ङ्	-5859
ग्रहण	-5860
▁जुड़ी	-5861
▁शिक्षकों	-5862
presidentofindia	-5863
ंभव	-5864
▁छुटकारा	-5865
▁पेशे	-5866
▁स्टेशन	-5867
▁रिकार्ड	-5868
▁गिरफ्तार	-5869
ch	-5870
ुम्ब	-5871
▁समाह	-5872
▁पच	-5873
▁अमल	-5874
▁घूम	-5875
▁सरपर	-5876
detail	-5877
क्ताओं	-5878
दराबाद	-5879
▁स्वीकृत	-5880
दिरा	-5881
▁आनु	-5882
▁कराना	-5883
▁सामान्यतः	-5884
▁सफलतापूर्वक	-5885
▁पोषण	-5886
▁मनोर	-5887
▁सवार	-5888
▁रवीन्द्रनाथ	-5889
न्य	-5890
▁मिथ	-5891
▁चन्द	-5892
▁आसमानों	-5893
▁ब्रिटेन	-5894
▁आमंत्रित	-5895
मों	-5896
▁हॉ	-5897
▁जीवा	-5898
▁उद्देश्यों	-5899
कीर्ण	-5900
ग़रज़	-5901
▁इनसे	-5902
▁कोलकाता	-5903
▁UR	-5904
डिंग	-5905
▁रुचि	-5906
▁रहमान	-5907
दस्त	-5908
▁गर्व	-5909
▁गोया	-5910
▁प्रसंग	-5911
",	-5912
लभ	-5913
ंसिल	-5914
▁टर्म	-5915
▁कथन	-5916
▁इसपर	-5917
▁पूछो	-5918
कांक्षा	-5919
▁विष्णु	-5920
▁योग्यता	-5921
ex	-5922
▁जनरल	-5923
▁अर्ज़	-5924
क्सा	-5925
िन्त	-5926
प्न	-5927
▁गौरव	-5928
▁ग्राफ	-5929
▁प्रकाशना	-5930
ंशिक	-5931
▁रानी	-5932
▁आज़मा	-5933
▁कर्ता	-5934
▁प्रास	-5935
▁सहन	-5936
▁दिलच	-5937
▁संस्थापित	-5938
ूष	-5939
▁छत	-5940
▁आपसे	-5941
क़ुरान	-5942
▁स्मरण	-5943
▁प्राधिकार	-5944
▁नै	-5945
▁जीन	-5946
▁स्थाना	-5947
प्ट	-5948
्मी	-5949
▁“%	-5950
ड़ना	-5951
▁त्रि	-5952
खन	-5953
शंकर	-5954
▁अन्तिम	-5955
▁डिजिटल	-5956
▁मशीनरी	-5957
▁निकलने	-5958
▁सिद्धांतों	-5959
am	-5960
शनी	-5961
ार्इ	-5962
▁क्षण	-5963
▁वैसा	-5964
▁माध्य	-5965
▁आरंभिक	-5966
▁पहुंचने	-5967
▁उत्तरदायी	-5968
IN	-5969
▁गर्भ	-5970
▁नान	-5971
▁इलाज	-5972
▁घुमा	-5973
▁किलोमीटर	-5974
▁दिमा	-5975
▁जानकर	-5976
राष्ट्र	-5977
▁बांग्ला	-5978
बै	-5979
▁इलेक्ट्रॉनिक	-5980
AR	-5981
▁पड	-5982
▁आचरण	-5983
पादित	-5984
▁ज़कात	-5985
▁ट्रैक	-5986
▁रसायन	-5987
▁पंख	-5988
▁पार्क	-5989
▁बचत	-5990
▁पहाड़ी	-5991
▁स्वभाव	-5992
▁संशोधित	-5993
▁प्रयोगशाला	-5994
/-	-5995
▁पोत	-5996
▁मानी	-5997
▁पंडित	-5998
शित	-5999
▁चट्ट	-6000
▁डराने	-6001
▁अनुपालन	-6002
▁जातियों	-6003
▁वाक़िफ़	-6004
तोष	-6005
▁इम	-6006
बूती	-6007
▁कमरे	-6008
ao	-6009
▁(4)	-6010
▁बाहम	-6011
▁अनुसूची	-6012
अब	-6013
तरे	-6014
▁नक	-6015
ज़ाम	-6016
▁पांड	-6017
▁वारिस	-6018
▁मित्रों	-6019
▁अलब	-6020
▁ईमानवाले	-6021
नें	-6022
▁परो	-6023
▁मासिक	-6024
गारी	-6025
▁आउटपुट	-6026
▁तह	-6027
▁खनि	-6028
▁तापमान	-6029
▁एयर	-6030
खु	-6031
▁दरिया	-6032
▁मददगार	-6033
ंजा	-6034
पट्टी	-6035
▁पौधे	-6036
▁संवे	-6037
▁सम्रा	-6038
▁पुरुषों	-6039
▁हैदराबाद	-6040
लै	-6041
याद	-6042
दृश्य	-6043
▁बढ़ते	-6044
▁भर्ती	-6045
डन	-6046
खाव	-6047
▁झुक	-6048
▁जहाज	-6049
▁निवार	-6050
▁वर्णित	-6051
▁अत्याचार	-6052
▁फ्लै	-6053
▁बुलाया	-6054
▁पिला	-6055
▁मातृ	-6056
▁इंजीनिय	-6057
▁जीत	-6058
ख़बरी	-6059
▁आश्व	-6060
▁अत्याचारी	-6061
ज़ि	-6062
समें	-6063
▁देगी	-6064
▁परिक	-6065
▁पोजी	-6066
▁बचाने	-6067
▁मानवता	-6068
¤¶	-6069
ख़ेरत	-6070
▁लड़की	-6071
▁इसीलिए	-6072
▁एकीकृत	-6073
▁सरपरस्त	-6074
▁अख	-6075
▁सोने	-6076
▁न्यायिक	-6077
ब्लिक	-6078
्लैंड	-6079
▁गहरे	-6080
▁संतु	-6081
▁रूपों	-6082
▁लोकता	-6083
▁तमिलनाडु	-6084
▁१८	-6085
▁काश	-6086
▁वास	-6087
▁मंडल	-6088
▁इनपुट	-6089
▁पंचाय	-6090
▁वापसी	-6091
▁सकेगी	-6092
है	-6093
बूझ	-6094
पानी	-6095
▁बहा	-6096
▁फज़ल	-6097
बूर	-6098
▁नती	-6099
▁श्व	-6100
न्हीं	-6101
▁विनाश	-6102
▁समाहित	-6103
चिक	-6104
क्की	-6105
▁शिल्प	-6106
▁फ्रांस	-6107
▁महाराजा	-6108
लित	-6109
ोनें	-6110
▁उपे	-6111
▁चमक	-6112
बोर्ड	-6113
▁तुर्की	-6114
▁दूरस्थ	-6115
▁सिंचाई	-6116
▁हिंदुस्तान	-6117
हु	-6118
याल	-6119
राशि	-6120
्रोतों	-6121
▁क़रीब	-6122
▁कार्ब	-6123
▁लिखें	-6124
टाई	-6125
रीन	-6126
ोजक	-6127
▁काले	-6128
▁उच्चतर	-6129
▁सम्मानित	-6130
ub	-6131
ौरन	-6132
▁तैयारी	-6133
▁परिवेश	-6134
-#-#-#-#	-6135
ानत	-6136
ंतिक	-6137
▁2015	-6138
▁बहाद	-6139
▁मुख़	-6140
▁जापान	-6141
▁प्रोजेक्ट	-6142
अच्छ	-6143
▁आमाल	-6144
▁ज़रिए	-6145
▁#-#-#-#-#	-6146
सूची	-6147
▁आबंट	-6148
▁जायेंगे	-6149
ंबित	-6150
▁दाम	-6151
▁समितियों	-6152
बाजी	-6153
व्यवहार	-6154
▁शैक्षणिक	-6155
ia	-6156
▁फिट	-6157
▁फीस	-6158
▁अकार	-6159
▁अनाज	-6160
▁व्युत्	-6161
▁re	-6162
▁पट	-6163
▁१५	-6164
पंथी	-6165
▁सकी	-6166
▁सिंध	-6167
संरचना	-6168
▁पोस्ट	-6169
▁इन्सान	-6170
▁बहस	-6171
▁फ्रे	-6172
▁अकेला	-6173
▁जादूगर	-6174
▁परिभाषा	-6175
▁साक्ष्य	-6176
▁अग्नि	-6177
▁सावधानी	-6178
संघ	-6179
श्रे	-6180
पोषण	-6181
▁नवा	-6182
निर्भर	-6183
▁मौलिक	-6184
▁संदेय	-6185
▁सम्बंध	-6186
गरी	-6187
शोथ	-6188
▁झि	-6189
▁धम	-6190
▁अवय	-6191
▁उन्म	-6192
▁डालें	-6193
▁मानता	-6194
▁नवम्बर	-6195
विचार	-6196
▁रखकर	-6197
▁कोष	-6198
▁अमरीकी	-6199
▁महाभारत	-6200
▁बीस	-6201
▁इच्छ	-6202
कलापों	-6203
▁कुफ्र	-6204
▁तरीकों	-6205
▁वैज्ञानिकों	-6206
सेना	-6207
▁com	-6208
▁खून	-6209
▁अभिदाता	-6210
सलों	-6211
▁सहारा	-6212
▁पोजीशन	-6213
▁व्यस्त	-6214
क्‍	-6215
जिन	-6216
▁जू	-6217
▁उपास	-6218
▁नस्ल	-6219
▁वरीय	-6220
▁लंबाई	-6221
▁शानदार	-6222
स्ट्रेलिया	-6223
▁चाँ	-6224
▁गाँव	-6225
▁दीक्षा	-6226
▁निकालने	-6227
▁परत	-6228
.2014	-6229
ng	-6230
फाई	-6231
ंतरित	-6232
च्छिक	-6233
▁झुका	-6234
▁कीजिए	-6235
▁संतोष	-6236
▁हस्तक्षेप	-6237
▁सैन्य	-6238
▁दरबार	-6239
▁हटाएँ	-6240
▁विद्रोह	-6241
निस	-6242
लास	-6243
▁सतत	-6244
▁पदों	-6245
▁चिन्ह	-6246
▁पुकारा	-6247
▁इंजीनियर	-6248
▁श्वे	-6249
दाताओं	-6250
तुम्हारे	-6251
▁अट	-6252
▁गुजर	-6253
▁ढूंढें	-6254
र्दू	-6255
▁उठे	-6256
▁कायम	-6257
▁दलील	-6258
▁प्रसंस्करण	-6259
ंधन	-6260
ेंडर	-6261
▁पान	-6262
विमर्श	-6263
▁पथभ्र	-6264
▁बोलते	-6265
▁प्रक्रियाओं	-6266
देशों	-6267
▁लाएँ	-6268
ज़ख़	-6269
▁पाप	-6270
▁फार	-6271
▁रामा	-6272
▁मुद्दे	-6273
क्कर	-6274
देशक	-6275
लयों	-6276
▁शर्त	-6277
▁औरतें	-6278
▁विक्रय	-6279
▁अवधारणा	-6280
▁गाँ	-6281
वस्तु	-6282
हारिक	-6283
▁उतनी	-6284
▁कॉपी	-6285
▁तकलीफ	-6286
▁प्रतिफल	-6287
▁प्रतिकूल	-6288
▁सकारात्मक	-6289
▁दाहिने	-6290
प्रद	-6291
▁तिल	-6292
▁2012	-6293
▁व्यवस्थित	-6294
▁एल्	-6295
▁बंदर	-6296
▁संतुलन	-6297
▁वनस्पति	-6298
▁वसू	-6299
▁एजेंस	-6300
▁कमज़ोर	-6301
▁निष्ठा	-6302
्यक	-6303
▁खात	-6304
▁2001	-6305
▁अंकित	-6306
▁190	-6307
द्दीन	-6308
▁टर्मिन	-6309
▁प्रसाद	-6310
▁उल्लिखित	-6311
▁समुदायों	-6312
ंदगी	-6313
चन्द	-6314
पत्ति	-6315
▁कोशिकाओं	-6316
स्‍त	-6317
▁प्रतिदिन	-6318
▁जाह	-6319
▁सरी	-6320
▁सच्ची	-6321
▁क्रियान्व	-6322
▁कारक	-6323
▁दर्जे	-6324
रखाव	-6325
▁आकलन	-6326
तापूर्वक	-6327
खों	-6328
पीएस	-6329
▁भंग	-6330
▁डालते	-6331
▁वस्तुत	-6332
▁दुर्भाग्य	-6333
▁विश्वसनीय	-6334
▁स्वप्न	-6335
केल	-6336
▁दर्शाता	-6337
ट्स	-6338
▁पाता	-6339
▁याची	-6340
▁परिचित	-6341
▁प्रको	-6342
▁प्रांत	-6343
सम्बर	-6344
षद्	-6345
ैंक	-6346
उसके	-6347
देशी	-6348
▁हलाल	-6349
्रेडिट	-6350
कलाप	-6351
क्राम	-6352
▁2019	-6353
▁क्लि	-6354
▁अभिगम	-6355
▁आँखों	-6356
▁ग्राहकों	-6357
ग्न	-6358
▁नामः	-6359
▁क्रमा	-6360
▁मंजूरी	-6361
ay	-6362
ंसी	-6363
वीडी	-6364
▁अफग	-6365
▁यानी	-6366
▁झों	-6367
▁आखिर	-6368
▁मिश्रण	-6369
तन्य	-6370
स्टी	-6371
▁आँक	-6372
▁रखती	-6373
▁विभेद	-6374
▁निकाले	-6375
▁बडी	-6376
▁शोर	-6377
▁2008	-6378
▁कामया	-6379
▁स्तरों	-6380
▁अलबत्ता	-6381
▁गांधीजी	-6382
▁जमी	-6383
▁हमला	-6384
▁मक्का	-6385
टेल	-6386
बारी	-6387
▁हमे	-6388
▁विनय	-6389
▁पीड़ित	-6390
▁यथार्थ	-6391
वाहित	-6392
▁गुणा	-6393
ov	-6394
▁नाइ	-6395
▁राजक	-6396
▁लानत	-6397
▁स्टेट	-6398
▁आह्वान	-6399
▁हाज़िर	-6400
▁प्रश्नों	-6401
गोलिक	-6402
▁कर्ण	-6403
कन	-6404
मुच	-6405
▁पाकी	-6406
▁सीखने	-6407
-3	-6408
धारित	-6409
▁औजार	-6410
▁संभाल	-6411
बों	-6412
▁खतरे	-6413
▁क्रमशः	-6414
▁विभागों	-6415
ld	-6416
फेसर	-6417
▁जुड़	-6418
▁गुणों	-6419
▁कलाकार	-6420
▁व्यापारी	-6421
▁सम्पत्ति	-6422
13	-6423
ण्ट	-6424
▁पढ	-6425
▁बेट	-6426
▁मान्य	-6427
सिंह	-6428
▁पोल	-6429
▁बोला	-6430
▁श्रीमती	-6431
िद	-6432
ूकता	-6433
▁बिता	-6434
पाई	-6435
▁कहां	-6436
▁क़ाबू	-6437
▁जितने	-6438
▁आदमियों	-6439
▁गतिविधि	-6440
¥	-6441
चु	-6442
▁गुरू	-6443
▁मधुम	-6444
पैग़म्बर	-6445
भौ	-6446
णिक	-6447
▁भूत	-6448
▁रोगों	-6449
▁लगाते	-6450
▁घनिष्ठ	-6451
▁डिग्री	-6452
▁संभवतः	-6453
▁रिकॉर्ड	-6454
▁अमरीका	-6455
▁विवरणी	-6456
tr	-6457
दादा	-6458
मुझे	-6459
▁अहं	-6460
▁असली	-6461
▁राहे	-6462
▁अनुमोदित	-6463
▁पुस्तकें	-6464
▁प्रासंगिक	-6465
डीई	-6466
▁स्वि	-6467
▁एजेंसी	-6468
▁अक्ट	-6469
▁सूचित	-6470
▁जर्मनी	-6471
▁प्रतिलि	-6472
कर्म	-6473
र्वेद	-6474
▁कैसी	-6475
स्परिक	-6476
▁लेखकों	-6477
▁क्रेडिट	-6478
▁प्रभार्य	-6479
▁न्यायालयों	-6480
षे	-6481
ind	-6482
▁गंत	-6483
▁डूब	-6484
▁नरे	-6485
▁हार्ड	-6486
▁गुज़	-6487
▁तीर्थ	-6488
▁सिद्धान्त	-6489
छो	-6490
▁फौ	-6491
▁माय	-6492
▁उग्र	-6493
▁जंगल	-6494
▁चलाया	-6495
▁प्रजनन	-6496
▁संपन्न	-6497
ार्थियों	-6498
▁पुकारते	-6499
उनकी	-6500
लांग	-6501
▁औषध	-6502
▁सिं	-6503
▁सम्बन्धित	-6504
र्जन	-6505
▁चावल	-6506
▁क़ादिर	-6507
▁चैतन्य	-6508
▁115	-6509
▁लार	-6510
▁कट्ट	-6511
▁साहब	-6512
▁मिस्र	-6513
▁मुताब	-6514
▁उपायों	-6515
▁किन्हीं	-6516
▁घुट	-6517
▁पक्षी	-6518
▁करम	-6519
▁नवी	-6520
लियों	-6521
▁निधन	-6522
▁संपदा	-6523
▁ग्रस्त	-6524
▁प्रशांत	-6525
▁भौगोलिक	-6526
▁विद्वानों	-6527
ल्य	-6528
▁धा	-6529
ल्लम	-6530
वेशन	-6531
AME	-6532
ब्रेरी	-6533
▁अंग्रेज	-6534
▁जवाहरलाल	-6535
th	-6536
तब	-6537
पोर्ट	-6538
▁अमान	-6539
▁ईरान	-6540
▁एकदम	-6541
▁कृति	-6542
▁तात्	-6543
▁शांत	-6544
मौ	-6545
ाफ	-6546
▁नास	-6547
▁शराब	-6548
▁तसबीह	-6549
▁राजभाषा	-6550
नहीं	-6551
विष्ट	-6552
▁सर्वि	-6553
ायें	-6554
कियों	-6555
▁ज़बर	-6556
▁प्रशास	-6557
कना	-6558
वाँ	-6559
ीदा	-6560
▁खज	-6561
▁आश्र	-6562
um	-6563
विन	-6564
▁or	-6565
▁कस	-6566
काया	-6567
न्तर	-6568
भक्त	-6569
▁रिज़	-6570
▁उतारी	-6571
▁अर्पित	-6572
▁आरक्षित	-6573
▁लोकतांत्रिक	-6574
▁तम	-6575
▁दार्	-6576
▁भरें	-6577
▁उर्दू	-6578
▁लिखते	-6579
▁वरीयता	-6580
▁हजारों	-6581
▁टाल	-6582
▁डिब	-6583
▁कृपा	-6584
▁आंशिक	-6585
▁प्रोफेसर	-6586
▁प्रस्तावित	-6587
▁रॉ	-6588
▁टेक्	-6589
▁सचमुच	-6590
▁भगवान्	-6591
▁प्रतिमा	-6592
काएँ	-6593
जीवी	-6594
▁दुःख	-6595
▁वर्मा	-6596
▁वसूली	-6597
▁तत्त्व	-6598
केंड	-6599
▁ज्यो	-6600
दायित्व	-6601
ोक्ताओं	-6602
▁मज़बूत	-6603
व्यों	-6604
▁दुकान	-6605
▁लिखना	-6606
▁अक्टूबर	-6607
▁संलग्नक	-6608
▁फलस्वरूप	-6609
आरए	-6610
▁पूज	-6611
▁बरस	-6612
▁डाली	-6613
▁प्राप	-6614
▁संगणना	-6615
▁मक़	-6616
▁गर्मी	-6617
▁पथभ्रष्ट	-6618
▁कम्प्यूटर	-6619
▁जॉ	-6620
हारी	-6621
▁टाइप	-6622
▁उठाना	-6623
▁शेयरों	-6624
ष्कार	-6625
▁अभ्यास	-6626
बिल	-6627
लेखन	-6628
▁con	-6629
▁अद्व	-6630
▁जाया	-6631
▁नदियों	-6632
एमई	-6633
गुण	-6634
▁ज्व	-6635
▁दीजिए	-6636
▁अपराधी	-6637
▁सेक्टर	-6638
▁अधिकारिता	-6639
▁K	-6640
▁ष	-6641
▁आपसी	-6642
▁करेंः	-6643
▁दशकों	-6644
▁किले	-6645
▁जागरूकता	-6646
ेड	-6647
ेस	-6648
नेह	-6649
▁अहि	-6650
▁खबर	-6651
▁मेह	-6652
▁प्लस	-6653
▁मोटर	-6654
▁सेंट	-6655
▁आंकड़ा	-6656
▁पुराना	-6657
▁इकाइयों	-6658
▁पारस्परिक	-6659
उसकी	-6660
▁अमर	-6661
▁उपज	-6662
▁जैन	-6663
▁झूठे	-6664
▁आधारभूत	-6665
▁वास्तविकता	-6666
शोधन	-6667
▁अर्ज	-6668
▁शासक	-6669
▁विवेक	-6670
▁दुश्मन	-6671
▁तृ	-6672
▁पड़ो	-6673
▁अर्जन	-6674
▁रामायण	-6675
▁2002	-6676
▁अतीत	-6677
▁निगाह	-6678
▁फायदे	-6679
▁लड़का	-6680
▁हिमाचल	-6681
▁वेद	-6682
▁चलती	-6683
ter	-6684
ener	-6685
चेंज	-6686
्‍या	-6687
▁होगे	-6688
▁भांति	-6689
▁वैदिक	-6690
▁वैकल्प	-6691
ानिस्तान	-6692
▁देशवासियों	-6693
पद	-6694
समा	-6695
सास	-6696
▁लिपि	-6697
▁बेटों	-6698
हक़	-6699
इयां	-6700
▁पनाह	-6701
▁भक्त	-6702
क्तियों	-6703
▁दिसम्बर	-6704
▁पूर्ववर्ती	-6705
्रीम	-6706
▁आपदा	-6707
▁फोल्डर	-6708
▁उत्पादक	-6709
-200	-6710
▁घेर	-6711
▁बनना	-6712
▁दूँगा	-6713
▁सहयोगी	-6714
▁दिखायें	-6715
▁अखिल	-6716
▁विजे	-6717
▁तीनों	-6718
▁सम्राट	-6719
▁पसंदीदा	-6720
▁व्यावहारिक	-6721
बाई	-6722
▁गईं	-6723
ख्वाह	-6724
ालयों	-6725
▁ग्रे	-6726
▁होगें	-6727
▁संगठित	-6728
▁वैकल्पिक	-6729
▁प्रोटोकॉल	-6730
▁90	-6731
▁अरु	-6732
▁आशय	-6733
▁हलाक	-6734
▁उत्तेज	-6735
▁अलं	-6736
▁रहम	-6737
▁लिप	-6738
▁कहें	-6739
▁आतंकवादी	-6740
▁विज्ञप्ति	-6741
▁सिक	-6742
▁अधिसूचित	-6743
▁उपलब्धता	-6744
▁प्रतिष्ठा	-6745
▁प्रयोक्ता	-6746
10	-6747
▁तद	-6748
▁नज	-6749
साइटी	-6750
ब्ल्यू	-6751
▁डालने	-6752
पेश	-6753
भूषण	-6754
लामी	-6755
▁आएँ	-6756
्रेता	-6757
▁फसलों	-6758
▁योजनाएं	-6759
▁उन्होनें	-6760
गीय	-6761
साई	-6762
▁आधा	-6763
▁साधनों	-6764
¥	-6765
▁अजी	-6766
▁समू	-6767
▁पृथक	-6768
▁सिरे	-6769
eat	-6770
भाषण	-6771
▁झील	-6772
वही	-6773
▁इंत	-6774
▁ख़ा	-6775
ड़ीसा	-6776
▁चढ़ा	-6777
▁हटाने	-6778
▁गारंटी	-6779
▁अंग्रेजों	-6780
ेंड	-6781
▁मण	-6782
जनों	-6783
▁सकल	-6784
▁आएगी	-6785
▁गद्य	-6786
▁अंततः	-6787
▁प्लेट	-6788
▁अपनाने	-6789
▁कार्यरत	-6790
▁सत्यापित	-6791
/2	-6792
od	-6793
्टा	-6794
बाही	-6795
▁सड़	-6796
▁पैसा	-6797
▁बनता	-6798
▁चुकता	-6799
ुमान	-6800
▁गढ़	-6801
नीतिक	-6802
▁वन्य	-6803
▁एहसान	-6804
▁चीज़ें	-6805
▁प्रतिबि	-6806
०००	-6807
▁असल	-6808
बरदार	-6809
▁प्रॉ	-6810
▁समूद	-6811
▁गंतव्य	-6812
▁दक्षता	-6813
▁देखोगे	-6814
▁शास्त्र	-6815
▁जीवों	-6816
वत्	-6817
▁मारा	-6818
▁यहीं	-6819
▁माइक्रो	-6820
▁2020	-6821
▁भरने	-6822
▁बताता	-6823
▁भरपूर	-6824
▁सोसाइटी	-6825
▁प्रमाणित	-6826
▁प्रावधानों	-6827
▁सूच	-6828
▁पहलुओं	-6829
▁साक्षी	-6830
RAN	-6831
ंक्शन	-6832
▁कार्यालयों	-6833
▁75	-6834
▁तेरा	-6835
▁संधि	-6836
▁तीसरा	-6837
▁हथियार	-6838
▁व्यष्टि	-6839
क्तिक	-6840
▁मुल्क	-6841
▁क्रांतिक	-6842
आत	-6843
ंबे	-6844
▁हकदार	-6845
▁फरमाया	-6846
▁बडे	-6847
▁सम्पन्न	-6848
▁प्रभावशाली	-6849
▁4.	-6850
हरों	-6851
दनी	-6852
उनके	-6853
▁इरादा	-6854
▁तथ्यों	-6855
▁सुन्दर	-6856
▁परिवर्तनों	-6857
▁झूठा	-6858
----	-6859
बहुत	-6860
▁तुझ	-6861
▁क़समें	-6862
▁दोज़ख़	-6863
▁सन्देह	-6864
▁डिप	-6865
▁ईंधन	-6866
▁कट्टर	-6867
▁आस्तियों	-6868
ap	-6869
ारण	-6870
र्ता	-6871
▁1999	-6872
▁वाहन	-6873
▁शंकर	-6874
▁लाभों	-6875
▁राष्ट्रों	-6876
ण्	-6877
चाह	-6878
▁ढूँ	-6879
त्रिम	-6880
तन्त्र	-6881
os	-6882
जत	-6883
▁जानना	-6884
▁मतभेद	-6885
▁बहादुर	-6886
थित	-6887
लाइ	-6888
▁हां	-6889
वास्त	-6890
▁राज़ी	-6891
▁दार्शन	-6892
▁बिन्दु	-6893
▁पाकीज़ा	-6894
▁प्रतिदान	-6895
आउट	-6896
▁पेय	-6897
▁कचरा	-6898
▁दस्तावेजों	-6899
एव	-6900
िरण	-6901
▁कीटों	-6902
▁स्रोतों	-6903
राय	-6904
ोरि	-6905
▁दिमाग	-6906
▁अधिकृत	-6907
,–	-6908
80	-6909
▁कारा	-6910
▁आकांक्षा	-6911
▁लंदन	-6912
▁बताते	-6913
▁स्तरीय	-6914
ँग	-6915
▁मोड़	-6916
▁रहित	-6917
▁लेबल	-6918
▁ठहराया	-6919
▁टर्मिनल	-6920
▁लक्ष्यों	-6921
▁बेर	-6922
▁उभार	-6923
▁मेहन	-6924
▁पेट्रोल	-6925
age	-6926
his	-6927
दूत	-6928
र्फ़	-6929
▁भूख	-6930
▁पचास	-6931
▁गिनती	-6932
▁श्वेत	-6933
¥	-6934
▁उन्हे	-6935
▁भाग्य	-6936
विश्वास	-6937
▁ब्राह्मण	-6938
ुद्ध	-6939
▁बचने	-6940
▁रोकते	-6941
▁अंशदान	-6942
▁मुहम्मद	-6943
▁शीर्षिका	-6944
▁साझेदारी	-6945
संख	-6946
▁36	-6947
▁वाम	-6948
▁आईडी	-6949
▁आयकर	-6950
▁कमाई	-6951
▁गणित	-6952
▁कृतज्ञता	-6953
▁भव	-6954
पसंद	-6955
▁घास	-6956
जहन्न	-6957
सूत्र	-6958
▁ख़ौफ	-6959
वृद्धि	-6960
▁नकारात्मक	-6961
▁व्यापारिक	-6962
▁प्रतिबद्धता	-6963
परा	-6964
▁बट	-6965
▁टीका	-6966
▁भुला	-6967
▁बालों	-6968
hat	-6969
टिक	-6970
▁दम	-6971
eather	-6972
▁लाखों	-6973
▁डीवीडी	-6974
▁खिलाड़ी	-6975
▁विचारधारा	-6976
¤	-6977
▁नकद	-6978
▁बहन	-6979
▁समापन	-6980
▁परोक्ष	-6981
▁विडियो	-6982
▁सलाहकार	-6983
▁स्वाधीन	-6984
▁अध्यक्षता	-6985
▁कार्यान्वित	-6986
स्सा	-6987
▁भाइयों	-6988
▁कानूनों	-6989
▁ख्वाहिश	-6990
▁फ़ाइलों	-6991
40	-6992
ंसक	-6993
▁वय	-6994
▁{0}	-6995
▁उलट	-6996
▁घात	-6997
▁अपनाई	-6998
▁पुरूष	-6999
▁प्रबल	-7000
▁उत्तरदायित्व	-7001
मरा	-7002
पुरुष	-7003
निर्माण	-7004
क्ल	-7005
ियॉ	-7006
▁खर	-7007
▁पश	-7008
▁गीता	-7009
▁नर्म	-7010
▁पीछा	-7011
▁भाष्	-7012
▁राज़	-7013
ाधिकार	-7014
▁ज्योति	-7015
▁मंत्रि	-7016
▁सारांश	-7017
▁रचनात्मक	-7018
इंड	-7019
कने	-7020
▁होटल	-7021
▁केंद्रों	-7022
8)	-7023
▁बलि	-7024
▁मेघ	-7025
संचार	-7026
कंप	-7027
क़े	-7028
लीन	-7029
▁फुट	-7030
▁वसी	-7031
▁पाना	-7032
59	-7033
li	-7034
भोग	-7035
▁पडे	-7036
ानिर्	-7037
▁टिकट	-7038
▁वांछ	-7039
▁चेन्न	-7040
▁नमूना	-7041
▁अनुक्रम	-7042
▁वस्तुएं	-7043
▁चोरी	-7044
▁सीता	-7045
▁अस्थि	-7046
▁पिछला	-7047
▁समझना	-7048
पर्य	-7049
▁अपार	-7050
▁ट्यूब	-7051
▁किराये	-7052
ॉग	-7053
बीन	-7054
▁ईंट	-7055
▁घाट	-7056
▁कोर्ट	-7057
▁संक्रिया	-7058
-9	-7059
ेंच	-7060
ापरी	-7061
▁करूँ	-7062
▁श्रो	-7063
▁सूरज	-7064
जीविका	-7065
▁पड़ते	-7066
▁पड़ने	-7067
▁आख़ेरत	-7068
▁उड़ीसा	-7069
▁प्रवासी	-7070
▁सौभाग्य	-7071
लोक	-7072
▁टि	-7073
▁बाक़ी	-7074
▁महानि	-7075
▁आकर्षण	-7076
▁मानकों	-7077
▁प्रसारण	-7078
▁पन	-7079
▁आदर	-7080
▁जाग	-7081
▁बचे	-7082
▁१९९	-7083
▁इंग्लैंड	-7084
▁७	-7085
▁जता	-7086
▁नाह	-7087
▁मरियम	-7088
आईटी	-7089
ब्बा	-7090
▁बहि	-7091
▁लोकसभा	-7092
▁अभिभाषण	-7093
▁शिक्षित	-7094
▁स्वच्छता	-7095
▁स्थितियों	-7096
किस	-7097
▁दिश	-7098
▁जिलों	-7099
▁मजबूर	-7100
▁प्रतिवादी	-7101
▁यहूद	-7102
▁वृत्ति	-7103
▁लाइब्रेरी	-7104
▁फो	-7105
तायात	-7106
▁ब्रे	-7107
▁तबाही	-7108
▁निकाह	-7109
▁पढ़ते	-7110
▁कुशलता	-7111
ew	-7112
▁HT	-7113
▁मौका	-7114
▁कृत्रिम	-7115
▁भावनाओं	-7116
▁सुधारों	-7117
2)	-7118
डू	-7119
भाई	-7120
ेरा	-7121
ल्ले	-7122
▁बिन	-7123
▁मचा	-7124
▁बर्फ	-7125
कारिता	-7126
पीसी	-7127
▁जुल	-7128
▁मला	-7129
▁भड़क	-7130
▁मनपसंद	-7131
▁देनेवाला	-7132
ef	-7133
▁`	-7134
▁इष्ट	-7135
▁अगरचे	-7136
▁क़रार	-7137
▁लगाकर	-7138
▁देवताओं	-7139
¤	-7140
▁सोल	-7141
▁खनिज	-7142
▁आस्था	-7143
▁ऑफ़लाइन	-7144
▁भागीदार	-7145
25	-7146
ul	-7147
िकीय	-7148
शुल्क	-7149
▁सौंद	-7150
▁अकादमी	-7151
षी	-7152
▁ढल	-7153
▁आवरण	-7154
▁आवेद	-7155
▁चाहो	-7156
▁मेमो	-7157
▁शल्य	-7158
▁परेशान	-7159
तिल	-7160
ुलिप	-7161
▁अटल	-7162
▁एहद	-7163
▁तदन	-7164
▁तस्	-7165
▁पुल	-7166
▁डरता	-7167
▁बेहिश्त	-7168
▁सैनिकों	-7169
▁प्राधिकृत	-7170
ML	-7171
हद	-7172
तेह	-7173
मुना	-7174
्राव	-7175
▁189	-7176
▁ढेर	-7177
स्फोट	-7178
▁अंडे	-7179
▁भव्य	-7180
▁निचले	-7181
▁मिलना	-7182
▁दुर्लभ	-7183
▁Comment	-7184
▁यातायात	-7185
ूनी	-7186
हवीं	-7187
▁पेर	-7188
▁हाइ	-7189
संबंध	-7190
▁आईटी	-7191
▁छुट्टी	-7192
▁सच्चाई	-7193
▁स्मारक	-7194
▁जरूरतों	-7195
▁अपेक्षाकृत	-7196
मस	-7197
▁J	-7198
ज़न	-7199
ैली	-7200
▁१०	-7201
▁खाल	-7202
▁कैंसर	-7203
▁नारायण	-7204
▁पहुँची	-7205
भास	-7206
म्पा	-7207
▁समेक	-7208
▁एजेंसियों	-7209
▁कुट	-7210
▁स्तन	-7211
▁पार्ट	-7212
▁संचित	-7213
▁दीक्षांत	-7214
सद	-7215
काना	-7216
व्यापी	-7217
▁लम्बी	-7218
▁इजाज़त	-7219
▁देखेंगे	-7220
▁परिश्रम	-7221
चाप	-7222
▁टेलीफोन	-7223
▁स्कूलों	-7224
पय	-7225
्यूम	-7226
▁आवि	-7227
▁मतदान	-7228
▁नज़दीक	-7229
▁पंजाबी	-7230
▁मानदंड	-7231
ध्व	-7232
द्रास	-7233
▁क्रय	-7234
▁पाये	-7235
▁पूछे	-7236
▁फ्रेम	-7237
▁बहुमत	-7238
▁विफलः	-7239
▁प्लगिन	-7240
▁असामान्य	-7241
किम	-7242
अपना	-7243
ामिन	-7244
ॉक्स	-7245
▁दूँ	-7246
▁रेड	-7247
▁हैस	-7248
▁हाउस	-7249
▁इंदिरा	-7250
▁उद्यमों	-7251
▁करनेवाली	-7252
bo	-7253
प्ल	-7254
▁रन	-7255
.2015	-7256
▁शाखाओं	-7257
▁मोहम्मद	-7258
▁हिस्सों	-7259
▁आत्मनिर्भर	-7260
6)	-7261
ईं	-7262
णे	-7263
समझ	-7264
▁हज	-7265
▁सना	-7266
▁तनाव	-7267
▁पुनरा	-7268
▁ड्राइव	-7269
▁प्रवर्तन	-7270
▁प्रणालियों	-7271
ृंग	-7272
▁फट	-7273
▁एमएस	-7274
▁हँसी	-7275
▁पेशेवर	-7276
▁मुकदमा	-7277
▁पूर्णतः	-7278
ताअत	-7279
▁असी	-7280
हमारी	-7281
▁उत्सव	-7282
▁कार्बन	-7283
▁मरम्मत	-7284
▁विदेशों	-7285
बस	-7286
▁o	-7287
ारक	-7288
खुदा	-7289
▁गर्भा	-7290
▁सारणी	-7291
▁प्राणी	-7292
▁समर्पण	-7293
▁पूर्णता	-7294
िफ	-7295
पीआई	-7296
▁नाक	-7297
शिक्ष	-7298
स्तीन	-7299
▁नामा	-7300
▁हुये	-7301
▁पीड़ा	-7302
▁बताने	-7303
श्रेष्ठ	-7304
▁निवारण	-7305
▁चाहूंगा	-7306
▁संकल्पना	-7307
un	-7308
श्‍	-7309
▁कंध	-7310
▁दिखाए	-7311
▁पाओगे	-7312
▁ज़िक्र	-7313
▁वितरित	-7314
▁साझीदार	-7315
अन	-7316
▁नाय	-7317
▁रिट	-7318
▁वाइ	-7319
▁हरा	-7320
सूचना	-7321
▁बरकत	-7322
▁वैष्ण	-7323
▁इन्हीं	-7324
▁परंपरागत	-7325
निया	-7326
▁खेत	-7327
▁ऊँचाई	-7328
weather	-7329
▁उत्कृष्टता	-7330
▁घन	-7331
▁संतुष्ट	-7332
डीएफ	-7333
▁कुम	-7334
▁बनाओ	-7335
▁इमारत	-7336
▁बम	-7337
वाणी	-7338
▁कड़	-7339
▁चलना	-7340
▁पैनल	-7341
▁आंकड़े	-7342
▁गवर्नर	-7343
▁हड़	-7344
▁घटित	-7345
▁कुबूल	-7346
▁केडीई	-7347
▁तीसरी	-7348
▁आजीविका	-7349
▁चिकित्सक	-7350
र्मी	-7351
▁जगत	-7352
▁बिग	-7353
पोरेट	-7354
▁मंडप	-7355
▁खातों	-7356
▁मानने	-7357
▁धनराशि	-7358
▁शर्तें	-7359
ers	-7360
त्रि	-7361
▁धोखे	-7362
सायनिक	-7363
▁व्याख्यान	-7364
१९	-7365
ort	-7366
णता	-7367
मंच	-7368
ग्रा	-7369
टकों	-7370
▁गले	-7371
▁सहे	-7372
▁2003	-7373
▁क्लिप	-7374
▁पूछते	-7375
▁ट्रांस	-7376
▁अनिवासी	-7377
ूमत	-7378
▁45	-7379
▁वैसी	-7380
▁संगत	-7381
▁संदेशों	-7382
▁अवसंरचना	-7383
▁डु	-7384
ोल्ड	-7385
▁बादल	-7386
▁पत्रों	-7387
▁साक्षा	-7388
▁प्रचालन	-7389
▁मुख्यतः	-7390
कै	-7391
जरत	-7392
सम्	-7393
▁गलती	-7394
▁पाठक	-7395
▁समाम	-7396
▁अनुचित	-7397
▁मद्रास	-7398
▁कार्यकारी	-7399
र्भ	-7400
▁0.	-7401
▁ज़बान	-7402
ानुभूति	-7403
▁मुशरिक	-7404
जक	-7405
’’	-7406
ंकी	-7407
▁कराई	-7408
▁नौका	-7409
▁मोहन	-7410
▁निक्ष	-7411
▁अस्वीकार	-7412
उसका	-7413
खाना	-7414
हाबाद	-7415
चन्द्र	-7416
▁कराता	-7417
▁$	-7418
▁८	-7419
खार	-7420
▁नम	-7421
▁ओवर	-7422
▁2011	-7423
▁उत्पादकता	-7424
▁धान	-7425
▁अतएव	-7426
कोर	-7427
क़ात	-7428
▁उदय	-7429
बार्ड	-7430
2.	-7431
ig	-7432
ंगें	-7433
ण्डल	-7434
विंद	-7435
▁ओपन	-7436
▁सृजित	-7437
त्रियों	-7438
▁कवियों	-7439
▁संयोजन	-7440
हान	-7441
▁प्रदत्त	-7442
▁आयुर्वेद	-7443
▁व्युत्पन्न	-7444
ताप	-7445
ऊँगा	-7446
पक्व	-7447
▁अवल	-7448
▁घुस	-7449
▁धूम	-7450
र्कों	-7451
▁अड्ड	-7452
▁इस्प	-7453
▁वृत्त	-7454
ँट	-7455
ंर	-7456
थन	-7457
फ़त	-7458
विदा	-7459
योग्य	-7460
▁बगैर	-7461
▁वाणी	-7462
▁श्रेण	-7463
कक्ष	-7464
ताकि	-7465
▁जरुर	-7466
▁गाड़ी	-7467
▁दिखाना	-7468
▁इंजीनियरी	-7469
mp	-7470
ग्स	-7471
सेल	-7472
ेयर	-7473
▁ताज	-7474
▁कालेज	-7475
▁उपेक्षा	-7476
्रु	-7477
▁ढाँ	-7478
▁पशुओं	-7479
▁होस्ट	-7480
▁पहुँचने	-7481
▁मित्रता	-7482
▁समकालीन	-7483
▁विकासशील	-7484
▁उपलब्धियों	-7485
▁OF	-7486
जाने	-7487
▁नाश	-7488
▁मंगल	-7489
▁आँखें	-7490
▁अज्ञान	-7491
▁रिश्ते	-7492
▁फूँ	-7493
▁नकदी	-7494
▁कर्मों	-7495
▁ज़रूरत	-7496
ुरु	-7497
ड़कर	-7498
▁ऊतक	-7499
▁क्यू	-7500
▁खोजें	-7501
▁माननीय	-7502
70	-7503
ric	-7504
ंचल	-7505
रेत	-7506
▁फाइ	-7507
▁चौथा	-7508
▁बढ़ो	-7509
▁निरूप	-7510
▁इस्पात	-7511
▁रखरखाव	-7512
▁सौंदर्य	-7513
▁लीग	-7514
▁बाढ़	-7515
▁खतरनाक	-7516
ठीक	-7517
्चर	-7518
्पण	-7519
▁वें	-7520
▁वैय	-7521
▁सीन	-7522
▁कंपन	-7523
▁जुटा	-7524
▁हमपर	-7525
▁निपटान	-7526
▁समामेल	-7527
▁परिपक्व	-7528
ER	-7529
शास	-7530
▁माध	-7531
▁TRAN	-7532
▁नौकर	-7533
▁मणिप	-7534
▁स्वै	-7535
्टवेयर	-7536
भूतियों	-7537
▁अन्याय	-7538
▁मुकाबले	-7539
▁प्रॉक्सी	-7540
ूल्य	-7541
▁मग़	-7542
▁वजन	-7543
▁उत्‍	-7544
▁गयीं	-7545
▁घाटा	-7546
▁मुहा	-7547
▁औज़ार	-7548
▁कृत्य	-7549
▁निमित	-7550
▁लम्बे	-7551
▁संजाल	-7552
▁सेंटर	-7553
▁इन्द्र	-7554
▁जिन्ना	-7555
वो	-7556
ईमान	-7557
स्सी	-7558
▁कोण	-7559
▁बडा	-7560
.2016	-7561
न्नों	-7562
▁हैसियत	-7563
▁पहाड़ों	-7564
▁सितम्बर	-7565
ड्	-7566
ORS	-7567
गृह	-7568
ताज	-7569
वेल	-7570
हीत	-7571
खाने	-7572
▁मत्	-7573
▁परवाह	-7574
▁रचनाओं	-7575
▁महासागर	-7576
राष्ट्रपति	-7577
▁परिस्थिति	-7578
▁(0	-7579
▁फूट	-7580
▁शादी	-7581
फ़ारिश	-7582
▁टैगोर	-7583
▁डोमेन	-7584
▁सुनकर	-7585
▁सुनाई	-7586
▁पब्लिक	-7587
लाप	-7588
SLAT	-7589
SLATORS	-7590
▁मध्यस्थ	-7591
▁वस्तुतः	-7592
▁सामान्यतया	-7593
▁TRANSLATORS	-7594
wor	-7595
पीठ	-7596
क्षे	-7597
▁188	-7598
▁इबर	-7599
▁नरम	-7600
▁नूर	-7601
▁शब्	-7602
श्चित	-7603
▁दलों	-7604
▁रूपये	-7605
▁शक्तियां	-7606
▁स्ट्रिंग	-7607
▁अंग्रेज़ी	-7608
गान	-7609
तिपय	-7610
श्ती	-7611
▁गोरा	-7612
▁सुनी	-7613
ानुसार	-7614
▁दार्शनिक	-7615
बाप	-7616
▁5.	-7617
▁अच	-7618
▁देह	-7619
▁सोचते	-7620
▁इलाकों	-7621
▁व्यर्थ	-7622
▁विज्ञापन	-7623
▁रखनेवालों	-7624
ड़ो	-7625
प्रण	-7626
▁दांत	-7627
▁अनन्त	-7628
▁कोयला	-7629
▁प्रातः	-7630
▁एक्सचेंज	-7631
▁प्रशिक्षित	-7632
ke	-7633
आईसी	-7634
▁पते	-7635
▁इताअत	-7636
▁बढ़ता	-7637
▁त्वरित	-7638
▁प्रिंटर	-7639
घन	-7640
रन	-7641
▁चट	-7642
▁नल	-7643
प्रथम	-7644
▁रूपरेखा	-7645
▁प्रतिलिपि	-7646
▁संवेदनशील	-7647
▁प्रतिस्पर्धा	-7648
तिज	-7649
ष्म	-7650
▁नक्	-7651
▁बंबई	-7652
▁लगने	-7653
▁दिशानिर्	-7654
मोहन	-7655
▁फौरन	-7656
▁मन्द	-7657
▁माउस	-7658
त्यक्ष	-7659
▁संगणक	-7660
15	-7661
▁कव	-7662
लिये	-7663
िकरण	-7664
त्मकता	-7665
▁पढ़ाई	-7666
▁हरिया	-7667
▁नवाचार	-7668
▁सिर्फ़	-7669
▁33	-7670
▁टक	-7671
गोया	-7672
▁आदत	-7673
▁ऊंची	-7674
▁सकने	-7675
▁कुदरत	-7676
▁विधिक	-7677
नत	-7678
रह	-7679
दाह	-7680
▁वेश	-7681
ज्ज़त	-7682
▁2004	-7683
▁संदत्त	-7684
▁कविताओं	-7685
▁रिज़र्व	-7686
▁विनियमन	-7687
▁अफगानिस्तान	-7688
नेस	-7689
ूलन	-7690
प्रा	-7691
ष्‍ट	-7692
▁दीं	-7693
▁मील	-7694
▁कथित	-7695
▁हिला	-7696
▁उत्पा	-7697
▁कार्मिक	-7698
▁प्रोटीन	-7699
▁राजमार्ग	-7700
कहीं	-7701
▁बिट	-7702
स्टिक	-7703
▁बेकार	-7704
▁संकलन	-7705
▁संवेदना	-7706
¤	-7707
भुत	-7708
▁ह्र	-7709
▁बालक	-7710
दृष्टि	-7711
▁अंतरित	-7712
▁दीवारों	-7713
स्से	-7714
▁गूगल	-7715
▁नुक़	-7716
स्तीनी	-7717
▁मेहनत	-7718
▁शासित	-7719
▁आकर्षक	-7720
▁एशियाई	-7721
▁ड़	-7722
▁चखा	-7723
▁मंग	-7724
▁बांट	-7725
क्षरता	-7726
▁छोड़े	-7727
TP	-7728
अगर	-7729
ौलत	-7730
▁अय	-7731
▁फू	-7732
▁नमक	-7733
प्रदायिक	-7734
▁नाबार्ड	-7735
▁परिकल्पना	-7736
तत्व	-7737
म्मा	-7738
ग़ैरह	-7739
▁किला	-7740
▁दौरा	-7741
▁अपवाद	-7742
▁२०	-7743
▁गेह	-7744
▁अवकाश	-7745
▁फूलों	-7746
▁खुल्लम	-7747
▁दिखाते	-7748
▁सर्वथा	-7749
स्कर	-7750
▁छोड	-7751
▁बेस	-7752
▁रूह	-7753
न्हें	-7754
▁सौंपा	-7755
▁कहानियों	-7756
▁पहुंचाने	-7757
ायल	-7758
कुफ्	-7759
▁मुआ	-7760
▁नजात	-7761
▁सवाब	-7762
▁ग्रीन	-7763
▁क़्यों	-7764
▁मौजिज़े	-7765
▁सम्बद्ध	-7766
ess	-7767
पटा	-7768
र्थी	-7769
▁Con	-7770
लेमान	-7771
▁आजाद	-7772
▁अखबार	-7773
▁गर्दन	-7774
ष्टाचार	-7775
▁मेमोरी	-7776
▁शान्ति	-7777
▁शुरूआत	-7778
¤	-7779
डों	-7780
▁जंगली	-7781
▁नाट्य	-7782
▁मराठी	-7783
गंध	-7784
▁70	-7785
▁बश	-7786
भांश	-7787
▁आवृ	-7788
▁प्या	-7789
▁सफाई	-7790
▁रोज़े	-7791
▁सृष्टि	-7792
▁ज्यादातर	-7793
▁रासायनिक	-7794
▁धूप	-7795
▁संब	-7796
▁प्रभु	-7797
▁सहभाग	-7798
▁वर्गीकरण	-7799
ूरो	-7800
क्के	-7801
ालों	-7802
▁मेज	-7803
▁कबीर	-7804
▁यूआर	-7805
▁क्रोध	-7806
▁ठहराते	-7807
▁रंगमंच	-7808
ट्टा	-7809
िश्ता	-7810
▁किमी	-7811
▁मरने	-7812
▁वादी	-7813
▁आमदनी	-7814
▁हज़ार	-7815
▁बांग्लादेश	-7816
फु	-7817
रीद	-7818
▁it	-7819
▁बोध	-7820
दर्शक	-7821
▁डालो	-7822
▁वरन्	-7823
▁हममें	-7824
▁इंजीनियरिंग	-7825
▁करू	-7826
▁हरी	-7827
▁मोती	-7828
▁कतिपय	-7829
▁किनारा	-7830
▁बढ़ाना	-7831
▁सर्वश्रेष्ठ	-7832
▁;	-7833
बेल	-7834
गांठ	-7835
▁अपर	-7836
▁विट	-7837
▁अजीब	-7838
▁ऊंचे	-7839
▁निबंध	-7840
▁पकड़े	-7841
▁ब्रह्मा	-7842
▁स्त्रियाँ	-7843
▁उज	-7844
▁पठ	-7845
olor	-7846
अच्छे	-7847
▁रहीं	-7848
▁मानों	-7849
▁निमित्त	-7850
▁पार्श्व	-7851
खिक	-7852
वीर	-7853
▁आधे	-7854
▁एन्	-7855
▁मसल	-7856
▁शपथ	-7857
▁शेर	-7858
▁राधा	-7859
▁सबका	-7860
lab	-7861
▁मैच	-7862
▁निपटने	-7863
मैन	-7864
िट्	-7865
र्दों	-7866
▁स्पर्श	-7867
▁सहानुभूति	-7868
हमने	-7869
▁कंट	-7870
▁देन	-7871
निहित	-7872
▁इनको	-7873
▁नर्स	-7874
▁नायक	-7875
▁मनाया	-7876
▁सार्थ	-7877
त्तियों	-7878
▁शास्त्रीय	-7879
ढे	-7880
हासन	-7881
रेकीन	-7882
▁घेरे	-7883
▁दस्त	-7884
▁फलों	-7885
▁विधा	-7886
▁पूछता	-7887
वैधानिक	-7888
▁निवेदन	-7889
▁एकत्रित	-7890
▁प्रतिरोध	-7891
कोष	-7892
गित	-7893
नाई	-7894
लंका	-7895
लेखा	-7896
▁कोर	-7897
▁वसा	-7898
▁सोम	-7899
▁बचपन	-7900
▁मेगा	-7901
▁अन्वेष	-7902
▁रजिस्ट्री	-7903
yp	-7904
tle	-7905
शिप	-7906
▁st	-7907
वर्ग	-7908
ैतिज	-7909
▁इंस	-7910
▁नोडल	-7911
▁निराश	-7912
▁भत्ता	-7913
▁मिटाना	-7914
▁क्रांतिकारी	-7915
नाइ	-7916
टिंग	-7917
▁किल	-7918
▁पीछ	-7919
प्राय	-7920
▁धोखा	-7921
▁बीबी	-7922
▁माहौल	-7923
▁लौटने	-7924
▁अन्जाम	-7925
▁निवेशकों	-7926
▁बल्लेबाज	-7927
22	-7928
▁१२	-7929
▁बेटी	-7930
▁मौज़	-7931
▁सौदा	-7932
▁रद्दी	-7933
▁गणतंत्र	-7934
▁स्वाधीनता	-7935
▁९	-7936
▁नं	-7937
ित्य	-7938
▁तरल	-7939
▁माउ	-7940
▁त्रिप	-7941
▁गरीबों	-7942
▁ज्यादती	-7943
हल	-7944
▁घृ	-7945
▁चक	-7946
ज्जा	-7947
▁नोक	-7948
▁महो	-7949
▁1956	-7950
▁2010	-7951
▁आलेख	-7952
▁पाइप	-7953
▁शाही	-7954
▁बरबाद	-7955
▁चित्रण	-7956
▁टुकड़ा	-7957
7)	-7958
II	-7959
हृ	-7960
वानि	-7961
▁भूट	-7962
स्मृति	-7963
▁अभिने	-7964
▁खरीदने	-7965
▁निर्गम	-7966
▁बढ़ाया	-7967
▁फरिश्ते	-7968
▁सर्वज्ञ	-7969
▁प्रतिज्ञा	-7970
▁परियोजनाएं	-7971
तिक्र	-7972
▁विस्फोट	-7973
▁सिफ़ारिश	-7974
दाम	-7975
दाबाद	-7976
▁उपर्य	-7977
▁पक्का	-7978
▁बैकअप	-7979
▁बोलने	-7980
▁पेट्रोलियम	-7981
ऊद	-7982
जय	-7983
चंद	-7984
nome	-7985
▁उम्मत	-7986
▁बनाती	-7987
▁उन्नयन	-7988
▁उपग्रह	-7989
▁हुकूमत	-7990
याम	-7991
लिफ़	-7992
▁आवं	-7993
▁ड्रा	-7994
▁ख़िला	-7995
▁वसीयत	-7996
निर्देश	-7997
▁तत्कालीन	-7998
टीय	-7999
महा	-8000
▁तप	-8001
▁दमन	-8002
युद्ध	-8003
▁हर्ष	-8004
▁ट्रेड	-8005
▁अधिवेशन	-8006
▁मिश्रित	-8007
▁मोमिनों	-8008
िरा	-8009
टीएम	-8010
रक्षण	-8011
▁बढ़े	-8012
▁मोटे	-8013
त्याशित	-8014
▁रजिस्टर	-8015
▁2,	-8016
▁मरी	-8017
▁ख़ैर	-8018
▁नाहक़	-8019
▁साकार	-8020
▁वैष्णव	-8021
▁जाएँगें	-8022
☻☻	-8023
क़्	-8024
िणी	-8025
▁ra	-8026
▁इबरत	-8027
▁जज़ा	-8028
▁मानस	-8029
▁घोड़े	-8030
▁छिपाते	-8031
▁परहेज़गारी	-8032
शिंग	-8033
स्टे	-8034
▁प्य	-8035
▁लाई	-8036
तानों	-8037
▁सुगम	-8038
▁पुष्प	-8039
▁आज्ञाकारी	-8040
ैब	-8041
त्सव	-8042
प्पा	-8043
▁दंत	-8044
▁सुनो	-8045
क्रामक	-8046
▁खोजने	-8047
▁वाक्य	-8048
▁पर्यवे	-8049
▁सभापति	-8050
▁प्रजाति	-8051
टित	-8052
द्म	-8053
▁त्यो	-8054
निश्चय	-8055
▁फॉर्म	-8056
राइल	-8057
वाने	-8058
▁जरा	-8059
शिल्प	-8060
▁हमले	-8061
▁गाँधी	-8062
िपी	-8063
वकों	-8064
▁केश	-8065
निर्ण	-8066
▁रहकर	-8067
▁बॉक्स	-8068
▁सचिवाल	-8069
▁अनुशासन	-8070
▁बंदरगाह	-8071
▁सार्वभौ	-8072
कीर	-8073
बड़ी	-8074
श्यक	-8075
▁सेक	-8076
▁गोली	-8077
▁शरार	-8078
▁छोड़ें	-8079
▁मजदूरी	-8080
▁राजाओं	-8081
▁इलाहाबाद	-8082
नस	-8083
रब	-8084
▁क्यो	-8085
▁सूजन	-8086
▁बनायी	-8087
▁अनुभाग	-8088
▁यात्री	-8089
▁संवैधानिक	-8090
कौ	-8091
▁नॉ	-8092
ख़बर	-8093
दीक़	-8094
▁गेट	-8095
▁लाह	-8096
▁वास्तु	-8097
▁अनुकम्पा	-8098
▁परहेज़गार	-8099
टके	-8100
महल	-8101
ख़्या	-8102
▁पढ़ी	-8103
▁उपहार	-8104
▁निभाई	-8105
▁संप्र	-8106
फलक	-8107
▁गठ	-8108
नाडा	-8109
समूह	-8110
▁बसव	-8111
▁विय	-8112
▁लाभांश	-8113
▁नुक़सान	-8114
▁लेखापरी	-8115
▁ब्राउज़र	-8116
▁फिलीस्तीनी	-8117
उल	-8118
ंबा	-8119
शोर	-8120
र्ते	-8121
▁चिर	-8122
काव्य	-8123
▁कोने	-8124
lation	-8125
▁नामों	-8126
▁सरदारों	-8127
▁सशस्त्र	-8128
राक	-8129
▁बछ	-8130
ज्जित	-8131
▁ऊँची	-8132
▁खजूर	-8133
▁फ़ाय	-8134
▁गुलाम	-8135
ख्तियार	-8136
सामग्री	-8137
कूट	-8138
रांत	-8139
▁ढाल	-8140
▁हिल	-8141
▁अवशेष	-8142
▁आंखों	-8143
▁आभूषण	-8144
▁प्रदर्शक	-8145
▁हस्तांतरण	-8146
39	-8147
ैश	-8148
ितु	-8149
▁ठे	-8150
▁वग	-8151
क़ूब	-8152
नियम	-8153
▁चखो	-8154
▁असंग	-8155
▁आपात	-8156
▁छिपी	-8157
▁समझी	-8158
▁समझो	-8159
▁दरख्त	-8160
▁मुकदमे	-8161
▁समीकरण	-8162
▁मुद्रित	-8163
▁\	-8164
▁आजकल	-8165
▁परदा	-8166
▁रुजू	-8167
▁कारगर	-8168
▁सरीही	-8169
▁परिचालन	-8170
▁दूरसंचार	-8171
▁परहेज़गारों	-8172
ेत	-8173
जील	-8174
उनसे	-8175
बर्ग	-8176
▁ठाक	-8177
▁हाई	-8178
▁ऊंचा	-8179
▁कलाम	-8180
▁अवतार	-8181
▁स्वाय	-8182
IL	-8183
{0}	-8184
जुट	-8185
▁2009	-8186
▁पाँव	-8187
▁मज़े	-8188
आर्थिक	-8189
▁स्क्रिप्ट	-8190
▁अमृत	-8191
▁पैरों	-8192
▁संतान	-8193
▁आनुवंश	-8194
▁शास्त्री	-8195
▁संव्यवहार	-8196
▁हिन्दुस्तान	-8197
ब्बे	-8198
▁आन्द	-8199
▁अहिंसा	-8200
▁फिल्टर	-8201
▁स्तम्भ	-8202
▁आज़माइश	-8203
▁संरक्षित	-8204
ree	-8205
▁150	-8206
किताब	-8207
फ़ाइल	-8208
▁निषे	-8209
मूर्ति	-8210
▁असंभव	-8211
▁डालना	-8212
▁बदलना	-8213
▁निराशा	-8214
▁लाएँगे	-8215
▁स्थलों	-8216
▁विकलांग	-8217
ोपण	-8218
तकों	-8219
▁वाक	-8220
lic	-8221
रेटर	-8222
▁अवगत	-8223
▁नींव	-8224
ढ़ियों	-8225
▁अग्रे	-8226
▁मंजूर	-8227
▁श्रद्धांजलि	-8228
75	-8229
पृ	-8230
ज्जु	-8231
ियाद	-8232
ुकला	-8233
▁कुर	-8234
▁सड़कों	-8235
▁पूर्वोत्तर	-8236
आइ	-8237
एफसी	-8238
फिक़	-8239
शिला	-8240
▁(5)	-8241
▁अपन	-8242
▁ग़ु	-8243
कार्ड	-8244
▁सूरत	-8245
▁अद्	-8246
▁इल्	-8247
▁रुस	-8248
▁ठहरे	-8249
▁देनी	-8250
▁पैग़	-8251
धिकारिक	-8252
▁सेनाओं	-8253
MA	-8254
मुखी	-8255
स्पी	-8256
ॉर्ट	-8257
▁नील	-8258
▁खोला	-8259
फ्रेंस	-8260
▁अन्दा	-8261
▁उपभोग	-8262
▁बाज़ार	-8263
▁श्रीलंका	-8264
ct	-8265
ंघा	-8266
पटल	-8267
▁रसी	-8268
▁दत्त	-8269
▁चक्कर	-8270
▁नतीजा	-8271
▁संकाय	-8272
▁स्विच	-8273
▁भड़कती	-8274
▁सर्विस	-8275
▁translat	-8276
▁कार्यपालिका	-8277
¤	-8278
राबी	-8279
▁फॉर	-8280
▁बुत	-8281
वर्धन	-8282
▁राजी	-8283
▁स्वे	-8284
▁पुराण	-8285
▁अपूर्ण	-8286
▁राजपत्र	-8287
▁राष्ट्री	-8288
▁प्राप्तकर्ता	-8289
▁नृ	-8290
ting	-8291
▁वर्षगांठ	-8292
▁समस्याएं	-8293
आज	-8294
डीए	-8295
सरत	-8296
रसूल	-8297
िएशन	-8298
विशेष	-8299
▁आईसी	-8300
▁औषधि	-8301
▁धमकी	-8302
▁बाएं	-8303
▁एकजुट	-8304
▁कच्चे	-8305
▁क़ब्ल	-8306
▁दादाओं	-8307
▁बरसाया	-8308
▁वक्तव्य	-8309
▁समायोजन	-8310
▁झुठलाओगे	-8311
▁महानिदेशक	-8312
परक	-8313
खण्ड	-8314
बड़े	-8315
्रीट	-8316
▁घोष	-8317
▁इन्त	-8318
▁कतरा	-8319
▁तुम्	-8320
▁सालों	-8321
▁क्षैतिज	-8322
▁पाबन्दी	-8323
▁परिणामों	-8324
▁मंत्रालयों	-8325
/%	-8326
.11	-8327
अर्	-8328
टरी	-8329
▁रै	-8330
▁अटक	-8331
▁कोमल	-8332
साधारण	-8333
▁बनाएं	-8334
▁मोहलत	-8335
▁समर्थक	-8336
▁निर्माता	-8337
▁उम्मीदवार	-8338
▁(.	-8339
▁शर	-8340
गोरि	-8341
पहले	-8342
बाज़	-8343
▁185	-8344
▁ताक	-8345
▁लखन	-8346
▁आगमन	-8347
▁रेशम	-8348
▁सुचर	-8349
▁चेहरा	-8350
▁स्क्र	-8351
वैज्ञान	-8352
▁नियंत्रक	-8353
▁प्रवाहित	-8354
18	-8355
दक	-8356
.10	-8357
लीस	-8358
▁छः	-8359
चाहे	-8360
धारकों	-8361
▁विधाय	-8362
▁सुदूर	-8363
▁तदनुसार	-8364
▁वैयक्तिक	-8365
▁दीर्घकालिक	-8366
-4	-8367
nu	-8368
¤	-8369
ओएस	-8370
ांक	-8371
▁me	-8372
▁सटी	-8373
चंद्र	-8374
▁कोरो	-8375
▁पादप	-8376
▁नमूने	-8377
▁अनुकरण	-8378
▁परिसंप	-8379
▁विवेकान	-8380
▁अपराधियों	-8381
ॉजी	-8382
▁अव्य	-8383
▁निवे	-8384
▁बतौर	-8385
▁बेहद	-8386
▁भीड़	-8387
▁स्थूल	-8388
▁आँकड़ा	-8389
▁छोड़ने	-8390
▁डाक्टर	-8391
▁नाटकों	-8392
▁डाटाबेस	-8393
▁मनोरंजन	-8394
▁संग्राम	-8395
▁राजकुमार	-8396
▁अप्रत्याशित	-8397
ीर	-8398
चाना	-8399
▁छेद	-8400
▁आवासी	-8401
▁सुलेमान	-8402
,%	-8403
▁is	-8404
ताबे	-8405
▁दिव	-8406
▁फलक	-8407
▁1947	-8408
▁इराक	-8409
▁एसोस	-8410
▁ग्लो	-8411
▁नाफर	-8412
▁स्वाद	-8413
▁ग्रन्थ	-8414
99	-8415
काज	-8416
साफ	-8417
▁ईस	-8418
फूज़	-8419
ल्कि	-8420
कारियों	-8421
▁गोपनीय	-8422
▁नियोजन	-8423
▁निर्धन	-8424
▁उपनिवेश	-8425
▁ज़बरदस्त	-8426
mi	-8427
चौ	-8428
नम	-8429
रानी	-8430
▁गंध	-8431
स्मिक	-8432
▁गोवा	-8433
▁बेचने	-8434
▁करूँगा	-8435
▁संग्रहण	-8436
end	-8437
दाद	-8438
▁धूल	-8439
▁गोपन	-8440
▁गोला	-8441
क्साइड	-8442
▁चिंतन	-8443
▁सन्देश	-8444
▁महामारी	-8445
डऋ	-8446
▁44	-8447
▁पॉलि	-8448
▁बेहत	-8449
▁हल्का	-8450
▁जोड़ना	-8451
▁वग़ैरह	-8452
▁किताबों	-8453
▁पक्षियों	-8454
▁उपर्युक्त	-8455
▁केन्द्रों	-8456
ुलर	-8457
▁वीं	-8458
▁विलो	-8459
▁लड़ने	-8460
▁अंतर्व	-8461
▁जाननेवाला	-8462
भागी	-8463
माला	-8464
सीडी	-8465
▁सेन	-8466
होंने	-8467
▁शोषण	-8468
▁ठाकुर	-8469
▁इच्छुक	-8470
▁नीतिगत	-8471
▁पड़ोसी	-8472
▁ऑप	-8473
देवी	-8474
▁होश	-8475
मताओं	-8476
▁एहकाम	-8477
▁सेवानि	-8478
▁एख्तेयार	-8479
▁पूर्णतया	-8480
▁मुशरेकीन	-8481
▁प्रतिवर्ष	-8482
▁वास्तुकला	-8483
nd	-8484
ूण	-8485
vir	-8486
तरह	-8487
द्दा	-8488
▁दुश	-8489
▁विघ	-8490
▁हंस	-8491
▁ख्या	-8492
▁कानों	-8493
▁सुनवाई	-8494
▁अद्वितीय	-8495
▁उत्तराधिकारी	-8496
oo	-8497
नीत	-8498
पहर	-8499
स्मार	-8500
▁आशंका	-8501
▁हानिक	-8502
▁हालात	-8503
▁मेहरबानी	-8504
erv	-8505
सिया	-8506
▁कैश	-8507
▁चित	-8508
च्छेदन	-8509
ुदायिक	-8510
▁अंगों	-8511
▁अपितु	-8512
▁दरवाजे	-8513
▁निकलते	-8514
▁सिखाया	-8515
▁चित्रित	-8516
▁सिंहासन	-8517
▁पर्यटकों	-8518
ौदा	-8519
▁बृह	-8520
▁शीत	-8521
▁अवयव	-8522
भारतीय	-8523
▁कमीशन	-8524
▁जोड़ी	-8525
▁सुचरिता	-8526
कती	-8527
▁इट	-8528
▁अशोक	-8529
▁पटेल	-8530
पत्रों	-8531
▁कपड़ा	-8532
▁टेनिस	-8533
▁हारून	-8534
▁मुहैया	-8535
▁दै	-8536
ग़ैर	-8537
सेवा	-8538
▁माफ़	-8539
▁तुल्य	-8540
▁भूटान	-8541
▁मारने	-8542
▁सोचने	-8543
▁डॉक्टर	-8544
▁अवस्थित	-8545
▁स्थिरता	-8546
▁आधिकारिक	-8547
ast	-8548
hou	-8549
सन्द	-8550
ायों	-8551
ष्कृत	-8552
▁हाइड	-8553
▁गार्ड	-8554
▁जीवंत	-8555
▁रणनीति	-8556
▁प्रस्तावों	-8557
17	-8558
बद	-8559
ect	-8560
ासा	-8561
ख़्त	-8562
म्बा	-8563
चिकित	-8564
▁बांस	-8565
▁दीर्घा	-8566
▁आकस्मिक	-8567
.12	-8568
ड्र	-8569
▁01	-8570
ड्डी	-8571
मिया	-8572
▁मुम	-8573
▁वृद्ध	-8574
▁शब्दा	-8575
▁अतिमान	-8576
▁नेताजी	-8577
▁परिषद्	-8578
▁महफूज़	-8579
▁सचिवालय	-8580
▁स्टार्ट	-8581
▁उत्सर्जन	-8582
1)	-8583
कोई	-8584
पाट	-8585
वचन	-8586
ियस	-8587
▁अशु	-8588
▁फर्	-8589
▁डालर	-8590
▁बरसात	-8591
▁तालिका	-8592
▁भेदभाव	-8593
मेर	-8594
▁02	-8595
▁झे	-8596
▁अनाथ	-8597
▁ट्रा	-8598
▁बातिल	-8599
▁प्रशंस	-8600
▁पर्यावरणीय	-8601
इसी	-8602
▁केस	-8603
यंत्र	-8604
▁इसहा	-8605
वास्तव	-8606
▁मुफ्त	-8607
▁प्रचुर	-8608
▁घरवालों	-8609
▁मंत्रियों	-8610
,"	-8611
ve	-8612
▁ग्रा	-8613
▁चाँद	-8614
▁बीवी	-8615
▁सब्ज	-8616
▁प्रबन्ध	-8617
▁विनिधान	-8618
stel	-8619
▁मुअ	-8620
ज्ञाप	-8621
▁अज्र	-8622
▁पागल	-8623
▁हफ्त	-8624
▁खासकर	-8625
▁धारित	-8626
▁नवीनतम	-8627
▁याक़ूब	-8628
▁संकेतक	-8629
▁निरन्तर	-8630
▁सूचीबद्ध	-8631
▁वॉ	-8632
▁माफ	-8633
.2013	-8634
▁सुपु	-8635
▁तालाब	-8636
▁शिर्क	-8637
▁इसहाक़	-8638
▁नवीकरण	-8639
▁प्रदेशों	-8640
▁ज़िम्मेदारी	-8641
ोड	-8642
भुज	-8643
ल्लत	-8644
▁टॉगल	-8645
▁स्ला	-8646
▁तरीक़े	-8647
▁ख़बरदार	-8648
▁दर्शाया	-8649
शक	-8650
▁~	-8651
सिड	-8652
्‍त	-8653
▁जॉन	-8654
▁शेख	-8655
परेशन	-8656
▁बताए	-8657
▁मेन्यू	-8658
ुति	-8659
णुओं	-8660
ैक्ट	-8661
▁ऋतु	-8662
▁नकल	-8663
▁बड़	-8664
▁सन्त	-8665
▁मर्या	-8666
▁मणिपुर	-8667
ुड	-8668
ोद	-8669
आपको	-8670
ब्बत	-8671
वाया	-8672
▁पहना	-8673
▁भेजना	-8674
▁स्वर्ग	-8675
▁चित्रकला	-8676
▁छे	-8677
▁आधी	-8678
न्दों	-8679
▁अंदा	-8680
▁कर्ज	-8681
▁समता	-8682
▁अफसोस	-8683
▁जानों	-8684
▁पूजते	-8685
▁स्टार	-8686
▁दुर्गा	-8687
▁प्रेषक	-8688
▁सुधारने	-8689
ँजी	-8690
िज़	-8691
▁आरा	-8692
▁कमे	-8693
▁एण्ड	-8694
▁दाऊद	-8695
▁पावर	-8696
▁शर्म	-8697
▁सूचक	-8698
▁कनाडा	-8699
▁किराए	-8700
▁गीतों	-8701
▁निकला	-8702
▁प्रकोप	-8703
▁सामुदायिक	-8704
▁स्वीकार्य	-8705
खने	-8706
▁गज	-8707
▁URL	-8708
▁लोप	-8709
दस्ती	-8710
▁आगरा	-8711
▁हरित	-8712
▁साक्षरता	-8713
▁विस्तारित	-8714
फॉ	-8715
लापन	-8716
▁ऊँट	-8717
▁गड़	-8718
▁जैविक	-8719
▁बदौलत	-8720
▁अनुभूति	-8721
ोश	-8722
चाल	-8723
यित	-8724
▁be	-8725
▁मेड	-8726
▁शिष्ट	-8727
▁उपयोगिता	-8728
▁अप्रत्यक्ष	-8729
ss	-8730
▁’	-8731
ंडे	-8732
▁बक	-8733
▁मीम	-8734
तीकरण	-8735
▁आघात	-8736
▁उठता	-8737
स्थापन	-8738
▁रोशनी	-8739
▁उन्मूलन	-8740
▁महाद्वीप	-8741
▁रूपांतरण	-8742
-5	-8743
सह	-8744
ड़का	-8745
▁गरि	-8746
▁छोर	-8747
▁यौन	-8748
▁आर्य	-8749
▁रेगि	-8750
▁आश्रम	-8751
▁बताना	-8752
▁अनुभवों	-8753
▁त्योहार	-8754
▁बेटियाँ	-8755
▁लड़कियों	-8756
stellation	-8757
▁न्यायपालिका	-8758
ile	-8759
ऐसा	-8760
तीन	-8761
ताएं	-8762
▁पॉप	-8763
दोनों	-8764
▁कन्न	-8765
▁जाहिर	-8766
▁दोपहर	-8767
▁मास्ट	-8768
▁इसलिये	-8769
▁जिंदगी	-8770
▁टिप्पण	-8771
▁सांख्य	-8772
▁स्नातक	-8773
ोष्ठ	-8774
▁लहर	-8775
▁किंग	-8776
▁बजाए	-8777
▁रोचक	-8778
▁लखनऊ	-8779
▁फिरते	-8780
▁रंगों	-8781
▁हरियाणा	-8782
▁मुख्यालय	-8783
▁गतिविधियां	-8784
.%	-8785
▁34	-8786
लाइट	-8787
▁तित	-8788
▁रिम	-8789
▁आगामी	-8790
▁मुन्त	-8791
▁झुठलाते	-8792
▁बीवियों	-8793
▁सम्भावना	-8794
▁प्रतिनिधियों	-8795
IS	-8796
ON	-8797
थल	-8798
▁इल	-8799
▁ध्य	-8800
▁सता	-8801
▁दिखला	-8802
बेहिश्त	-8803
▁उर्वरक	-8804
▁जाएँगी	-8805
▁मजदूरों	-8806
▁क़्योंकि	-8807
ah	-8808
ुश	-8809
▁चलाए	-8810
▁देहा	-8811
▁चलाएँ	-8812
▁नोटिस	-8813
▁धर्मों	-8814
▁समेकित	-8815
▁सर्वप्रथम	-8816
▁मैत्रीपूर्ण	-8817
जुल	-8818
षकों	-8819
▁अनो	-8820
▁पतन	-8821
▁रोड	-8822
क़्ति	-8823
द्वार	-8824
▁नींद	-8825
▁पांव	-8826
▁पेशी	-8827
▁झिल्ली	-8828
▁क्षमताओं	-8829
▁इस्लामवादी	-8830
▁48	-8831
▁इधर	-8832
▁खनन	-8833
▁गुट	-8834
▁सैक	-8835
▁अतिथि	-8836
▁उड़ान	-8837
▁महान्	-8838
▁करेगें	-8839
▁निर्वाह	-8840
तौ	-8841
पूरा	-8842
▁पटल	-8843
▁सिने	-8844
▁ग्यार	-8845
▁कोरिया	-8846
लेस	-8847
▁जगा	-8848
▁ज्या	-8849
▁मधुमेह	-8850
▁सार्थक	-8851
▁मॉड्यूल	-8852
▁कार्यकाल	-8853
▁प्राणियों	-8854
)-	-8855
कथा	-8856
▁कमर	-8857
▁तेलु	-8858
▁दोषी	-8859
▁सिटी	-8860
▁गतिशील	-8861
▁शस्त्र	-8862
▁संस्थागत	-8863
▁प्रस्तुति	-8864
▁पारदर्शिता	-8865
.–	-8866
निय	-8867
ल्फ	-8868
▁पाओ	-8869
▁नानक	-8870
क्टरों	-8871
▁उपाधि	-8872
▁प्रेषण	-8873
▁मामूली	-8874
▁नरेन्द्र	-8875
▁क्लिपबोर्ड	-8876
▁स्थानांतरित	-8877
ऍं	-8878
.09	-8879
म्बे	-8880
ाराम	-8881
▁दरों	-8882
▁सादा	-8883
यात्रा	-8884
▁प्रजातियों	-8885
▁मुख्यमंत्री	-8886
▁साक्षात्कार	-8887
दिश	-8888
लेशन	-8889
▁चूक	-8890
▁लची	-8891
▁इंजन	-8892
▁जिसमे	-8893
▁वांछित	-8894
▁आश्वासन	-8895
▁संक्षेप	-8896
”।	-8897
01.	-8898
मलव	-8899
▁अहमद	-8900
▁कमेटी	-8901
▁तलाक़	-8902
▁पड़ोस	-8903
▁बच्चन	-8904
▁लौटकर	-8905
▁सोसाय	-8906
▁डेटाबेस	-8907
▁परेशानी	-8908
▁प्रौद्योगिकियों	-8909
▁१६	-8910
ड़की	-8911
र्चे	-8912
▁मले	-8913
▁ध्रु	-8914
▁निकलता	-8915
▁वृत्ता	-8916
विद्यालय	-8917
▁ज़्यादती	-8918
.08	-8919
हाली	-8920
▁ईस्ट	-8921
स्वामी	-8922
▁कब्जा	-8923
▁दर्जा	-8924
▁पुनर्व	-8925
आस	-8926
ine	-8927
डेट	-8928
दोष	-8929
बामा	-8930
▁मरयम	-8931
▁विवश	-8932
▁गरिमा	-8933
▁तारों	-8934
▁लौटना	-8935
▁श्रेय	-8936
▁आचार्य	-8937
▁भ्रष्टाचार	-8938
एक्स	-8939
सिटी	-8940
▁बीत	-8941
▁लाम	-8942
▁इसमे	-8943
▁नेको	-8944
▁विगत	-8945
▁उपदेश	-8946
▁कीटना	-8947
▁वाज़े	-8948
▁मजबूती	-8949
ोन्	-8950
▁कमल	-8951
▁तरा	-8952
▁दार	-8953
▁फौज	-8954
▁बगल	-8955
र्कता	-8956
▁नाफ़र	-8957
▁रोज़ा	-8958
▁सदनों	-8959
▁किराया	-8960
▁छुपाएँ	-8961
▁टाइम्स	-8962
▁शिकायतों	-8963
▁समाजवादी	-8964
▁यात्रियों	-8965
ॉस	-8966
▁ऍ	-8967
टकर	-8968
बाबू	-8969
▁बनते	-8970
▁मुस्क	-8971
▁अधिष्ठ	-8972
▁किताबें	-8973
▁चित्रों	-8974
▁निकालना	-8975
▁यहूदियों	-8976
ड़न	-8977
टर्न	-8978
▁500	-8979
▁कों	-8980
▁खपत	-8981
▁भरत	-8982
▁मैथ	-8983
त्तीस	-8984
बल्कि	-8985
▁कारी	-8986
▁स्टॉक	-8987
▁मुद्रण	-8988
are	-8989
जिसे	-8990
ूर्व	-8991
▁300	-8992
▁पुत	-8993
▁बनो	-8994
▁शिल	-8995
title	-8996
▁गुजराती	-8997
▁स्वायत्त	-8998
य्या	-8999
्यस्त	-9000
▁छपाई	-9001
प्रदेश	-9002
▁अभिनय	-9003
▁दशमलव	-9004
▁अपशिष्ट	-9005
शान	-9006
▁रूट	-9007
▁झगड़	-9008
▁मिलन	-9009
▁खुल्ला	-9010
▁शासकों	-9011
वैज्ञानिक	-9012
▁स्वैच्छिक	-9013
ev	-9014
box	-9015
तिर	-9016
नगर	-9017
▁उम	-9018
▁पुणे	-9019
न्‍द्र	-9020
▁संघीय	-9021
▁दिलचस्प	-9022
▁अनुमानित	-9023
ोई	-9024
▁po	-9025
ज़ूर	-9026
न्‍न	-9027
भासी	-9028
▁गम्	-9029
.2019	-9030
▁हड्डी	-9031
मोहम्मद	-9032
▁जनजातीय	-9033
▁पैदावार	-9034
▁नियन्त्र	-9035
▁साझीदारी	-9036
▁अवज्ञाकारी	-9037
',	-9038
¥	-9039
उसी	-9040
गेट	-9041
राइट	-9042
हीनता	-9043
▁कहती	-9044
▁लड़े	-9045
संख्यक	-9046
▁एजेंट	-9047
▁सोचता	-9048
न्च	-9049
▁जमे	-9050
▁विच	-9051
▁(195	-9052
▁1992	-9053
▁नेमत	-9054
▁मुहर	-9055
▁प्रगा	-9056
▁सूचका	-9057
प्रणाली	-9058
▁अब्दुल	-9059
▁उद्भूत	-9060
▁आंकड़ों	-9061
▁कार्यवाह	-9062
▁कन	-9063
तनाम	-9064
न्ता	-9065
पालन	-9066
▁चरम	-9067
▁ह्य	-9068
▁असंत	-9069
▁किरण	-9070
▁धीमी	-9071
▁बुढ़	-9072
▁वक्र	-9073
▁ज़लील	-9074
▁पाठकों	-9075
▁प्रदर्शनी	-9076
▁हार्डवेयर	-9077
,2	-9078
▁कण	-9079
▁अविल	-9080
▁कुशा	-9081
▁लोहे	-9082
▁ध्येय	-9083
▁करूंगा	-9084
▁क्रमांक	-9085
▁मूर्तिक	-9086
कस	-9087
थाम	-9088
वाट	-9089
ज़ों	-9090
न्दे	-9091
▁असह	-9092
▁अभिर	-9093
▁ख्वा	-9094
▁बाँध	-9095
▁पीछला	-9096
▁वर्तनी	-9097
राने	-9098
र्तग	-9099
▁कवर	-9100
▁खौल	-9101
▁विप	-9102
▁व्र	-9103
▁स्टाक	-9104
▁चट्टान	-9105
▁पुनर्ग	-9106
▁पेटेंट	-9107
▁पोर्टल	-9108
▁केन्द्रित	-9109
,-	-9110
बन	-9111
सीमा	-9112
▁बसा	-9113
▁बही	-9114
▁कॉर्	-9115
▁बढ़ी	-9116
▁प्रोफ	-9117
▁सीआरए	-9118
▁माँगता	-9119
▁इन्होंने	-9120
▁कंपनियां	-9121
▁परिदृश्य	-9122
▁उपभोक्ताओं	-9123
सूद	-9124
स्ते	-9125
▁आइए	-9126
▁नाल	-9127
▁रूए	-9128
▁फैले	-9129
ियारों	-9130
▁ग्रिड	-9131
▁अभिन्न	-9132
▁आन्दोलन	-9133
▁काउंसिल	-9134
▁खुशख़बरी	-9135
▁कठिनाइयों	-9136
▁विशेषाधिकार	-9137
ढा	-9138
दीन	-9139
▁विर	-9140
विवाद	-9141
▁अँधे	-9142
▁एक्ट	-9143
▁जवान	-9144
▁मूर्ख	-9145
▁गम्भीर	-9146
▁मत्स्य	-9147
▁किनारों	-9148
▁मज़दूरी	-9149
▁मुताबिक	-9150
▁किलोग्राम	-9151
▁,	-9152
ज़ब	-9153
बिट	-9154
र्सी	-9155
▁पंथ	-9156
डियों	-9157
▁अनदे	-9158
▁घृणा	-9159
▁पायी	-9160
▁अभिया	-9161
▁एक्सट	-9162
▁एल्गोरि	-9163
▁गर्भाशय	-9164
▁ईमानदारी	-9165
▁मास्टर्स	-9166
डब	-9167
त्‍य	-9168
यायी	-9169
▁बुक	-9170
▁मसी	-9171
▁रोमा	-9172
▁शोभा	-9173
▁इंकार	-9174
▁पट्टे	-9175
▁उद्यमियों	-9176
▁निर्वाचित	-9177
▁ऑस्ट्रेलिया	-9178
हब	-9179
▁1.4	-9180
▁कीं	-9181
▁चश्	-9182
▁मुक	-9183
▁वहन	-9184
बन्धन	-9185
▁अनंत	-9186
▁चर्च	-9187
▁दुखी	-9188
▁हरेक	-9189
eneric	-9190
▁आज़ाद	-9191
▁कैमरा	-9192
▁चरणों	-9193
▁जर्मन	-9194
▁दायरे	-9195
▁निंदा	-9196
▁जापानी	-9197
▁अधिकाधिक	-9198
लर	-9199
ज़ू	-9200
▁6.	-9201
मानों	-9202
र्मेट	-9203
▁आहरण	-9204
▁चारा	-9205
▁डिज़	-9206
▁रखेगा	-9207
▁लड़ते	-9208
िरपेक्ष	-9209
दिता	-9210
▁उन्नति	-9211
▁ऑपरेशन	-9212
▁जानेवाले	-9213
▁अभिव्यक्त	-9214
▁कार्यशाला	-9215
▁फिलीस्तीन	-9216
▁विशेषताओं	-9217
कॉ	-9218
्ली	-9219
▁अंज	-9220
▁ऊँचे	-9221
▁जिनपर	-9222
▁सुलझा	-9223
▁अग्रसर	-9224
▁ब्यूरो	-9225
▁सहेजने	-9226
▁आवृत्ति	-9227
▁निधियों	-9228
▁विख्यात	-9229
▁निष्पक्ष	-9230
▁परिपूर्ण	-9231
);	-9232
oog	-9233
डित	-9234
oogle	-9235
▁क्री	-9236
▁भटका	-9237
▁यानि	-9238
▁सांप	-9239
स्तरीय	-9240
▁बदलते	-9241
▁कोरोना	-9242
▁विनम्र	-9243
▁निमंत्र	-9244
▁सूचकांक	-9245
▁प्रख्यात	-9246
▁हिन्दुओं	-9247
▁सत्याग्रह	-9248
.-	-9249
ext	-9250
▁उछ	-9251
पत्य	-9252
▁but	-9253
▁रोब	-9254
▁1948	-9255
▁चुंब	-9256
▁टिका	-9257
▁प्रगाढ़	-9258
▁सतर्कता	-9259
▁सोसायटी	-9260
▁अपीलार्थी	-9261
▁प्रगतिशील	-9262
▁37	-9263
क्टरी	-9264
▁बताओ	-9265
▁बाएँ	-9266
▁मलया	-9267
सरकारी	-9268
▁स्टाफ	-9269
▁जनजाति	-9270
▁जीवाणु	-9271
▁सिक्किम	-9272
aa	-9273
रेब	-9274
िसी	-9275
▁रुए	-9276
ब्रों	-9277
रक्षा	-9278
िकेशन	-9279
▁रातों	-9280
▁प्रतिभूतियों	-9281
इंट	-9282
तको	-9283
▁खाई	-9284
ान्तर	-9285
▁इकट्	-9286
▁परदे	-9287
▁पढ़कर	-9288
▁बढ़ना	-9289
▁इंतजार	-9290
▁पुकारो	-9291
▁निकायों	-9292
▁स्मार्ट	-9293
▁विधानसभा	-9294
▁1"	-9295
▁बसे	-9296
▁संकु	-9297
▁उठाकर	-9298
▁सिंधु	-9299
▁अनुदेश	-9300
▁स्वदेशी	-9301
▁उत्पत्ति	-9302
▁निर्देशों	-9303
नीस	-9304
हें	-9305
▁ID	-9306
हार्	-9307
▁घमंड	-9308
▁मेनू	-9309
▁सजदे	-9310
▁फैसले	-9311
▁पाएंगे	-9312
▁परिपत्र	-9313
▁विशुद्ध	-9314
▁फरिश्तों	-9315
क़ु	-9316
▁लय	-9317
▁वान	-9318
▁अखंड	-9319
▁तारे	-9320
▁तेज़	-9321
▁ताज़ा	-9322
▁निदान	-9323
▁मूत्र	-9324
▁क़ुदरत	-9325
▁पुर्तग	-9326
▁फिटकार	-9327
▁वाज़ेए	-9328
▁कुफ्फार	-9329
▁मंत्रिम	-9330
▁संगोष्ठ	-9331
▁श्रमिकों	-9332
▁अनुस्मृति	-9333
-6	-9334
घो	-9335
ष्मा	-9336
▁2018	-9337
▁लायक	-9338
▁विषा	-9339
क्षमता	-9340
▁ओबामा	-9341
▁पत्ते	-9342
▁पाण्ड	-9343
▁वगैरह	-9344
▁संस्‍	-9345
▁सख्ती	-9346
▁स्नेह	-9347
▁अवलोकन	-9348
▁खिसकाएँ	-9349
▁विधियों	-9350
▁विशेषज्ञों	-9351
3.	-9352
एमएस	-9353
शीदा	-9354
ुल्य	-9355
▁असं	-9356
▁HTML	-9357
▁अश्व	-9358
▁अंगूर	-9359
▁लगेगा	-9360
िश्रमिक	-9361
▁दरवाज़े	-9362
▁दोस्तों	-9363
▁मांसपेश	-9364
▁संतुलित	-9365
▁श्रेणियों	-9366
sp	-9367
तला	-9368
श्ले	-9369
ुतोष	-9370
▁रुक	-9371
▁द्रव	-9372
▁छिद्र	-9373
▁विटामिन	-9374
▁हिंदुओं	-9375
▁निर्णायक	-9376
▁पत्नियों	-9377
▁पारिस्थित	-9378
▁अन्तर्राष्ट्रीय	-9379
pp	-9380
छोटे	-9381
भे	-9382
ृश	-9383
ान्	-9384
▁११	-9385
▁जोड	-9386
▁टेप	-9387
▁यहॉ	-9388
▁रंज	-9389
▁शंक	-9390
वक्ता	-9391
▁सिया	-9392
▁सेवन	-9393
▁संयोग	-9394
▁मुनाफ़	-9395
▁कार्यकलापों	-9396
ऐसे	-9397
ब्ध	-9398
्यौ	-9399
▁उग	-9400
पादक	-9401
ालीस	-9402
▁थोप	-9403
▁फसाद	-9404
▁बलों	-9405
▁योनि	-9406
▁काटने	-9407
▁झगड़ा	-9408
▁पंद्र	-9409
▁मौखिक	-9410
▁अनुबंध	-9411
▁निकाली	-9412
▁व्याकरण	-9413
▁संकीर्ण	-9414
47	-9415
.05	-9416
िशा	-9417
▁इश	-9418
क्रा	-9419
▁अनू	-9420
▁कोट	-9421
▁क्लब	-9422
संबंधी	-9423
▁असमान	-9424
▁झगड़े	-9425
▁दुग्ध	-9426
▁लीजिए	-9427
▁एनपीएस	-9428
▁पारदर्शी	-9429
▁अनुक्रिया	-9430
्वित	-9431
▁आचार	-9432
▁बारिश	-9433
▁अफ़सोस	-9434
▁रात्रि	-9435
▁स्वतन्त्र	-9436
▁पारिश्रमिक	-9437
¤·	-9438
han	-9439
िरों	-9440
▁फ़ी	-9441
▁फेफ	-9442
▁फार्	-9443
▁यज्ञ	-9444
▁कोष्ठ	-9445
▁पर्यटक	-9446
▁बंगाली	-9447
▁विलोपित	-9448
gu	-9449
ूर्त	-9450
न्नाथ	-9451
▁जहाँन	-9452
▁देखिए	-9453
▁महिमा	-9454
▁सालेह	-9455
▁स्नान	-9456
िपीडिया	-9457
▁अन्वेषण	-9458
▁गिरोहों	-9459
▁मूल्यवान	-9460
▁निवासियों	-9461
राद	-9462
सील	-9463
जहाँ	-9464
जहां	-9465
▁187	-9466
▁अज़	-9467
▁तक़	-9468
▁मख़	-9469
▁शैल	-9470
वित्त	-9471
▁घायल	-9472
▁अद्भुत	-9473
▁निविदा	-9474
▁मानचित्र	-9475
,5	-9476
वाय	-9477
सख्त	-9478
▁and	-9479
▁कैद	-9480
▁अन्‍	-9481
▁बहुल	-9482
▁आवेदक	-9483
▁तिहाई	-9484
▁भेजते	-9485
▁कदाचित	-9486
नाल	-9487
गुज़र	-9488
स्वती	-9489
▁अंधा	-9490
▁उन्‍	-9491
▁धारक	-9492
▁परित	-9493
▁किसने	-9494
▁पाएगा	-9495
▁व्यास	-9496
▁आदेशों	-9497
▁कीमतों	-9498
▁प्रिंट	-9499
▁अध्यापक	-9500
▁इच्छाओं	-9501
▁सहभागिता	-9502
▁7.	-9503
▁रेट	-9504
▁सिख	-9505
▁1950	-9506
▁लगाई	-9507
▁सबकी	-9508
कोडिंग	-9509
▁गेहूं	-9510
▁टेस्ट	-9511
▁भेजता	-9512
▁मंजिल	-9513
▁अर्जुन	-9514
▁आशुतोष	-9515
▁पूर्वक	-9516
▁परंपराओं	-9517
ल्ह	-9518
ंटों	-9519
यानक	-9520
▁कोविड	-9521
▁फ़साद	-9522
▁अप्रिय	-9523
▁बेहश्त	-9524
▁झुठलाने	-9525
▁निक्षेप	-9526
▁वाक़िफकार	-9527
ब्ज	-9528
च्ची	-9529
▁खैर	-9530
▁बिछ	-9531
▁1000	-9532
▁मौके	-9533
▁किशोर	-9534
▁हटाना	-9535
▁आबंटित	-9536
▁बिलियन	-9537
▁राजवंश	-9538
▁हिम्मत	-9539
▁संस्थाएं	-9540
▁जनजातियों	-9541
▁निश्चिन्त	-9542
▁प्रोफ़ाइल	-9543
णाम	-9544
ारस	-9545
ुलन	-9546
आईएस	-9547
र्षि	-9548
▁हेक्ट	-9549
▁समझाने	-9550
मद	-9551
किट	-9552
▁उधर	-9553
▁धरो	-9554
▁सोना	-9555
▁तृतीय	-9556
▁न्यूय	-9557
▁एकीकरण	-9558
▁मजिस्ट	-9559
▁बादशाही	-9560
फान	-9561
▁१७	-9562
बंधन	-9563
▁एंव	-9564
▁एजे	-9565
▁भगत	-9566
▁हॉल	-9567
▁अण्ड	-9568
▁उपनि	-9569
▁टीवी	-9570
▁दौरे	-9571
▁मिथ्या	-9572
▁विकिरण	-9573
▁अनिश्चित	-9574
▁जबर	-9575
▁नारी	-9576
▁असत्य	-9577
▁रिमोट	-9578
▁वर्षो	-9579
▁शर्मा	-9580
▁स्थाई	-9581
▁इज्ज़त	-9582
▁झगड़ते	-9583
▁पूछताछ	-9584
▁राजदूत	-9585
▁बाजारों	-9586
▁रविशंकर	-9587
▁निरपेक्ष	-9588
▁बीमारियों	-9589
▁संभावनाओं	-9590
वात	-9591
▁जनक	-9592
▁फंड	-9593
▁जाएंगी	-9594
▁इल्ज़ाम	-9595
▁जगन्नाथ	-9596
▁सुपुर्द	-9597
▁अभियुक्त	-9598
▁वार्षिकी	-9599
▁निष्पादित	-9600
▁विमानक्षेत्र	-9601
ईल	-9602
बुल	-9603
▁क़ी	-9604
▁बन्	-9605
▁लेट	-9606
वारिक	-9607
▁करों	-9608
▁ब्यौ	-9609
▁ख़ुशी	-9610
स्तियां	-9611
▁यूनियन	-9612
▁विश्राम	-9613
▁कलाकारों	-9614
ial	-9615
ory	-9616
▁राव	-9617
▁सको	-9618
▁मधुर	-9619
▁तदबीर	-9620
▁पढ़ना	-9621
र्याप्त	-9622
▁रोगियों	-9623
▁समावेशी	-9624
▁क्रियान्वयन	-9625
af	-9626
रम	-9627
सुर	-9628
ंतुक	-9629
चिह्न	-9630
स्टीट	-9631
ैसेरो	-9632
▁अन्न	-9633
▁उज्ज	-9634
▁घबरा	-9635
▁विभि	-9636
▁चुनने	-9637
▁कहलाता	-9638
▁ट्रस्ट	-9639
▁मुद्दा	-9640
▁प्रपत्र	-9641
▁ब्रैसेरो	-9642
▁अनुप्रयोगों	-9643
विष	-9644
सिब	-9645
▁एट	-9646
▁बोह	-9647
▁वाई	-9648
▁वाज	-9649
▁विधवा	-9650
▁शॉर्ट	-9651
▁अपमानित	-9652
▁प्रदाता	-9653
रेज	-9654
▁ढी	-9655
धारक	-9656
▁खुर	-9657
▁घाव	-9658
▁बिख	-9659
शियों	-9660
▁पूछें	-9661
ंत्रिकी	-9662
ुस्तानी	-9663
▁निस्बत	-9664
▁प्रदाह	-9665
▁""	-9666
लिता	-9667
▁अश्	-9668
▁चुक	-9669
▁मुर	-9670
▁नाना	-9671
▁छापें	-9672
▁असफलता	-9673
▁आवासीय	-9674
▁मिटाने	-9675
▁रोकथाम	-9676
▁नीतियां	-9677
▁विशेषताएं	-9678
▁राज्यक्षेत्र	-9679
प्स	-9680
▁1'	-9681
▁रथ	-9682
दानी	-9683
▁चोर	-9684
▁मीन	-9685
▁अवरोध	-9686
▁कार्ट	-9687
▁लक्ष्मी	-9688
▁वर्गीकृत	-9689
▁श्रीवास्तव	-9690
45	-9691
दह	-9692
ोकस	-9693
▁ग़ल	-9694
▁वनों	-9695
▁वसूल	-9696
▁फारसी	-9697
▁बशर्ते	-9698
▁फ़रमाया	-9699
ंड़	-9700
ोरा	-9701
▁हौ	-9702
atla	-9703
एसएस	-9704
नामा	-9705
▁उजा	-9706
▁गोर	-9707
▁भोग	-9708
▁कहकर	-9709
▁देरी	-9710
▁सटीक	-9711
▁सबूत	-9712
atlami	-9713
▁पहलों	-9714
रूद्दीन	-9715
▁दरगुज़र	-9716
viratlami	-9717
-7	-9718
डोर	-9719
▁hi	-9720
यंकर	-9721
शासित	-9722
▁(200	-9723
▁किस्	-9724
▁डेवल	-9725
▁धुंध	-9726
▁सल्त	-9727
▁बंगला	-9728
▁बैठने	-9729
▁वापिस	-9730
▁कामकाज	-9731
▁समकक्ष	-9732
OP	-9733
ैद	-9734
गेह	-9735
▁काय	-9736
indow	-9737
ोलॉजी	-9738
▁1998	-9739
▁चलकर	-9740
▁माला	-9741
▁समीप	-9742
▁हिमन	-9743
▁नामित	-9744
▁मार्क	-9745
▁लाहौर	-9746
▁अनुष्ठ	-9747
▁कर्तव्यों	-9748
वटी	-9749
इयाँ	-9750
भारी	-9751
▁उलटे	-9752
▁फैली	-9753
▁रोके	-9754
▁खाड़ी	-9755
▁हल्के	-9756
for	-9757
मंद	-9758
▁कैल	-9759
▁बैल	-9760
▁जुर्	-9761
▁पूरक	-9762
▁भ्रम	-9763
▁ज़रूरी	-9764
▁अत्याचारियों	-9765
ain	-9766
ख़ी	-9767
विड	-9768
किया	-9769
▁डेम	-9770
क़रार	-9771
▁विलय	-9772
▁अमानत	-9773
▁चलाना	-9774
▁जगहों	-9775
▁भूभाग	-9776
बली	-9777
▁IM	-9778
ions	-9779
▁पदक	-9780
▁अटकल	-9781
▁जगत्	-9782
▁लपेट	-9783
▁आबंटन	-9784
▁उर्वर	-9785
▁तत्पर	-9786
▁तसदीक़	-9787
▁बढ़ाकर	-9788
▁संचिका	-9789
▁मुर्दों	-9790
▁न्यायाधीशों	-9791
▁लेखापरीक्षा	-9792
ुद	-9793
सनी	-9794
▁इंद्र	-9795
▁रोकें	-9796
▁गिरावट	-9797
▁क्रियाकलाप	-9798
▁विकिपीडिया	-9799
आया	-9800
वेट	-9801
सेन	-9802
दक्ष	-9803
label	-9804
▁पटना	-9805
▁पहने	-9806
▁सुपर	-9807
▁शरारत	-9808
▁शृंखला	-9809
▁क्रियाओं	-9810
hr	-9811
▁Q	-9812
ोरेशन	-9813
कृष्णन	-9814
▁चुपके	-9815
▁बिल्ड	-9816
▁भयानक	-9817
▁सहारे	-9818
▁हुकुम	-9819
▁सहभागी	-9820
▁मर्यादा	-9821
▁सूचनाओं	-9822
▁निर्माताओं	-9823
एब	-9824
गिर	-9825
▁१९८	-9826
▁फ्री	-9827
▁रूचि	-9828
▁जमाने	-9829
▁डालता	-9830
▁प्राइ	-9831
▁बदकार	-9832
.,	-9833
गीर	-9834
दण्ड	-9835
वृति	-9836
▁डिर	-9837
▁बला	-9838
पायों	-9839
▁गुला	-9840
ेन्द्र	-9841
▁फ़ज़ल	-9842
▁बग़ैर	-9843
▁भ्रमण	-9844
▁उद्यमी	-9845
▁राजकीय	-9846
▁सदियों	-9847
▁चुनावों	-9848
▁पूर्वोक्त	-9849
▁संभावनाएं	-9850
▁ऑटो	-9851
▁गणेश	-9852
▁जुदा	-9853
▁करूणा	-9854
▁शाश्व	-9855
▁पिछड़े	-9856
▁पुनर्वास	-9857
▁क्षतिपूर्ति	-9858
जै	-9859
ard	-9860
▁(&	-9861
▁गत	-9862
तिया	-9863
बर्ट	-9864
ट्रिक	-9865
▁कराए	-9866
▁गायब	-9867
▁पेशा	-9868
▁लाता	-9869
ंबेडकर	-9870
▁अपलोड	-9871
▁चालीस	-9872
▁मल्टी	-9873
▁अर्द्ध	-9874
▁पोशीदा	-9875
▁कॉन्फ़िगरेशन	-9876
ir	-9877
उत्	-9878
न्ने	-9879
▁रोम	-9880
काकुल	-9881
भक्ति	-9882
विभाग	-9883
▁रसीद	-9884
▁समेट	-9885
पश्चिम	-9886
▁किताबे	-9887
▁पाएँगे	-9888
▁कारावास	-9889
▁विचित्र	-9890
▁दिशानिर्देश	-9891
▁हन	-9892
क्यू	-9893
्युन	-9894
▁बहती	-9895
स्मारक	-9896
▁बकाया	-9897
▁हल्की	-9898
▁क़समों	-9899
▁छत्तीस	-9900
▁जांचें	-9901
▁तस्बीह	-9902
▁मक़सूद	-9903
▁कामयाबी	-9904
▁फरमाएगा	-9905
▁महिलाएं	-9906
▁लक्षणों	-9907
▁हानिकारक	-9908
our	-9909
_01.	-9910
ोचित	-9911
▁छंद	-9912
▁नली	-9913
▁सूझ	-9914
क्तता	-9915
▁जावा	-9916
▁ताजा	-9917
▁कमाया	-9918
▁स्टोर	-9919
▁आनुवंशिक	-9920
स्स	-9921
हीद	-9922
ाइट	-9923
प्रो	-9924
▁ढोल	-9925
▁what	-9926
▁आगाह	-9927
▁बहका	-9928
▁ऑंखें	-9929
▁तमन्ना	-9930
▁नारियल	-9931
▁मुकाबला	-9932
ॉय	-9933
ीयर	-9934
▁कश	-9935
क्‍त	-9936
माही	-9937
▁नाज	-9938
▁यती	-9939
▁सबब	-9940
▁तैना	-9941
▁दिखायी	-9942
▁बलिदान	-9943
▁आंबेडकर	-9944
▁वियतनाम	-9945
▁अभिवृद्धि	-9946
ज्ह	-9947
तीस	-9948
बोध	-9949
▁(4	-9950
▁तन	-9951
▁झलक	-9952
▁तीर	-9953
नेशनल	-9954
▁तख्त	-9955
▁बंधन	-9956
▁स्पी	-9957
▁खेतों	-9958
▁प्रसव	-9959
▁लॉगिन	-9960
▁ग्लोबल	-9961
▁परजीवी	-9962
▁निकालें	-9963
▁संपर्कों	-9964
▁विशेषज्ञता	-9965
.19	-9966
वियत	-9967
▁वादे	-9968
▁वारा	-9969
▁सीखा	-9970
▁स्टी	-9971
▁गुमान	-9972
▁दवाओं	-9973
▁विजेता	-9974
ँस	-9975
ंगन	-9976
यता	-9977
▁2)	-9978
वर्ण	-9979
▁URI	-9980
▁पाउ	-9981
▁हाम	-9982
▁खोले	-9983
▁मुआव	-9984
▁मेले	-9985
▁पृथक्	-9986
▁रवाना	-9987
▁सनातन	-9988
▁प्रौढ़	-9989
▁शाश्वत	-9990
▁अग्रेषित	-9991
लौ	-9992
art	-9993
जना	-9994
▁IS	-9995
मियम	-9996
स्पद	-9997
▁मरत	-9998
नागरी	-9999
▁अंधे	-10000
▁रुख़	-10001
▁स्कैन	-10002
▁तुरन्त	-10003
▁लेनदेन	-10004
▁प्रशासक	-10005
▁बदरूद्दीन	-10006
म्य	-10007
▁org	-10008
दिग्ध	-10009
▁खादी	-10010
▁लड़ी	-10011
▁2016)	-10012
▁इंस्ट	-10013
▁भयंकर	-10014
▁रहोगे	-10015
▁संचरण	-10016
▁सोचना	-10017
▁आरक्षण	-10018
▁दिशाओं	-10019
▁नर्मदा	-10020
▁यूसुफ़	-10021
▁अनुयायी	-10022
▁दिलचस्पी	-10023
▁माध्यमिक	-10024
▁ज़िम्मेदार	-10025
88	-10026
ंय	-10027
खोल	-10028
बंद	-10029
▁१३	-10030
item	-10031
ापित	-10032
▁NAME	-10033
▁आश्रय	-10034
▁जरुरत	-10035
▁बर्तन	-10036
▁कामयाब	-10037
▁बैठकों	-10038
▁सरस्वती	-10039
▁विक्रेता	-10040
ुखी	-10041
▁रच	-10042
▁१४	-10043
मरने	-10044
▁गोद	-10045
▁ताम	-10046
राधिक	-10047
▁दण्ड	-10048
▁ग्रुप	-10049
▁धरोहर	-10050
▁साँचा	-10051
▁आपत्ति	-10052
▁निरस्त	-10053
▁सौहार्	-10054
▁समायोजित	-10055
▁निर्देशित	-10056
90	-10057
काई	-10058
▁अठ	-10059
▁व्	-10060
▁लगो	-10061
वियाँ	-10062
▁1991	-10063
▁छिपे	-10064
▁पिक्	-10065
action	-10066
▁आखिरी	-10067
▁कश्ती	-10068
▁अधिग्रहण	-10069
▁कहानियाँ	-10070
▁तुल्यकाल	-10071
RO	-10072
ौप	-10073
सुन	-10074
्वल	-10075
माता	-10076
ालेख	-10077
▁पिघ	-10078
▁सफ़	-10079
मुक्त	-10080
▁उतने	-10081
▁डराओ	-10082
▁तंगी	-10083
▁ताबे	-10084
▁सब्स	-10085
प्रधान	-10086
▁खुलने	-10087
▁भ्रूण	-10088
▁हुर्इ	-10089
▁तेलुगु	-10090
▁दृढ़ता	-10091
▁सिनेमा	-10092
▁फिल्मों	-10093
▁मौज़ूदा	-10094
▁पारिवारिक	-10095
▁लड	-10096
▁कां	-10097
▁नाव	-10098
जिसके	-10099
▁टाइम	-10100
▁तटीय	-10101
▁जरुरी	-10102
▁गुज़रे	-10103
▁सल्तनत	-10104
फत	-10105
राग	-10106
▁An	-10107
ount	-10108
स्थि	-10109
▁कम्	-10110
sthis	-10111
नीकरण	-10112
पूज्य	-10113
▁चिड़ी	-10114
▁पैटर्न	-10115
▁विचारण	-10116
▁चमत्कार	-10117
▁लाभदायक	-10118
▁whatsthis	-10119
▁अपर्याप्त	-10120
▁वार्तालाप	-10121
▁आश्चर्यजनक	-10122
▁j	-10123
जाति	-10124
▁उपरो	-10125
▁घातक	-10126
▁बाबा	-10127
▁लगें	-10128
▁जानती	-10129
▁निगेह	-10130
▁मुहलत	-10131
▁बेख़बर	-10132
▁बोहतान	-10133
▁अधीनस्थ	-10134
▁एख्तियार	-10135
ैट	-10136
क्व	-10137
बास	-10138
ैंस	-10139
ोग्रा	-10140
▁ठहरने	-10141
▁बनावट	-10142
▁सोवियत	-10143
निर्धारण	-10144
▁तात्कालिक	-10145
▁दायित्वों	-10146
भंग	-10147
मेज	-10148
▁वध	-10149
▁बुश	-10150
▁जबतक	-10151
▁फिरे	-10152
▁लाकर	-10153
▁पूँजी	-10154
▁फाउंड	-10155
▁शुष्क	-10156
▁जाँचें	-10157
▁मास्टर	-10158
▁विपक्ष	-10159
▁आपराधिक	-10160
eb	-10161
▁चख	-10162
▁धनी	-10163
मिश्र	-10164
▁एकड़	-10165
▁सूखे	-10166
......	-10167
▁अब्दु	-10168
▁जेहाद	-10169
▁मसौदा	-10170
▁अभियोग	-10171
▁महर्षि	-10172
▁समुच्च	-10173
▁स्थगित	-10174
▁एमएसएमई	-10175
▁लाभप्रद	-10176
▁आधुनिकीकरण	-10177
कसा	-10178
▁षड	-10179
▁www	-10180
▁अमन	-10181
▁झेल	-10182
▁शौच	-10183
▁कुंज	-10184
▁भीतरी	-10185
▁दुर्बल	-10186
▁पंद्रह	-10187
▁मर्दों	-10188
▁यूआरएल	-10189
▁बहुमूल्य	-10190
▁अनुस्मारक	-10191
हेल	-10192
ापा	-10193
ख़ास	-10194
नायक	-10195
रहित	-10196
▁(10	-10197
▁डरे	-10198
बियों	-10199
▁चार्ट	-10200
▁उदासीन	-10201
तुम्हारी	-10202
▁आविष्कार	-10203
▁शब्दावली	-10204
▁क्षेत्रफल	-10205
▁मूर्तियों	-10206
▁प्रत्यर्थी	-10207
▁प्रमाणीकरण	-10208
.3	-10209
माद	-10210
ूपी	-10211
प्ले	-10212
कानाथ	-10213
▁करतू	-10214
▁ठहराए	-10215
▁पकड़ा	-10216
▁दुबारा	-10217
▁नाटकीय	-10218
▁निर्णयों	-10219
▁पुनर्गठन	-10220
▁क्षतिग्रस्त	-10221
लु	-10222
कावट	-10223
शियन	-10224
▁क्य	-10225
▁दाँ	-10226
▁दाल	-10227
▁सती	-10228
ग्राम	-10229
▁अम्ल	-10230
▁पाती	-10231
▁म्यू	-10232
▁करुणा	-10233
▁दिखता	-10234
▁अनुज्ञा	-10235
▁समन्वित	-10236
▁रखनेवाले	-10237
▁मूर्तिकला	-10238
EN	-10239
देख	-10240
सात	-10241
थरों	-10242
सूरत	-10243
▁टूल	-10244
▁डाइ	-10245
▁ऑंखों	-10246
▁पर्दा	-10247
▁चाहेगा	-10248
▁वाशिंग	-10249
▁क्रिस्ट	-10250
▁प्रक्रम	-10251
▁एक्सटेंशन	-10252
▁पद्धतियों	-10253
▁द्वारकानाथ	-10254
▁मार्गदर्शक	-10255
erm	-10256
राहट	-10257
▁रिफ	-10258
▁आन्त	-10259
▁इण्ड	-10260
▁रत्न	-10261
▁सभाओं	-10262
▁उद्धरण	-10263
▁संख़्या	-10264
▁अभिप्राय	-10265
▁शांतिपूर्ण	-10266
ापे	-10267
▁GN	-10268
▁उखा	-10269
▁हँस	-10270
▁क्षे	-10271
▁पुरी	-10272
▁यकीन	-10273
▁विदा	-10274
व्यस्त	-10275
▁2015)	-10276
▁चिल्ला	-10277
▁दिखाएं	-10278
▁राज़्य	-10279
▁आदर्शों	-10280
▁प्रतिवेदन	-10281
▁प्लास्टिक	-10282
किर	-10283
ष्प	-10284
फ़्त	-10285
ोग्य	-10286
▁अपी	-10287
▁धर्	-10288
पुस्त	-10289
▁ढूँढ	-10290
▁पौरा	-10291
▁वाकई	-10292
▁ग्रेड	-10293
▁भागवत	-10294
▁लेखों	-10295
▁पहचाना	-10296
▁विलियम	-10297
प्राप्ति	-10298
▁रखनेवाला	-10299
▁आत्मविश्वास	-10300
ंगर	-10301
फ़े	-10302
्टे	-10303
पेयी	-10304
भावी	-10305
▁भीम	-10306
विधिक	-10307
▁ताना	-10308
▁सजीव	-10309
▁अन्तः	-10310
▁चिन्त	-10311
▁जॉर्ज	-10312
तकोत्तर	-10313
▁प्रामाण	-10314
▁फाउंडेशन	-10315
MAIL	-10316
न्दन	-10317
▁कसौ	-10318
▁छीन	-10319
▁मरे	-10320
ज्ञानी	-10321
▁अनुयाय	-10322
▁नौसेना	-10323
▁प्रवास	-10324
▁फैलाने	-10325
▁अस्पष्ट	-10326
▁सुभाषबाबू	-10327
▁ः	-10328
ton	-10329
ज़ो	-10330
▁सऋ	-10331
मूसा	-10332
मेरा	-10333
▁186	-10334
▁आयाम	-10335
▁मसीह	-10336
▁लोगे	-10337
▁भूकंप	-10338
▁चेन्नई	-10339
▁जुड़ने	-10340
▁गंभीरता	-10341
▁विधायिका	-10342
ोंग	-10343
गरीय	-10344
णाचल	-10345
देखो	-10346
र्ची	-10347
ताजों	-10348
मण्डल	-10349
शनूदी	-10350
▁भण्ड	-10351
▁हरकत	-10352
क्सीजन	-10353
▁विकार	-10354
▁श्वसन	-10355
जहन्नुम	-10356
▁कुशादा	-10357
▁कौंसिल	-10358
▁नस्लों	-10359
▁मुअय्य	-10360
▁निरूपित	-10361
▁निर्वहन	-10362
▁नाफ़रमानी	-10363
▁०	-10364
यही	-10365
इतना	-10366
▁आवे	-10367
▁बाय	-10368
▁मेर	-10369
▁अमीर	-10370
▁व्‍य	-10371
▁ऊतकों	-10372
▁शिष्य	-10373
डब्ल्यू	-10374
▁लड़कों	-10375
nc	-10376
फीति	-10377
ित्ति	-10378
▁माया	-10379
▁वयस्क	-10380
▁सामंज	-10381
्यात्मक	-10382
▁प्रेमी	-10383
▁बादलों	-10384
▁दिनांकित	-10385
▁हथियारों	-10386
ूबी	-10387
▁काँ	-10388
▁जीने	-10389
▁मृदा	-10390
▁सफ़र	-10391
▁जयपुर	-10392
▁रस्सी	-10393
▁सौन्द	-10394
▁हिजरत	-10395
▁पेड़ों	-10396
▁दर्शाती	-10397
▁निःशुल्क	-10398
ype	-10399
लेन	-10400
सैन	-10401
▁65	-10402
▁उलझ	-10403
▁पवन	-10404
पृष्ठ	-10405
बूझकर	-10406
▁तिरु	-10407
▁पोषक	-10408
▁अस्थिर	-10409
▁इसराइल	-10410
▁आदिवासी	-10411
▁प्रबंधित	-10412
3)	-10413
थ्य	-10414
ब्त	-10415
ादन	-10416
ैंट	-10417
▁1)	-10418
ोपाल	-10419
▁कालि	-10420
▁चलेगा	-10421
जनात्मक	-10422
▁उत्सुक	-10423
▁उपरांत	-10424
▁इंस्टीट	-10425
▁चुंबकीय	-10426
▁रेखांकित	-10427
▁विवेकानंद	-10428
कक	-10429
देह	-10430
पाए	-10431
▁अन्ध	-10432
▁दिली	-10433
▁फ्रा	-10434
▁समेत	-10435
▁इंगित	-10436
▁खेलने	-10437
▁करतूतों	-10438
▁निकालकर	-10439
▁हेक्टेयर	-10440
ust	-10441
भवन	-10442
्रल	-10443
▁लंब	-10444
दायगी	-10445
▁सौदे	-10446
▁हकीम	-10447
स्पष्ट	-10448
▁उत्थान	-10449
▁ताजमहल	-10450
▁पॉलिसी	-10451
▁बुलन्द	-10452
▁वाजपेयी	-10453
▁सौहार्द	-10454
▁गुणसूत्र	-10455
▁पांडुलिप	-10456
cri	-10457
▁38	-10458
▁ढ़	-10459
ज़िम	-10460
पड़े	-10461
▁जन्	-10462
▁लूट	-10463
▁सीट	-10464
▁गाने	-10465
▁खंडों	-10466
▁दूंगा	-10467
▁मैसूर	-10468
▁वायदे	-10469
प्ताहिक	-10470
▁मुख़्य	-10471
▁अपरिचित	-10472
▁कृतियों	-10473
एंगे	-10474
▁यूं	-10475
▁1987	-10476
▁भेड़	-10477
हिन्दी	-10478
▁जिज्ञ	-10479
▁नजदीक	-10480
▁पैमान	-10481
▁ललिता	-10482
▁अभिकरण	-10483
▁पंचायत	-10484
▁मलयालम	-10485
▁ग्रंथों	-10486
▁शोकाकुल	-10487
▁उत्पादित	-10488
eg	-10489
हू	-10490
म्‍	-10491
षाण	-10492
▁पग	-10493
उनको	-10494
ूँकि	-10495
▁मोर	-10496
▁साठ	-10497
ुपयोग	-10498
वर्तित	-10499
▁एक्सप	-10500
ब्दियों	-10501
▁इकट्ठे	-10502
▁जैसाकि	-10503
▁संस्थापक	-10504
▁श्रेष्ठता	-10505
किक	-10506
डीओ	-10507
जारी	-10508
म्बई	-10509
ैरात	-10510
▁ऋषि	-10511
▁मजा	-10512
▁मर्	-10513
.2017	-10514
▁आईपी	-10515
▁झोंक	-10516
▁दोहरी	-10517
▁अश्लील	-10518
▁दिलाया	-10519
▁द्रव्य	-10520
▁पुस्‍त	-10521
▁साँचाः	-10522
परिवर्तन	-10523
▁आमंत्रण	-10524
▁तकनीकों	-10525
2,	-10526
’,	-10527
निश	-10528
▁नस	-10529
बरील	-10530
▁वेग	-10531
बिनेट	-10532
▁पढ़े	-10533
▁मेहरा	-10534
▁करवाने	-10535
▁छवियों	-10536
▁तीव्रता	-10537
▁शत्रुओं	-10538
▁निमंत्रण	-10539
enericName	-10540
▁सम्बन्धों	-10541
▁सांप्रदायिक	-10542
▁Constellation	-10543
EA	-10544
ठों	-10545
ाणु	-10546
▁ओल	-10547
▁नह	-10548
वाइस	-10549
▁मोल	-10550
▁लॉक	-10551
▁इटली	-10552
▁गर्भव	-10553
▁जमींद	-10554
▁बुतों	-10555
▁विकेट	-10556
▁हवाले	-10557
▁अलार्म	-10558
▁करवाया	-10559
▁ग़ुलाम	-10560
▁चुपचाप	-10561
▁बुलाते	-10562
▁छत्तीसगढ़	-10563
▁अनुयायियों	-10564
▁प्रारम्भिक	-10565
tic	-10566
▁लक	-10567
ट्टे	-10568
▁भोज	-10569
चित्य	-10570
▁1997	-10571
▁मृतक	-10572
▁रिहा	-10573
वर्षीय	-10574
▁मारते	-10575
▁सीनों	-10576
▁जन्मदिन	-10577
▁जिन्नों	-10578
▁कारस्तान	-10579
▁रेगिस्तान	-10580
▁पर्यवेक्षण	-10581
▁स्थानांतरण	-10582
गोश	-10583
जरी	-10584
टने	-10585
शीन	-10586
दरते	-10587
▁घोर	-10588
▁सघन	-10589
▁रूजू	-10590
▁सपने	-10591
क्षेपण	-10592
▁लंबित	-10593
▁मशीनों	-10594
▁दर्शकों	-10595
▁मौजिज़ा	-10596
▁प्रसारित	-10597
▁अनुपस्थित	-10598
▁ख़ुशख़बरी	-10599
▁फरमाबरदार	-10600
IT	-10601
निन	-10602
ैनी	-10603
▁08	-10604
▁on	-10605
इसके	-10606
ज्जुब	-10607
▁कतार	-10608
▁चुनी	-10609
क्षकों	-10610
▁अंतरा	-10611
▁सकताः	-10612
▁बुनियाद	-10613
▁स्वयंसे	-10614
▁अपमानजनक	-10615
▁एसोसिएशन	-10616
▁चन्द्रमा	-10617
?-	-10618
पत्	-10619
श्क	-10620
▁मनी	-10621
color	-10622
▁तनिक	-10623
▁बायो	-10624
▁ब्ला	-10625
▁भुजा	-10626
dition	-10627
▁अनन्य	-10628
▁आभासी	-10629
▁एहसास	-10630
▁क्रूर	-10631
▁समूचे	-10632
▁अनुज्ञ	-10633
▁अमान्य	-10634
▁सेकेंड	-10635
▁अक्षरों	-10636
▁पर्वतीय	-10637
▁विवादों	-10638
▁पहुँचाने	-10639
▁आकांक्षाओं	-10640
▁स्नातकोत्तर	-10641
.6	-10642
एओ	-10643
ंदे	-10644
द्घ	-10645
केशन	-10646
▁पडा	-10647
गुनाह	-10648
▁उठते	-10649
▁निका	-10650
▁अभयार	-10651
▁बलराम	-10652
▁लौटाए	-10653
▁कारकों	-10654
▁वर्ल्ड	-10655
▁नियोजित	-10656
▁पौराणिक	-10657
▁अहमदाबाद	-10658
48	-10659
थ्म	-10660
बिर	-10661
िडी	-10662
गणना	-10663
ज्जत	-10664
▁उठी	-10665
▁गुल	-10666
▁जूट	-10667
▁1996	-10668
▁ज़ूम	-10669
▁दाना	-10670
▁खेलों	-10671
▁वायुम	-10672
▁सेवाएँ	-10673
▁तत्पश्च	-10674
▁व्याप्त	-10675
▁रहनेवाले	-10676
▁वित्तपोषण	-10677
▁रिए	-10678
▁बेगम	-10679
पक्षीय	-10680
र्निया	-10681
▁छुड़ा	-10682
▁परिपथ	-10683
▁प्रया	-10684
▁ब्लॉक	-10685
▁निकलती	-10686
▁शॉर्टकट	-10687
▁स्तंभों	-10688
▁पंक्तियों	-10689
उदी	-10690
गिन	-10691
पाठ	-10692
▁1/	-10693
▁जक	-10694
अधिक	-10695
धियां	-10696
▁आर्ट	-10697
▁बैंड	-10698
▁मारो	-10699
▁साइन	-10700
प्रकाश	-10701
▁गुच्छ	-10702
▁मायने	-10703
▁व्यायाम	-10704
▁शब्दकोश	-10705
▁राधाकृष्णन	-10706
▁55	-10707
पीछे	-10708
रणीय	-10709
▁BAR	-10710
▁किर	-10711
▁घिर	-10712
▁छान	-10713
▁मेट	-10714
दाश्त	-10715
▁क्षय	-10716
▁पद्म	-10717
▁सूअर	-10718
▁गोपाल	-10719
▁घटकों	-10720
▁जुल्म	-10721
▁पीड़क	-10722
▁साधना	-10723
▁आज्ञाप	-10724
▁क्षेत्रक	-10725
▁नियोक्ता	-10726
▁मध्यवर्ती	-10727
ID	-10728
आय	-10729
णसी	-10730
फेस	-10731
गंगा	-10732
पकों	-10733
संभव	-10734
▁पठन	-10735
▁रेत	-10736
▁सुप	-10737
त्थान	-10738
त्विक	-10739
ान्ति	-10740
▁रावण	-10741
▁स्का	-10742
ष्णुता	-10743
▁क़बूल	-10744
▁ख़त्म	-10745
▁बम्बई	-10746
▁विजेट	-10747
▁वेस्ट	-10748
ेक्ट्री	-10749
▁निगमित	-10750
▁पैरामीटर	-10751
▁बुराइयों	-10752
कह	-10753
ore	-10754
च्चे	-10755
▁बिर	-10756
ियमित	-10757
ुमारी	-10758
▁रसोई	-10759
▁आंखें	-10760
▁चित्त	-10761
▁तेज़ी	-10762
▁नम्बर	-10763
▁दोस्ती	-10764
▁भौतिकी	-10765
▁मुर्दा	-10766
▁रखेंगे	-10767
▁इन्साफ़	-10768
▁गर्भवती	-10769
▁साप्ताहिक	-10770
▁मजिस्ट्रेट	-10771
aol	-10772
वाड़	-10773
विटी	-10774
व्यय	-10775
शैली	-10776
▁निब	-10777
▁बूट	-10778
▁सहि	-10779
लिस्ट	-10780
▁क़दर	-10781
▁चमकी	-10782
▁ताली	-10783
▁वर्क	-10784
▁चिंतित	-10785
▁ज़रुरत	-10786
▁निवेशक	-10787
▁पकड़ने	-10788
▁भाषाएँ	-10789
▁अधिनिर्ण	-10790
▁पुरातत्व	-10791
▁raviratlami	-10792
उसे	-10793
बना	-10794
वंत	-10795
▁वशी	-10796
▁ड्यू	-10797
▁बनती	-10798
▁मेनन	-10799
▁वाजे	-10800
कश्मीर	-10801
वीक्षा	-10802
▁रोकना	-10803
▁नैतिकता	-10804
ख़ा	-10805
दिल	-10806
क्चर	-10807
▁दूत	-10808
▁पैन	-10809
▁फोट	-10810
▁यान	-10811
▁लाप	-10812
अर्था	-10813
परिषद	-10814
▁क़िब	-10815
▁उत्पी	-10816
▁बुलाए	-10817
▁कानपुर	-10818
▁ड्राफ्ट	-10819
▁ब्राह्म	-10820
▁निर्देशक	-10821
▁सामंजस्य	-10822
ुरू	-10823
▁3,	-10824
▁कंक	-10825
▁बें	-10826
▁रहन	-10827
ज़मीन	-10828
र्मित	-10829
▁अज़ी	-10830
▁घिरा	-10831
▁बीते	-10832
▁बैठी	-10833
▁बजाया	-10834
▁अंडमान	-10835
▁परिमाण	-10836
▁महाराज	-10837
▁मुद्रक	-10838
▁सुश्री	-10839
▁सौन्दर्य	-10840
एसएल	-10841
बिया	-10842
▁इना	-10843
▁डेल	-10844
▁पित	-10845
▁बकर	-10846
योजना	-10847
ेशनों	-10848
▁सुखद	-10849
▁दर्शक	-10850
▁ब्रेक	-10851
▁राजपू	-10852
▁व्यंग	-10853
▁नोकिया	-10854
▁लार्वा	-10855
▁पिक्सेल	-10856
▁सार्वभौमिक	-10857
ायन	-10858
▁सँ	-10859
क्ष्	-10860
चेरी	-10861
सिले	-10862
▁(6)	-10863
▁मणी	-10864
▁कटाई	-10865
▁कृषक	-10866
▁गाथा	-10867
▁दायर	-10868
▁मोटी	-10869
▁हुईं	-10870
▁उपहास	-10871
▁जमाअत	-10872
▁निपटा	-10873
▁फरमाई	-10874
▁बरहक़	-10875
▁रौशनी	-10876
▁यूनानी	-10877
▁उपरोक्त	-10878
▁नेअमतों	-10879
▁माबूदों	-10880
▁निगेहबान	-10881
▁पीढ़ियों	-10882
▁होनेवाली	-10883
▁वाक़िफ़कार	-10884
▁हस्ताक्षरित	-10885
1}	-10886
ser	-10887
ंधे	-10888
बीस	-10889
ुनि	-10890
▁शत	-10891
ग्रे	-10892
चक्र	-10893
टीपी	-10894
कुरान	-10895
▁कपास	-10896
▁ख़ान	-10897
▁चंडी	-10898
▁वल्ल	-10899
▁सेवक	-10900
▁ख़याल	-10901
▁बड़ाई	-10902
▁विराम	-10903
▁सीरिया	-10904
▁स्लाइड	-10905
चिकित्सा	-10906
MS	-10907
यद	-10908
ंचन	-10909
ज़्	-10910
▁LD	-10911
ecast	-10912
rance	-10913
▁1986	-10914
▁फर्क	-10915
▁बाजू	-10916
रेटिंग	-10917
▁जिक्र	-10918
▁वेदों	-10919
▁उपासना	-10920
▁ग्यारह	-10921
▁पड़ेगी	-10922
▁बागवानी	-10923
▁स्त्रोत	-10924
▁forecast	-10925
भला	-10926
crip	-10927
बंदी	-10928
स्टन	-10929
ृहीत	-10930
ैण्ड	-10931
▁इतर	-10932
▁बाघ	-10933
▁मौन	-10934
▁असुर	-10935
▁इतरा	-10936
▁ईसवी	-10937
▁सुलभ	-10938
▁शुभार	-10939
▁सहेजा	-10940
▁आयातित	-10941
▁जंगलों	-10942
▁निर्या	-10943
▁वाक्या	-10944
▁पृष्ठों	-10945
▁लक्ष्मण	-10946
▁तात्पर्य	-10947
▁विकल्पों	-10948
▁याचिकाकर्ता	-10949
.01	-10950
▁43	-10951
श्कर	-10952
▁ग़म	-10953
▁ग्ल	-10954
▁घंटा	-10955
▁झूठी	-10956
▁पाकर	-10957
▁फतेह	-10958
▁ब्रॉ	-10959
▁रूसी	-10960
▁कोयले	-10961
▁घुमाव	-10962
▁पंक्त	-10963
▁विधायी	-10964
▁अनियमित	-10965
""	-10966
har	-10967
jut	-10968
बात	-10969
ालू	-10970
▁47	-10971
▁सुस	-10972
▁बनें	-10973
▁मंदी	-10974
▁मदों	-10975
▁शंका	-10976
▁निदेशकों	-10977
▁प्रीमियम	-10978
▁उपाध्यक्ष	-10979
21	-10980
24	-10981
xx	-10982
-10	-10983
▁गे	-10984
जोरी	-10985
▁सरो	-10986
खोलकर	-10987
निवार	-10988
▁लेनी	-10989
▁दिलाने	-10990
▁दिवसीय	-10991
▁प्रवर्	-10992
▁समुच्चय	-10993
▁स्क्रॉल	-10994
▁परिवर्धित	-10995
▁सिफारिशों	-10996
ञ्	-10997
ग्व	-10998
ड्स	-10999
बरे	-11000
▁ओज	-11001
▁खाए	-11002
▁खार	-11003
विश्व	-11004
ियाना	-11005
▁जीते	-11006
▁पढ़ो	-11007
▁पाएँ	-11008
▁युवक	-11009
▁सूखा	-11010
रीक्षण	-11011
ष्‍ट्र	-11012
▁छोड़ो	-11013
▁संस्कार	-11014
▁सरकारें	-11015
▁)	-11016
बड़	-11017
युग	-11018
मेरी	-11019
▁सफर	-11020
ोजगार	-11021
्रपान	-11022
▁अर्श	-11023
▁दौलत	-11024
▁समतल	-11025
▁हावी	-11026
▁अकारथ	-11027
▁पत्तन	-11028
▁हास्य	-11029
वर्सिटी	-11030
▁नियोजक	-11031
▁बदकारी	-11032
▁मज़बूती	-11033
कोट	-11034
ीयत	-11035
ढ़ने	-11036
यहाँ	-11037
वरों	-11038
▁1980	-11039
▁1993	-11040
▁पेंट	-11041
▁अलिफ़	-11042
▁कसौटी	-11043
▁नगरों	-11044
▁बचाया	-11045
▁युग्म	-11046
▁सरलता	-11047
▁Google	-11048
▁उद्धृत	-11049
▁जागरूक	-11050
▁बहुदेव	-11051
▁बिस्तर	-11052
▁हड़ताल	-11053
▁कलात्मक	-11054
▁प्रत्यु	-11055
▁सैकड़ों	-11056
▁उपक्रमों	-11057
▁महाकाव्य	-11058
▁नियन्त्रण	-11059
▁आस्ट्रेलिया	-11060
तव	-11061
मनी	-11062
▁नफ	-11063
juta	-11064
नीमत	-11065
▁ऊंट	-11066
▁झार	-11067
▁तोह	-11068
▁पॉल	-11069
▁कोटि	-11070
▁परिल	-11071
▁पेपर	-11072
▁मापन	-11073
▁सदृश	-11074
उन्हें	-11075
▁मूलतः	-11076
▁डब्ल्यू	-11077
▁नरेंद्र	-11078
निर्धारित	-11079
▁प्रभावों	-11080
▁भागीदारों	-11081
ंजे	-11082
प्प	-11083
ादर	-11084
▁दफा	-11085
gnome	-11086
▁काशी	-11087
▁ट्री	-11088
▁दाएँ	-11089
▁वस्त	-11090
▁सीने	-11091
▁पड़ना	-11092
▁मारता	-11093
▁रक्षक	-11094
▁मेडिकल	-11095
▁कृत्यों	-11096
▁क्लाइंट	-11097
▁सुंदरता	-11098
▁आधारशिला	-11099
▁त्रिपुरा	-11100
im	-11101
-12	-11102
ंजर	-11103
ग़ल	-11104
▁टल	-11105
▁२५	-11106
मानत	-11107
विजन	-11108
hould	-11109
ितानी	-11110
▁चार्	-11111
▁चूँकि	-11112
▁मुम्ब	-11113
▁अपनाना	-11114
▁औचित्य	-11115
▁प्रेरक	-11116
▁कैबिनेट	-11117
▁निकोबार	-11118
ug	-11119
¤¥	-11120
.03	-11121
▁हॆ	-11122
काबा	-11123
पीजी	-11124
पुरा	-11125
रापन	-11126
ियॉँ	-11127
▁आयत	-11128
▁जोश	-11129
▁टेक	-11130
▁फरी	-11131
▁सुम	-11132
▁म्या	-11133
गुज़ार	-11134
▁बछड़े	-11135
▁उन्नीस	-11136
▁भंडारित	-11137
▁वाराणसी	-11138
▁सद्भावना	-11139
▁समितियां	-11140
▁क्रियाकलापों	-11141
ck	-11142
ज्र	-11143
▁जुट	-11144
▁आभार	-11145
▁ऋणों	-11146
▁निया	-11147
▁2019)	-11148
▁अकारत	-11149
▁टेक्न	-11150
▁पुष्ट	-11151
▁मुद्दत	-11152
▁तुम्हीं	-11153
▁द्वीपों	-11154
▁संग्रहित	-11155
▁व्यापारियों	-11156
क़ौ	-11157
▁ओह	-11158
त्‍व	-11159
िकोड	-11160
▁रवै	-11161
▁संभ	-11162
▁साख	-11163
ालैंड	-11164
▁1988	-11165
▁कपटा	-11166
▁वबाल	-11167
▁मख़लू	-11168
▁वाजेए	-11169
▁अखंडता	-11170
▁शास्ति	-11171
▁किस्मों	-11172
▁वृक्षों	-11173
▁इख्तेयार	-11174
▁ख़ुशनूदी	-11175
▁परिपक्वता	-11176
पश	-11177
एसआई	-11178
एससी	-11179
न्सी	-11180
ष्णा	-11181
ोगिक	-11182
▁तैर	-11183
गाकार	-11184
त्तूर	-11185
विन्द	-11186
▁जीता	-11187
▁तिलक	-11188
▁बंगल	-11189
▁सुने	-11190
▁बैठते	-11191
▁समझती	-11192
▁सेटअप	-11193
▁हफ्ते	-11194
▁अंतरिम	-11195
▁निकासी	-11196
▁पुत्री	-11197
▁पूंजीगत	-11198
▁स्वार्थ	-11199
▁डिरेक्ट्री	-11200
विच	-11201
ुवा	-11202
▁रम	-11203
ुद्र	-11204
▁१९७	-11205
EMAIL	-11206
▁वाहक	-11207
▁सुलह	-11208
संशोधन	-11209
▁जरिये	-11210
▁भित्ति	-11211
▁लक्षित	-11212
▁उत्प्रे	-11213
▁लाभकारी	-11214
▁इंस्टीट्यूट	-11215
डम	-11216
001	-11217
फेर	-11218
▁यश	-11219
ject	-11220
स्की	-11221
▁(23	-11222
▁अड़	-11223
विकास	-11224
▁असीम	-11225
▁दुष्	-11226
▁वालो	-11227
▁स्की	-11228
▁जीतने	-11229
▁मानकर	-11230
▁हटाया	-11231
▁Anjuta	-11232
▁महत्वा	-11233
▁मेजबान	-11234
▁लैंगिक	-11235
▁काश्मीर	-11236
▁पहुँचती	-11237
▁अभयारण्य	-11238
▁प्रतिरूप	-11239
▁वाशिंगटन	-11240
▁विजेताओं	-11241
▁विषयवस्तु	-11242
ry	-11243
.07	-11244
कोण	-11245
चें	-11246
ोगी	-11247
▁डू	-11248
▁दब	-11249
ऊंगा	-11250
हाउस	-11251
्याम	-11252
केतिक	-11253
दक्षि	-11254
हार्य	-11255
▁लटका	-11256
▁आएँगे	-11257
▁जानें	-11258
▁दीवान	-11259
▁बहनों	-11260
▁एकाग्र	-11261
▁मापदंड	-11262
▁ताज्जुब	-11263
▁सापेक्ष	-11264
▁उद्यमिता	-11265
▁अब्दुल्ला	-11266
▁पहाड़ियों	-11267
▁मंत्रिमंडल	-11268
१०	-11269
.06	-11270
अली	-11271
जीत	-11272
लब्ध	-11273
▁थाः	-11274
▁फिन	-11275
▁यों	-11276
world	-11277
वार्ष	-11278
▁LDAP	-11279
▁अफसर	-11280
▁काबा	-11281
▁चलें	-11282
▁कन्या	-11283
▁गुंजा	-11284
▁नोड्स	-11285
▁संतति	-11286
कर्त्ता	-11287
▁असंख्य	-11288
▁ऑफलाइन	-11289
▁मणीलाल	-11290
▁सिलसिले	-11291
▁ब्रितानी	-11292
असल	-11293
उंट	-11294
▁इंद	-11295
▁एकक	-11296
▁पदा	-11297
▁सिम	-11298
▁कराते	-11299
▁रोकता	-11300
वर्तनीय	-11301
▁देखरेख	-11302
▁माइक्र	-11303
▁अरुणाचल	-11304
▁अवधारित	-11305
▁नामांकन	-11306
▁पत्थरों	-11307
▁संगोष्ठी	-11308
▁संप्रदाय	-11309
▁कार्यकलाप	-11310
▁शव	-11311
चरित	-11312
चाने	-11313
जवान	-11314
ग्रंथ	-11315
देश्य	-11316
फार्म	-11317
▁(196	-11318
▁1995	-11319
▁अनाव	-11320
▁पैदल	-11321
▁मेला	-11322
▁युसु	-11323
▁अर्जी	-11324
▁बैठकर	-11325
▁लश्कर	-11326
▁विलंब	-11327
▁खाद्या	-11328
▁बढ़िया	-11329
▁संदर्भित	-11330
▁condition	-11331
▁शताब्दियों	-11332
▁z	-11333
hort	-11334
द्रव	-11335
▁कूद	-11336
▁1990	-11337
▁स्टो	-11338
▁डेविड	-11339
▁निकास	-11340
▁भिक्ष	-11341
▁संबोधन	-11342
▁बेहतरीन	-11343
▁स्ट्रीट	-11344
▁एनकोडिंग	-11345
▁गुनाहगार	-11346
अस	-11347
िलि	-11348
्‍व	-11349
▁39	-11350
▁ओड	-11351
▁साय	-11352
▁हिर	-11353
▁नीला	-11354
▁पूरब	-11355
▁महार	-11356
▁सरोज	-11357
क्रमित	-11358
▁असफलः	-11359
▁पाश्च	-11360
▁रुसवा	-11361
▁सीखना	-11362
▁छोड़ना	-11363
▁परिप्रे	-11364
▁प्रमाणन	-11365
▁देवनागरी	-11366
▁वर्गाकार	-11367
दीप	-11368
▁an	-11369
▁झी	-11370
/201	-11371
rica	-11372
डीआई	-11373
पुरी	-11374
ृष्ट	-11375
▁ऊर्	-11376
▁नाद	-11377
▁रोल	-11378
ाइयों	-11379
▁एनआई	-11380
▁चलाई	-11381
▁शिरा	-11382
▁झुकाव	-11383
▁सिंधी	-11384
▁डिवाइस	-11385
▁बिहारी	-11386
▁देनेवाले	-11387
▁पहुँचाया	-11388
▁हड्डियों	-11389
▁सहयोगियों	-11390
▁प्रतिरक्षा	-11391
CT	-11392
ge	-11393
करों	-11394
ज्जन	-11395
द्वि	-11396
व्यू	-11397
▁आगम	-11398
▁आला	-11399
विदों	-11400
▁दरजे	-11401
▁पद्य	-11402
▁पल्ल	-11403
▁मिलान	-11404
▁फंक्शन	-11405
▁संगणित	-11406
▁क्योंकर	-11407
▁निर्दोष	-11408
▁निदेशालय	-11409
▁उपराष्ट्रपति	-11410
,)	-11411
35	-11412
ोध	-11413
धरी	-11414
▁शह	-11415
▁सत्	-11416
कर्मी	-11417
▁ताकी	-11418
▁दाने	-11419
▁पतली	-11420
▁बिछा	-11421
▁बुर्	-11422
▁रंगीन	-11423
▁सवारी	-11424
▁पैग़ाम	-11425
▁योद्धा	-11426
▁रिसर्च	-11427
▁विद्वत	-11428
द्योगिकी	-11429
▁खुशहाली	-11430
▁विन्यस्त	-11431
▁सब्जियों	-11432
▁भविष्यवाणी	-11433
¤	-11434
डक	-11435
-20	-11436
अंग	-11437
छता	-11438
बैक	-11439
िंट	-11440
NAME	-11441
▁अरा	-11442
▁निल	-11443
▁फुल	-11444
▁बहरे	-11445
▁मेटा	-11446
▁सपना	-11447
▁खुदाई	-11448
▁फीसदी	-11449
▁फ्लैग	-11450
▁रियास	-11451
▁समाना	-11452
▁हुसैन	-11453
▁प्रतिभाग	-11454
▁न्यायमूर्ति	-11455
.02	-11456
iss	-11457
गिक	-11458
चों	-11459
ूर्	-11460
ंटिक	-11461
राबत	-11462
पतियों	-11463
ापूर्व	-11464
▁स्वर्	-11465
▁अभिनेता	-11466
▁जिन्नात	-11467
▁पासपोर्ट	-11468
▁सांकेतिक	-11469
▁एल्गोरिथ्म	-11470
.8	-11471
ल्थ	-11472
बूवत	-11473
ृश्य	-11474
▁अकृत	-11475
▁बताई	-11476
▁सउदी	-11477
जहन्नम	-11478
▁क्रिस	-11479
▁लॉन्च	-11480
▁क़राबत	-11481
▁कारीगर	-11482
▁बाग़ात	-11483
▁व्यंजन	-11484
▁व्यतीत	-11485
▁जहन्नुमी	-11486
▁उपन्यासों	-11487
▁सशक्तीकरण	-11488
टाइ	-11489
शंस	-11490
ahoo	-11491
ोल्ट	-11492
▁आईएस	-11493
▁फूँक	-11494
▁बदली	-11495
▁सर्प	-11496
▁उठाते	-11497
▁गिरने	-11498
▁पच्ची	-11499
▁बैठें	-11500
▁विघटन	-11501
▁सिंगा	-11502
▁उन्मुख	-11503
▁अनुपस्थिति	-11504
ंझ	-11505
IME	-11506
ong	-11507
टुक	-11508
निधि	-11509
▁आति	-11510
▁वॉल	-11511
▁बाईं	-11512
▁संपी	-11513
▁इलाके	-11514
▁तुच्छ	-11515
▁तुलसी	-11516
▁विकृत	-11517
▁श्रोत	-11518
▁श्वास	-11519
▁स्पेन	-11520
▁तालमेल	-11521
▁डिज़ाइन	-11522
▁ब्राउज़	-11523
▁आज्ञापालन	-11524
▁साफ्टवेयर	-11525
ोब	-11526
बिन	-11527
मयी	-11528
यकों	-11529
रेशन	-11530
▁दृश	-11531
▁नित	-11532
मक्का	-11533
▁डिबग	-11534
▁क्षेञ	-11535
▁चिन्ता	-11536
▁सलामती	-11537
▁प्रायोजित	-11538
able	-11539
गीता	-11540
▁अरे	-11541
▁उदर	-11542
▁घने	-11543
▁वरना	-11544
▁अवसाद	-11545
▁उम्दा	-11546
▁तार्क	-11547
▁गुप्ता	-11548
▁संप्रे	-11549
▁अकादमिक	-11550
.4	-11551
ak	-11552
ब्स	-11553
माइ	-11554
यरी	-11555
▁ऊन	-11556
▁आलू	-11557
▁कैन	-11558
▁शाल	-11559
थियों	-11560
ध्याय	-11561
बन्धी	-11562
▁अवरो	-11563
▁खाका	-11564
▁डिजी	-11565
विद्या	-11566
▁अकादे	-11567
▁मालों	-11568
▁हिमनद	-11569
▁अपराधों	-11570
▁उत्तेजित	-11571
▁निर्भरता	-11572
▁विनियमों	-11573
33	-11574
.00	-11575
कुशल	-11576
गांव	-11577
तेरा	-11578
न्हा	-11579
बिले	-11580
हमें	-11581
ाइंट	-11582
▁कैर	-11583
▁घों	-11584
▁तबाह	-11585
▁सभ्य	-11586
▁क़द्र	-11587
▁ख़ौफ़	-11588
▁जायगा	-11589
▁जीवनी	-11590
▁मनाने	-11591
▁मिलें	-11592
▁पुरातन	-11593
प्लिकेशन	-11594
▁संप्रती	-11595
▁प्रभारित	-11596
▁मुताबिक़	-11597
ऐसी	-11598
▁लू	-11599
▁चौक	-11600
▁सैर	-11601
पुत्र	-11602
▁छाती	-11603
▁लगों	-11604
▁सॉफ़	-11605
▁अन्‍य	-11606
▁क्रमिक	-11607
▁समझाया	-11608
▁सीमेंट	-11609
▁कित्तूर	-11610
▁नागरिकता	-11611
▁नवान्वेषी	-11612
▁पुनरावृत्ति	-11613
फि	-11614
.04	-11615
वालो	-11616
▁अमी	-11617
▁नाभ	-11618
▁फीट	-11619
▁लौह	-11620
संहार	-11621
▁1957	-11622
▁बाला	-11623
▁मारी	-11624
▁सूखी	-11625
▁डालकर	-11626
▁तलवार	-11627
▁साम्य	-11628
ापूर्वक	-11629
▁ख्याति	-11630
▁निकलना	-11631
▁निकालता	-11632
▁निकालते	-11633
der	-11634
नोम	-11635
माम	-11636
ालो	-11637
▁जौ	-11638
एसटी	-11639
▁फोर	-11640
▁रुख	-11641
▁इसमा	-11642
▁उठने	-11643
▁एंटी	-11644
▁खाया	-11645
▁पोशा	-11646
▁बांड	-11647
म्परिक	-11648
▁क्रोम	-11649
▁लगाये	-11650
▁करेंगी	-11651
▁नीलामी	-11652
▁पराजित	-11653
▁वृद्धा	-11654
▁सम्मुख	-11655
▁करूणाकर	-11656
▁गुंजाइश	-11657
▁ग्रीष्म	-11658
▁फ़ंक्शन	-11659
▁आस्तियां	-11660
▁स्वादिष्ट	-11661
ber	-11662
सें	-11663
ense	-11664
time	-11665
स्टा	-11666
▁घड़	-11667
▁तौल	-11668
▁मोक	-11669
देशिक	-11670
▁चौदह	-11671
▁परमा	-11672
▁दिखाओ	-11673
▁मरतबा	-11674
▁मानवा	-11675
▁सुप्र	-11676
तापूर्ण	-11677
▁कम्युन	-11678
▁पात्रों	-11679
▁प्रत्युत्तर	-11680
ai	-11681
▁POP	-11682
▁चैट	-11683
▁नेप	-11684
▁मदर	-11685
▁त्यौ	-11686
▁बंधक	-11687
▁बेपर	-11688
▁ब्ले	-11689
▁कब्जे	-11690
▁बनारस	-11691
▁बन्दा	-11692
▁बूढ़े	-11693
▁बैटरी	-11694
▁स्केल	-11695
▁अंधेरे	-11696
▁ख़िलाफ	-11697
▁इकाइयां	-11698
▁कालावधि	-11699
▁चौपायों	-11700
▁अतिमानसिक	-11701
.7	-11702
शै	-11703
▁("	-11704
▁ठान	-11705
▁तलब	-11706
शीर्ष	-11707
ोनिया	-11708
▁अंडा	-11709
▁सूरा	-11710
पीडीएफ	-11711
▁वैद्य	-11712
▁आश्रित	-11713
▁नौजवान	-11714
▁क्रियान्वित	-11715
ंए	-11716
छु	-11717
ूरा	-11718
▁(5	-11719
ख़ते	-11720
▁245	-11721
▁तने	-11722
▁मिश	-11723
▁मैन	-11724
ज़िले	-11725
▁चौथे	-11726
▁ज्वर	-11727
▁ढलान	-11728
▁फोकस	-11729
▁2014)	-11730
▁अवहेल	-11731
▁ग़ज़ब	-11732
▁तौरेत	-11733
▁पेरिस	-11734
▁मुम्बई	-11735
▁समझदार	-11736
▁आन्तरिक	-11737
▁अभिलेखों	-11738
▁प्रतिबंधित	-11739
हण	-11740
ोदय	-11741
▁गॉ	-11742
उनका	-11743
क़ीन	-11744
▁नाच	-11745
ताकार	-11746
मेन्ट	-11747
स्‍तु	-11748
▁क़ौल	-11749
▁पौधा	-11750
ग्राही	-11751
▁क़्या	-11752
▁कारों	-11753
▁केलिए	-11754
▁घंटों	-11755
▁बुखार	-11756
व्यक्ति	-11757
▁ख़राबी	-11758
▁तारीख़	-11759
▁ड्राइवर	-11760
▁पंचवर्षीय	-11761
IC	-11762
av	-11763
ep	-11764
गाव	-11765
भीत	-11766
▁CO	-11767
न्डी	-11768
▁मधु	-11769
ोरिया	-11770
▁ग़ैब	-11771
▁वकाल	-11772
बेहश्त	-11773
ोग्राफ	-11774
▁अपडेट	-11775
▁आवंटन	-11776
▁ईरानी	-11777
▁फरमाए	-11778
▁लुप्त	-11779
▁ग्रंथि	-11780
▁झुठलाए	-11781
▁प्रताप	-11782
कुफ्फ़ार	-11783
▁कामगारों	-11784
▁मुशरिकों	-11785
▁विनियमित	-11786
▁लानेवालों	-11787
बुक	-11788
ालक	-11789
▁हठ	-11790
ेशकश	-11791
▁खोख	-11792
▁तेर	-11793
▁विस	-11794
फॉर्म	-11795
▁आरेख	-11796
▁उपगत	-11797
▁चोटी	-11798
▁नवाब	-11799
▁परमिट	-11800
▁तिमाही	-11801
▁निम्नतर	-11802
▁धूम्रपान	-11803
▁राष्‍ट्र	-11804
राइ	-11805
▁ऐब	-11806
▁थै	-11807
त्था	-11808
निस्	-11809
पैदा	-11810
▁(18	-11811
▁खडे	-11812
▁चाप	-11813
▁पला	-11814
▁1971	-11815
▁अधिर	-11816
▁कंधे	-11817
▁फायर	-11818
▁बर्न	-11819
▁वाजि	-11820
▁इंसान	-11821
▁बायाँ	-11822
▁स्टील	-11823
▁मतदाता	-11824
▁व्यवसा	-11825
▁हनुमान	-11826
▁कार्यवाहियों	-11827
आम	-11828
पस	-11829
-11	-11830
con	-11831
ock	-11832
करे	-11833
बाब	-11834
▁54	-11835
वाहक	-11836
वाहा	-11837
▁टोक	-11838
▁मद्	-11839
▁मोज	-11840
ारायण	-11841
▁अठार	-11842
▁दरें	-11843
▁पीले	-11844
▁बैठो	-11845
▁त्यौहार	-11846
▁पूर्वान	-11847
▁परिष्कृत	-11848
▁मानदंडों	-11849
▁समारोहों	-11850
▁स्वेच्छा	-11851
EX	-11852
ताई	-11853
धना	-11854
ध्द	-11855
सीए	-11856
पुरम	-11857
▁आशी	-11858
▁वात	-11859
▁खाकर	-11860
▁लाइट	-11861
▁ख़रीद	-11862
▁गिर्द	-11863
▁पेशकश	-11864
▁भूगोल	-11865
▁रीसेट	-11866
▁घटनाएं	-11867
▁डीपीआई	-11868
▁पाबन्द	-11869
▁अकादेमी	-11870
▁वस्तुएँ	-11871
▁कर्मियों	-11872
▁मान्यताप्राप्त	-11873
hel	-11874
च्य	-11875
जिये	-11876
टर्स	-11877
मस्त	-11878
ात्य	-11879
▁जाँ	-11880
▁शार	-11881
▁1976	-11882
▁वाकि	-11883
▁वासी	-11884
▁अंकुर	-11885
▁काल्प	-11886
▁यमुना	-11887
ोनेशिया	-11888
▁वशीभूत	-11889
▁वामपंथी	-11890
▁सन्दर्भ	-11891
▁समाविष्ट	-11892
▁प्रेमचन्द	-11893
▁श्रीकृष्ण	-11894
▁कार्यकर्ता	-11895
▁उपयोगकर्ताओं	-11896
ईस	-11897
ंशी	-11898
कोड	-11899
डेड	-11900
क्से	-11901
द्दत	-11902
र्वे	-11903
▁पौध	-11904
▁मकर	-11905
बुद्ध	-11906
म्बित	-11907
वाहिक	-11908
▁"{0}	-11909
▁जोशी	-11910
▁खतरों	-11911
▁चूर्ण	-11912
▁अस्त्र	-11913
▁संकलित	-11914
▁अकृतज्ञ	-11915
▁चिड़िया	-11916
▁काल्पनिक	-11917
▁प्रेमचंद	-11918
▁नगरपालिका	-11919
ue	-11920
ary	-11921
थिल	-11922
▁एत	-11923
▁छल	-11924
▁कंस	-11925
▁कस्	-11926
▁चंद	-11927
एशिया	-11928
मूल्य	-11929
ल्पित	-11930
▁लकीर	-11931
▁विषम	-11932
▁"{0}"	-11933
▁इनायत	-11934
▁खोलना	-11935
▁श्रव्य	-11936
▁स्नायु	-11937
▁पहुँचाए	-11938
▁मेगावाट	-11939
▁सुसज्जित	-11940
▁कार्मिकों	-11941
▁आतंकवादियों	-11942
9)	-11943
थो	-11944
फन	-11945
सचि	-11946
ादित	-11947
▁गरम	-11948
▁जनन	-11949
▁याक	-11950
▁हेल	-11951
▁(197	-11952
▁ग़लत	-11953
ान्वित	-11954
▁अपनाए	-11955
▁पॉपअप	-11956
▁सांसद	-11957
▁निर्जीव	-11958
▁संदिग्ध	-11959
▁अवस्थाओं	-11960
▁जानेवाली	-11961
▁नाफरमानी	-11962
▁translate	-11963
▁अंतर्वस्तु	-11964
▁अर्थशास्त्र	-11965
▁उत्तराधिकार	-11966
-15	-11967
aoM	-11968
one	-11969
सेफ	-11970
▁51	-11971
▁मठ	-11972
ound	-11973
चुअल	-11974
बड़ा	-11975
र्डर	-11976
▁आमा	-11977
▁इफ़	-11978
िविटी	-11979
▁जंतु	-11980
▁निवल	-11981
▁सतत्	-11982
▁उजागर	-11983
▁खुदरा	-11984
▁आरोग्य	-11985
स्क्रिप्ट	-11986
▁पुस्‍तकालय	-11987
▁सेवानिवृत्ति	-11988
%)	-11989
KC	-11990
iz	-11991
धु	-11992
ite	-11993
फाय	-11994
सेज	-11995
▁नट	-11996
राग़	-11997
विंग	-11998
▁कुद	-11999
▁तद्	-12000
▁बगी	-12001
▁हेम	-12002
▁चमत्	-12003
▁टेलि	-12004
▁मुवा	-12005
▁लड़ा	-12006
▁सुल्	-12007
स्फीति	-12008
▁संकुल	-12009
प्रतिशत	-12010
▁इक़रार	-12011
ष्‍ट्रीय	-12012
▁अस्वीकृत	-12013
▁सुपुर्दगी	-12014
▁राष्ट्रीयता	-12015
सरे	-12016
ेतन	-12017
ोही	-12018
ौना	-12019
▁बँ	-12020
क़ुर	-12021
▁400	-12022
▁Chr	-12023
▁एंट	-12024
ublic	-12025
▁IMAP	-12026
▁ख़ाक	-12027
▁जर्न	-12028
▁पीएम	-12029
▁भावा	-12030
▁मेवे	-12031
▁मोटा	-12032
▁२००८	-12033
▁देखती	-12034
▁पेशवा	-12035
▁बदलता	-12036
▁भवनों	-12037
▁मंडली	-12038
▁अवधारण	-12039
▁चिकित्	-12040
▁ड्रग्स	-12041
▁रणनीतिक	-12042
▁दुरुपयोग	-12043
▁प्रोफाइल	-12044
▁विधानमंडल	-12045
▁कार्यकर्ताओं	-12046
ati	-12047
सिस	-12048
▁*.	-12049
▁46	-12050
फ़िर	-12051
▁कैप	-12052
▁गुज	-12053
▁बरी	-12054
▁लेब	-12055
खियों	-12056
वाद्य	-12057
▁अभ्य	-12058
▁फर्श	-12059
▁लड़ो	-12060
icense	-12061
▁अंकों	-12062
▁उपनाम	-12063
▁लम्बा	-12064
▁स्तूप	-12065
▁ट्रैकिंग	-12066
ढी	-12067
ङ्ग	-12068
न्ज	-12069
रंग	-12070
▁56	-12071
▁`%	-12072
नाइट	-12073
श्मी	-12074
हायत	-12075
▁अर्ह	-12076
▁जाऊँ	-12077
▁फेरे	-12078
▁लिहा	-12079
▁संसू	-12080
▁उखाड़	-12081
▁ओडिशा	-12082
▁औषधीय	-12083
▁दुर्ग	-12084
▁दुशमन	-12085
▁बदलकर	-12086
▁वकालत	-12087
▁पत्तों	-12088
▁आश्वस्त	-12089
▁मुनासिब	-12090
▁पत्तियों	-12091
▁अनुमतियाँ	-12092
▁पाश्चात्य	-12093
▁प्रायोगिक	-12094
▁प्रयोगशालाओं	-12095
खख	-12096
नेल	-12097
संक	-12098
▁09	-12099
ज़रत	-12100
तापा	-12101
▁आड़	-12102
▁इलै	-12103
▁गों	-12104
▁झाँ	-12105
▁बेन	-12106
धुनिक	-12107
न्नति	-12108
स्कृत	-12109
▁लीटर	-12110
▁हम्द	-12111
▁निस्प	-12112
▁प्रसि	-12113
▁अविश्वास	-12114
▁कार्यशील	-12115
ip	-12116
इस्	-12117
लिन	-12118
आईडी	-12119
▁आत्	-12120
▁बेज	-12121
घोषणा	-12122
ज़रूर	-12123
ज़ीलत	-12124
तौरेत	-12125
देशीय	-12126
▁उष्ण	-12127
▁तरंग	-12128
▁भरना	-12129
▁शुएब	-12130
▁श्ले	-12131
मुक्ति	-12132
▁अगलों	-12133
▁कुष्ठ	-12134
▁दिखने	-12135
स्तियाँ	-12136
▁कर्त्त	-12137
▁रिसालत	-12138
▁अवहेलना	-12139
▁महोत्सव	-12140
▁सब्सिडी	-12141
▁स्ट्रीम	-12142
▁उत्तेजना	-12143
▁वाक्यांश	-12144
▁संक्रामक	-12145
▁स्वर्गीय	-12146
▁होनेवाले	-12147
▁उन्‍होंने	-12148
इए	-12149
859	-12150
अभि	-12151
भोज	-12152
यीं	-12153
डीटी	-12154
ोहित	-12155
▁थोक	-12156
▁नें	-12157
▁स्फ	-12158
चर्या	-12159
▁अस्व	-12160
▁आभास	-12161
▁रूढ़	-12162
▁लिखत	-12163
▁सेतु	-12164
पोरेशन	-12165
श्लेषण	-12166
▁किस्त	-12167
▁खुराक	-12168
▁दावों	-12169
▁रोबोट	-12170
त्तियां	-12171
▁अरविंद	-12172
▁खिड़की	-12173
▁वर्षीय	-12174
▁यूनिकोड	-12175
▁विशिष्टता	-12176
नरी	-12177
ोला	-12178
▁३०	-12179
कथित	-12180
र्तन	-12181
▁अयो	-12182
▁गौण	-12183
▁सवे	-12184
ंसीसी	-12185
समन्व	-12186
िब्यू	-12187
▁अभूत	-12188
▁चौथी	-12189
▁ठंडा	-12190
▁वीणा	-12191
बुद्धि	-12192
▁चलाता	-12193
▁भोपाल	-12194
▁खूबसूरत	-12195
▁पात्रता	-12196
▁प्रशंसनीय	-12197
▁प्रतिष्ठान	-12198
if	-12199
est	-12200
▁अछ	-12201
सलाम	-12202
▁हेर	-12203
▁०००	-12204
▁अक्ल	-12205
▁आच्छ	-12206
▁कुकी	-12207
▁बिंब	-12208
▁लौटे	-12209
▁अनुमत	-12210
▁चढ़ाई	-12211
▁चैत्य	-12212
▁नोबेल	-12213
▁राक्ष	-12214
▁शिश्न	-12215
▁उठाएगा	-12216
▁घुटनों	-12217
▁फ़ैसले	-12218
▁सहेजना	-12219
▁कंप्यूट	-12220
▁बुद्धिमान	-12221
▁अनिवार्यतः	-12222
▁परिप्रेक्ष्य	-12223
SS	-12224
¤£	-12225
नक	-12226
एआर	-12227
न्नी	-12228
▁जना	-12229
▁मित	-12230
ृंगार	-12231
▁गायन	-12232
▁नर्इ	-12233
▁मामल	-12234
▁खरगोश	-12235
▁नाजुक	-12236
▁भयभीत	-12237
▁जुटाने	-12238
▁विफलता	-12239
▁सामग्र	-12240
▁तार्किक	-12241
▁पर्वतों	-12242
▁सिंगापुर	-12243
23	-12244
कोच	-12245
चुप	-12246
बेर	-12247
िले	-12248
▁एर	-12249
ब्लू	-12250
सराय	-12251
▁उपजा	-12252
▁जीना	-12253
▁व्रत	-12254
▁पत्ता	-12255
▁बख़्श	-12256
▁बदलती	-12257
▁वायरस	-12258
सामान्य	-12259
▁कुत्ता	-12260
▁स्वराज	-12261
▁प्रथाओं	-12262
▁बढ़ोतरी	-12263
▁सम्बंधित	-12264
▁परिवीक्षा	-12265
▁प्रोग्रामिंग	-12266
ION	-12267
ode	-12268
बुद	-12269
यानि	-12270
विद्	-12271
स्वा	-12272
▁अवत	-12273
▁खड़	-12274
▁न्य	-12275
▁पिन	-12276
▁मुस	-12277
गुप्त	-12278
▁अष्ट	-12279
▁क्ले	-12280
▁घुड़	-12281
▁चाचा	-12282
▁झुके	-12283
▁बनाम	-12284
▁लोकल	-12285
▁नियति	-12286
▁स्पर्	-12287
▁क्योकि	-12288
▁जनगणना	-12289
▁मिलेंगे	-12290
▁कहानियां	-12291
▁उत्तराखंड	-12292
▁शिष्टमंडल	-12293
.?	-12294
96	-12295
EL	-12296
¤§	-12297
ुण	-12298
१८	-12299
फिल	-12300
ैमान	-12301
▁खली	-12302
▁वृह	-12303
आयामी	-12304
▁खगोल	-12305
▁तूफान	-12306
▁विनिया	-12307
▁मैदानों	-12308
▁समाजवाद	-12309
▁अंतर्निहित	-12310
ौफ	-12311
कित	-12312
ोलो	-12313
▁ठा	-12314
▁तफ	-12315
▁ग्व	-12316
क्रेट	-12317
बाज़ी	-12318
वश्यक	-12319
▁अम्र	-12320
आधारित	-12321
▁2017)	-12322
▁जातीय	-12323
▁सज्जन	-12324
▁परंतुक	-12325
▁रियायत	-12326
▁प्रोसेस	-12327
▁विलक्षण	-12328
▁शैतानों	-12329
▁संकेतों	-12330
▁देनेवाली	-12331
▁नवीकरणीय	-12332
▁प्रस्थान	-12333
▁प्रक्षेपण	-12334
▁स्वीकारें	-12335
▁सॉफ़्टवेयर	-12336
▁42	-12337
कारक	-12338
कोटा	-12339
क्रे	-12340
▁शीट	-12341
▁सिग	-12342
▁कब्र	-12343
▁निरे	-12344
▁चतुर्	-12345
▁ठहराव	-12346
▁द्रुत	-12347
▁डालेगा	-12348
▁अफ्रीकी	-12349
▁शुभारंभ	-12350
पील	-12351
चनों	-12352
जोरम	-12353
डीपी	-12354
मुक़	-12355
सचिव	-12356
▁सिड	-12357
▁अंचल	-12358
▁पारे	-12359
▁मादक	-12360
▁लीला	-12361
▁सीसी	-12362
जिसमें	-12363
▁अहसास	-12364
▁चमड़े	-12365
▁सेकंड	-12366
कांक्षी	-12367
▁जोड़ता	-12368
▁तोड़ने	-12369
_0	-12370
अभी	-12371
ब्‍	-12372
मिस	-12373
ेली	-12374
▁49	-12375
▁उँ	-12376
▁जज	-12377
नीचर	-12378
मांड	-12379
ॉर्क	-12380
▁जगम	-12381
मावली	-12382
▁1951	-12383
▁इक्व	-12384
▁एंटर	-12385
▁फ़ोन	-12386
▁मार्ट	-12387
▁चुनेंः	-12388
▁प्रचलन	-12389
▁स्कूली	-12390
▁केन्द्री	-12391
▁जुर्माना	-12392
▁चिकित्सीय	-12393
▁पत्रिकाओं	-12394
▁साझीदारों	-12395
खल	-12396
रिश	-12397
▁मथ	-12398
र्दा	-12399
हानि	-12400
▁पदो	-12401
▁बाइ	-12402
▁साद	-12403
चिन्ह	-12404
त्रिक	-12405
मौजूद	-12406
▁1970	-12407
▁ठेके	-12408
▁नरेश	-12409
▁बचना	-12410
▁लाये	-12411
▁षड्य	-12412
▁एकांत	-12413
▁डेयरी	-12414
▁बढावा	-12415
▁मनाही	-12416
▁लेगें	-12417
▁सिन्ध	-12418
▁should	-12419
▁चेष्टा	-12420
▁मन्दिर	-12421
▁अखबारों	-12422
▁सुविधाजनक	-12423
▁अंतर्विष्ट	-12424
▁विश्वव्यापी	-12425
▁साम्राज्यवाद	-12426
39;	-12427
कौन	-12428
ग़ा	-12429
यती	-12430
समी	-12431
ुका	-12432
्रम	-12433
▁खाम	-12434
▁बेश	-12435
▁यहा	-12436
▁सुथ	-12437
▁हाज	-12438
त्रों	-12439
▁1930	-12440
▁1974	-12441
▁1989	-12442
▁इर्द	-12443
▁फिरो	-12444
▁बिठा	-12445
▁रुग्	-12446
▁रोटी	-12447
प्रसार	-12448
▁जेम्स	-12449
▁बेलार	-12450
▁उल्लास	-12451
▁क़ब्रों	-12452
▁इंटरनेशनल	-12453
▁पारम्परिक	-12454
▁सांख्यिकी	-12455
▁संस्कृतियों	-12456
ink	-12457
लाव	-12458
ूवत	-12459
गणित	-12460
मिति	-12461
विरो	-12462
ारसी	-12463
▁एके	-12464
▁बैच	-12465
त्तरी	-12466
धिकरण	-12467
र्वाद	-12468
▁#39;	-12469
▁चौथाई	-12470
▁अलंकृत	-12471
▁आक्षेप	-12472
▁ग़नीमत	-12473
▁मानसून	-12474
▁विरोधा	-12475
▁हक़दार	-12476
▁दर्शाने	-12477
▁पहचानते	-12478
▁व्यक़्ति	-12479
▁समानांतर	-12480
▁पड़ोसियों	-12481
GenericName	-12482
▁प्रतिभागियों	-12483
API	-12484
ure	-12485
पने	-12486
चकों	-12487
दिवस	-12488
फिरत	-12489
सम्प	-12490
ीर्ण	-12491
▁चाइ	-12492
▁हूद	-12493
त्नों	-12494
ुक्री	-12495
▁उकसा	-12496
▁बहाल	-12497
सरतापा	-12498
हरगिज़	-12499
▁आखेरत	-12500
▁कथाओं	-12501
▁कर्सर	-12502
▁जार्ज	-12503
▁बढाने	-12504
▁याकूब	-12505
▁विषयक	-12506
▁प्ररूप	-12507
▁मुखिया	-12508
▁हाशिया	-12509
▁मंज़िले	-12510
▁मुनाफिक़	-12511
▁मुनाफ़िक़	-12512
▁किताबवालों	-12513
्क	-12514
vii	-12515
खनन	-12516
गमूल	-12517
▁दरा	-12518
▁किर्	-12519
▁गनोम	-12520
▁लाठी	-12521
▁उद्गम	-12522
▁खारिज	-12523
▁दशाओं	-12524
▁मिजोरम	-12525
▁यूनिटों	-12526
▁विंडोज़	-12527
▁वैधानिक	-12528
▁असमर्थित	-12529
▁इस्लामिक	-12530
▁ट्रिब्यू	-12531
▁रूपांतरित	-12532
▁अल्पसंख्यक	-12533
▁महाविद्यालय	-12534
SA	-12535
ंबू	-12536
साल	-12537
▁--	-12538
उससे	-12539
पिंग	-12540
▁खाँ	-12541
▁डिफ	-12542
▁नफर	-12543
▁रिच	-12544
.2012	-12545
▁छड़ी	-12546
▁पूंछ	-12547
▁बाते	-12548
▁लगीं	-12549
▁असंगत	-12550
▁तारीफ	-12551
▁नक्शे	-12552
▁माँगा	-12553
▁माणिक	-12554
▁वीर्य	-12555
▁शिविर	-12556
▁सकोगे	-12557
▁सपनों	-12558
▁सुगंध	-12559
▁तीक्ष्	-12560
▁एनआईओएस	-12561
▁कलाकृति	-12562
▁पंचायतों	-12563
▁यांत्रिक	-12564
▁सहिष्णुता	-12565
▁हस्तशिल्प	-12566
▁प्रतिस्थापित	-12567
▁(6	-12568
▁CD	-12569
बारक	-12570
राइड	-12571
▁250	-12572
▁अनवर	-12573
▁कचरे	-12574
▁पिंड	-12575
▁बापू	-12576
शिक्षा	-12577
समन्वय	-12578
स्थायी	-12579
▁आंत्र	-12580
▁गवर्न	-12581
▁घनत्व	-12582
▁जाहिल	-12583
▁पूछना	-12584
▁भागने	-12585
▁लार्ड	-12586
▁अदायगी	-12587
▁आर्द्र	-12588
▁कुत्ते	-12589
▁जोरदार	-12590
▁पालिसी	-12591
▁प्रचंड	-12592
▁फ़ायदा	-12593
▁मेघालय	-12594
▁वाहनों	-12595
▁निवेदित	-12596
▁वर्गमूल	-12597
▁छात्रवृत्ति	-12598
हॉ	-12599
िग	-12600
उदा	-12601
▁8.	-12602
▁ओं	-12603
▁थक	-12604
ovin	-12605
unit	-12606
निष्	-12607
यानी	-12608
ल्हा	-12609
▁अचल	-12610
▁फीड	-12611
▁वरन	-12612
▁शिष	-12613
▁श्ल	-12614
▁अदाल	-12615
▁इनाम	-12616
▁दायी	-12617
▁हिफा	-12618
▁बिगड़	-12619
▁बोलना	-12620
▁डेल्टा	-12621
▁अनुकूलन	-12622
▁प्रायद्वीप	-12623
▁यूनिवर्सिटी	-12624
केश	-12625
चलन	-12626
पड़	-12627
मुक	-12628
वने	-12629
ूसी	-12630
एमसी	-12631
टिया	-12632
दीने	-12633
ान्स	-12634
▁कंज	-12635
▁टोकन	-12636
▁रचित	-12637
▁2013)	-12638
▁कराती	-12639
▁ताकीद	-12640
▁पुण्य	-12641
▁रुपया	-12642
▁हवाओं	-12643
▁अस्थाई	-12644
▁साहसिक	-12645
▁सीमांत	-12646
▁स्वरुप	-12647
तुम्हारा	-12648
▁License	-12649
▁व्यतिक्र	-12650
▁अभूतपूर्व	-12651
अफ	-12652
ide	-12653
पीय	-12654
यूर	-12655
रोग	-12656
▁120	-12657
▁बूझ	-12658
ोलनों	-12659
▁मसले	-12660
france	-12661
▁डायरे	-12662
▁गर्भाव	-12663
▁दाहिनी	-12664
▁मुर्गी	-12665
▁यथासंभव	-12666
▁सुलझाने	-12667
▁लोकप्रियता	-12668
▁प्राधिकारियों	-12669
अव	-12670
मात	-12671
▁03	-12672
▁पण	-12673
फिया	-12674
▁गिड़	-12675
▁टाटा	-12676
ियुक्त	-12677
▁ट्रेन	-12678
▁तुर्क	-12679
▁निचली	-12680
▁समझकर	-12681
▁सेक्स	-12682
त्वर्ती	-12683
▁बाधाओं	-12684
▁लाज़िम	-12685
▁कार्यभार	-12686
▁जिन्होने	-12687
▁चुनौतियां	-12688
ैड	-12689
”,	-12690
वरा	-12691
▁लश	-12692
▁२२	-12693
ंतीय	-12694
ण्डी	-12695
िबंध	-12696
ुकता	-12697
▁गली	-12698
▁गिल	-12699
▁चूर	-12700
▁बान	-12701
आज्ञा	-12702
गिर्द	-12703
नीयता	-12704
ोत्तर	-12705
▁1946	-12706
▁क़ब्	-12707
▁जोकि	-12708
▁दहला	-12709
indows	-12710
ड़ियां	-12711
▁बीजों	-12712
▁डिजीटल	-12713
▁भूमिगत	-12714
▁रिटर्न	-12715
▁सर्किट	-12716
▁कविताएं	-12717
▁वचनबद्ध	-12718
▁कट्टरपंथी	-12719
▁निर्देशांक	-12720
▁पश्चात्वर्ती	-12721
36	-12722
gt	-12723
एनए	-12724
लता	-12725
वृत	-12726
▁64	-12727
इससे	-12728
जन्य	-12729
पद्ध	-12730
शंसा	-12731
सहाय	-12732
ालाल	-12733
▁राग	-12734
▁वोट	-12735
ज़ाबे	-12736
▁अनुभ	-12737
▁कोटा	-12738
▁खोली	-12739
▁गायक	-12740
▁नाशु	-12741
▁भागे	-12742
▁श्लो	-12743
णात्मक	-12744
▁निषेध	-12745
▁फैलाया	-12746
▁विद्यु	-12747
▁विनियामक	-12748
▁सहकारिता	-12749
na	-12750
oft	-12751
घ्न	-12752
मरी	-12753
अपील	-12754
आरटी	-12755
धाना	-12756
▁धरा	-12757
▁फास	-12758
लियां	-12759
▁ऑब्ज	-12760
▁खेला	-12761
▁नफरत	-12762
▁अब्बा	-12763
▁अवक्ष	-12764
▁आजीवन	-12765
▁चौधरी	-12766
▁दबाएँ	-12767
▁विहार	-12768
▁ह्रास	-12769
▁गवाहों	-12770
▁स्थावर	-12771
▁करोड़ों	-12772
▁मार्केट	-12773
▁टेलीविजन	-12774
▁प्रतिद्व	-12775
▁संरचनात्मक	-12776
गं	-12777
णित	-12778
वुड	-12779
िटल	-12780
▁थल	-12781
▁बृ	-12782
▁वश	-12783
here	-12784
ोसिस	-12785
▁कसम	-12786
▁डबल	-12787
istan	-12788
▁1972	-12789
तत्त्व	-12790
म्प्ले	-12791
सन्देह	-12792
▁अभ्या	-12793
▁जमीनी	-12794
▁पक्की	-12795
▁राजीव	-12796
▁बुलाने	-12797
▁महावीर	-12798
▁माँगने	-12799
▁मिटाया	-12800
▁संभालने	-12801
▁नागालैंड	-12802
▁अपरिहार्य	-12803
चय	-12804
रज	-12805
out	-12806
ोधन	-12807
▁04	-12808
करार	-12809
पात्र	-12810
▁ऑफिस	-12811
▁पीते	-12812
▁प्रत	-12813
▁मवेश	-12814
जीरिया	-12815
ष्ट्री	-12816
▁टैक्स	-12817
▁श्रोता	-12818
▁इमारतों	-12819
▁उच्चारण	-12820
▁गोलाकार	-12821
▁चंडीगढ़	-12822
▁रोज़गार	-12823
▁श्लोकों	-12824
▁दुनियावी	-12825
▁विश्वयुद्ध	-12826
▁प्रतिपूर्ति	-12827
OS	-12828
ऐं	-12829
नोट	-12830
स्का	-12831
▁पसी	-12832
▁हीन	-12833
गाड़ी	-12834
फोर्ड	-12835
▁1985	-12836
▁दादी	-12837
▁यकता	-12838
▁सींग	-12839
▁ध्रुव	-12840
▁फील्ड	-12841
▁लंबवत	-12842
▁विक्ष	-12843
▁वैधता	-12844
▁अमृतसर	-12845
▁कुर्सी	-12846
▁जाऊँगा	-12847
▁जोड़कर	-12848
▁ज़िल्लत	-12849
▁ऑपरेटिंग	-12850
▁कोशिकाएं	-12851
▁संतोषजनक	-12852
▁सक्रियता	-12853
▁एप्लिकेशन	-12854
34	-12855
।]	-12856
mat	-12857
बीएस	-12858
वीएस	-12859
िंदा	-12860
▁एपी	-12861
▁गंग	-12862
▁लसी	-12863
आधारी	-12864
महिला	-12865
▁आर्क	-12866
▁पावन	-12867
▁फ़ित	-12868
▁फिल्	-12869
▁मरना	-12870
सियानी	-12871
issions	-12872
▁अदृश्य	-12873
▁कराधान	-12874
▁निकटता	-12875
▁प्रोद्	-12876
▁बर्बाद	-12877
--------	-12878
▁इंटरफेस	-12879
▁बैंककारी	-12880
▁संक्रमित	-12881
▁पाठ्यक्रमों	-12882
¤	-12883
इन्	-12884
पाक	-12885
▁4,	-12886
आरसी	-12887
बहार	-12888
▁असु	-12889
▁बाण	-12890
▁मात	-12891
-8859	-12892
▁केबल	-12893
▁क्रे	-12894
▁डुबो	-12895
▁नीले	-12896
▁फेरा	-12897
▁समाई	-12898
▁सहसा	-12899
▁साहा	-12900
पूर्वी	-12901
प्रभाव	-12902
ब्तिला	-12903
▁क़ूवत	-12904
▁जमानत	-12905
▁तुझपर	-12906
▁दुहरा	-12907
▁झारखंड	-12908
▁तत्समय	-12909
▁नृत्‍य	-12910
▁बराबरी	-12911
▁अयोध्या	-12912
▁अध्यादेश	-12913
▁नाशुक्री	-12914
▁प्रबन्धन	-12915
▁सेटिंग्स	-12916
▁प्रातःकाल	-12917
))	-12918
उथ	-12919
गना	-12920
पशप	-12921
मिट	-12922
ेदन	-12923
ोशी	-12924
▁उच	-12925
बाने	-12926
व्रत	-12927
▁कलम	-12928
ग्राह	-12929
बॉक्स	-12930
▁आप्र	-12931
▁कृमि	-12932
▁गपशप	-12933
▁प्रक	-12934
▁रोजे	-12935
▁आवधिक	-12936
▁चार्ज	-12937
▁जमारा	-12938
▁अलंकरण	-12939
▁आईसीटी	-12940
▁पहुंची	-12941
▁कुटुम्ब	-12942
▁भिन्नता	-12943
▁शुरुआती	-12944
26	-12945
89	-12946
EAD	-12947
कवि	-12948
्रह	-12949
देही	-12950
▁अधी	-12951
▁ईश्व	-12952
▁स्लो	-12953
▁हमास	-12954
▁कोर्स	-12955
▁ख्वाब	-12956
▁धाराओं	-12957
▁रहेगें	-12958
▁सुनाते	-12959
▁अनावश्यक	-12960
▁संस्थापन	-12961
int	-12962
झान	-12963
्टन	-12964
▁ex	-12965
ार्ध	-12966
▁ज्य	-12967
▁थाई	-12968
▁यूट	-12969
अच्छी	-12970
हमारा	-12971
▁ईर्ष	-12972
▁कापी	-12973
▁मुकर	-12974
▁शहीद	-12975
▁ख़राब	-12976
▁तैनात	-12977
▁दोहरे	-12978
▁मंगोल	-12979
▁सतर्क	-12980
▁अतिक्र	-12981
▁अनदेखा	-12982
▁जोड़ते	-12983
▁बुलाता	-12984
▁असमानता	-12985
▁दर्शाते	-12986
▁मार्गों	-12987
▁अभिलाभों	-12988
▁आशीर्वाद	-12989
▁बस्तियाँ	-12990
▁विधेयकों	-12991
▁इलेक्ट्रॉनिक्स	-12992
.9	-12993
DU	-12994
-13	-12995
lay	-12996
इंग	-12997
▁आउ	-12998
ण्डे	-12999
फ्ता	-13000
ब्रह	-13001
मंडप	-13002
▁ठंड	-13003
सत्ता	-13004
▁अकड़	-13005
▁कमरा	-13006
▁चालक	-13007
▁डेलि	-13008
▁दुरु	-13009
▁पीना	-13010
▁तालीम	-13011
▁पूछने	-13012
▁भत्ते	-13013
▁मियाद	-13014
▁नामकरण	-13015
▁प्रलेख	-13016
▁बुद्धिम	-13017
▁कुंजीपटल	-13018
▁कॉन्फ्रेंस	-13019
▁रजिस्ट्रीकृत	-13020
7,	-13021
de	-13022
ंडर	-13023
वाज	-13024
▁साई	-13025
तावास	-13026
विहीन	-13027
▁1949	-13028
▁1960	-13029
▁ऑप्ट	-13030
▁गाइड	-13031
▁चर्म	-13032
▁मुल्	-13033
▁यूएस	-13034
escrip	-13035
▁अकेली	-13036
▁अमिता	-13037
▁काटें	-13038
▁बाधित	-13039
▁वृंदा	-13040
▁आतिथ्य	-13041
▁कमजोरी	-13042
▁ग्रीवा	-13043
▁पच्चीस	-13044
▁बढ़ाते	-13045
▁तथाकथित	-13046
3,	-13047
तिन	-13048
ुम्	-13049
▁एप	-13050
गुना	-13051
पीपी	-13052
ल्पी	-13053
▁चलन	-13054
▁दोग	-13055
रूपता	-13056
▁कशेर	-13057
▁झुंड	-13058
▁तामी	-13059
▁नक्का	-13060
▁पढ़ें	-13061
▁पुनरु	-13062
▁मारना	-13063
निर्मित	-13064
विन्यास	-13065
▁अभिभाव	-13066
▁युसुफ़	-13067
▁हुज्जत	-13068
▁क़ाबिले	-13069
▁प्रशस्त	-13070
▁फर्नीचर	-13071
▁तारामंडल	-13072
▁षड्यंत्र	-13073
▁हड्डियाँ	-13074
▁राज्यपालों	-13075
▁विद्यालयों	-13076
-%	-13077
ake	-13078
धरा	-13079
ायब	-13080
िसा	-13081
▁हॅ	-13082
ख़्स	-13083
▁कटा	-13084
▁ज़े	-13085
कानों	-13086
▁कॉफी	-13087
▁गिरी	-13088
▁टैंक	-13089
▁पर्ण	-13090
टुकड़े	-13091
लांटिक	-13092
▁इन्ते	-13093
▁टकराव	-13094
▁द्वेष	-13095
▁मोड़े	-13096
ोग्राफी	-13097
▁घोड़ों	-13098
▁फ़ोल्ड	-13099
▁निकटवर्ती	-13100
▁न्यूयार्क	-13101
▁प्रस्तुतीकरण	-13102
)?	-13103
आद	-13104
lex	-13105
चढ़	-13106
चाई	-13107
तुर	-13108
बहु	-13109
वना	-13110
▁ऋष	-13111
एमएल	-13112
ड़ें	-13113
करिया	-13114
लीकरण	-13115
ारोपण	-13116
▁HEAD	-13117
▁MAPI	-13118
▁छत्र	-13119
▁पछता	-13120
▁बंदी	-13121
▁मच्छ	-13122
टीएमएल	-13123
▁इबलीस	-13124
▁ऊष्मा	-13125
▁पुश्त	-13126
▁बताये	-13127
▁मक्खी	-13128
▁लॉर्ड	-13129
▁विजयी	-13130
▁समझें	-13131
▁10,000	-13132
▁Chrome	-13133
▁आवंटित	-13134
▁गिड़गि	-13135
▁बनवाया	-13136
▁मुनाफे	-13137
▁बर्निंग	-13138
▁मलेरिया	-13139
▁मनोवैज्ञानिक	-13140
IP	-13141
-07	-13142
rou	-13143
कोल	-13144
ज़ु	-13145
वनी	-13146
ज़ाह	-13147
भाषी	-13148
ुप्त	-13149
▁कतर	-13150
▁साज	-13151
स्राव	-13152
▁बार्	-13153
▁सबने	-13154
▁सम्‍	-13155
▁साम्	-13156
▁चाँदी	-13157
▁छिपाए	-13158
▁दायाँ	-13159
▁सौंपे	-13160
▁नबियों	-13161
▁लगेंगे	-13162
▁विराट्	-13163
▁पहचानने	-13164
▁पहुँचता	-13165
▁उत्कीर्ण	-13166
▁रजिस्ट्र	-13167
▁पुनरीक्षण	-13168
व्	-13169
पता	-13170
▁ev	-13171
▁ढु	-13172
कर्स	-13173
घाती	-13174
जियम	-13175
ालिस	-13176
ार्कट	-13177
▁उठकर	-13178
▁जमाव	-13179
▁अवतरण	-13180
▁उभरते	-13181
▁पोशाक	-13182
▁शख़्स	-13183
▁हिंसक	-13184
▁एक्सेस	-13185
........	-13186
शास्त्री	-13187
▁प्रलेखन	-13188
▁शत्रुता	-13189
▁प्रकोष्ठ	-13190
▁भूतपूर्व	-13191
▁संप्रतीक	-13192
▁क्रियाशील	-13193
▁प्रादेशिक	-13194
ोपै	-13195
कृमि	-13196
▁काठ	-13197
▁चोल	-13198
▁जोध	-13199
▁नफ़	-13200
▁बोर	-13201
▁मों	-13202
तियाँ	-13203
दुनाथ	-13204
विधान	-13205
▁जानो	-13206
▁तरजी	-13207
▁लेगी	-13208
▁चौड़ी	-13209
▁दहकती	-13210
▁पाउंड	-13211
▁बारीक	-13212
▁समाधि	-13213
स्क्रीन	-13214
▁अमूर्त	-13215
▁मेहराब	-13216
▁आयताकार	-13217
▁फ्लैग्स	-13218
▁समामेलन	-13219
▁अनुष्ठान	-13220
▁निवेदिता	-13221
▁सांविधिक	-13222
▁खाद्यान्न	-13223
▁प्रामाणिक	-13224
▁फ्रांसीसी	-13225
▁भावनात्मक	-13226
ुग	-13227
डाई	-13228
वला	-13229
ुंब	-13230
ट्ठी	-13231
तमाला	-13232
त्‍मक	-13233
▁क़ैद	-13234
▁ख़ता	-13235
▁ख़ून	-13236
▁गौतम	-13237
▁मीरा	-13238
▁शिला	-13239
प्रबंध	-13240
▁अवमान	-13241
▁छोड़ी	-13242
▁मुराद	-13243
▁विनोद	-13244
▁गठबंधन	-13245
▁झगड़ने	-13246
▁नाइट्र	-13247
▁पिताजी	-13248
▁माँगते	-13249
▁सहनशील	-13250
▁बेलारूस	-13251
▁एक्सप्रेस	-13252
▁कम्युनिस्ट	-13253
1,	-13254
46	-13255
PRO	-13256
सला	-13257
ेता	-13258
▁05	-13259
▁85	-13260
पालक	-13261
योगी	-13262
्लाई	-13263
▁नर्	-13264
▁मेम	-13265
वर्सन	-13266
ष्टिक	-13267
िकाएं	-13268
▁कच्छ	-13269
▁काबू	-13270
▁स्या	-13271
▁जायज़	-13272
▁नित्य	-13273
▁भाँति	-13274
▁मारकर	-13275
▁वार्म	-13276
▁अहंकार	-13277
▁क्रेता	-13278
▁निहायत	-13279
▁बढ़ाता	-13280
▁मधुमक्	-13281
▁मेहमान	-13282
▁मौलाना	-13283
▁अवक्षयण	-13284
▁अविभक्त	-13285
▁नक्काशी	-13286
▁महादेवी	-13287
▁मेहरअली	-13288
▁सुलैमान	-13289
▁अत्याधिक	-13290
▁उर्वरकों	-13291
escription	-13292
▁मूर्तियां	-13293
ice	-13294
पुन	-13295
२००	-13296
▁झर	-13297
डियम	-13298
प्रस	-13299
▁बेख	-13300
Short	-13301
ution	-13302
दायों	-13303
पमेंट	-13304
म्बरी	-13305
▁1994	-13306
▁जन्न	-13307
▁पीला	-13308
▁रखनी	-13309
▁समया	-13310
वाहाटी	-13311
▁पलटकर	-13312
▁बहुधा	-13313
▁वक़्त	-13314
▁विलेख	-13315
▁वृक्क	-13316
▁फरमाता	-13317
▁मंज़िल	-13318
▁साइकिल	-13319
▁गिरफ्तारी	-13320
▁पड़नेवाले	-13321
▁गर्भावस्था	-13322
ps	-13323
ult	-13324
मेव	-13325
नुअल	-13326
ाम्ब	-13327
▁कॉम	-13328
▁ख़़	-13329
▁मता	-13330
▁यंग	-13331
▁हता	-13332
▁बाली	-13333
▁मीम॰	-13334
ख्तेला	-13335
▁अल्फा	-13336
▁गुनेह	-13337
▁तकिया	-13338
▁पर्दे	-13339
▁पाषाण	-13340
▁लगाएँ	-13341
▁गन्दगी	-13342
▁चिन्तन	-13343
▁निकलकर	-13344
▁लम्बाई	-13345
▁सजावटी	-13346
▁सामरिक	-13347
▁अभिलेखा	-13348
▁इफ़तेरा	-13349
▁ज़करिया	-13350
▁जातियां	-13351
▁परवर्ती	-13352
▁मछलियों	-13353
▁मुअय्यन	-13354
▁व्यंग्य	-13355
▁समझौतों	-13356
▁ईमानवाली	-13357
▁पवित्रता	-13358
▁सम्मिश्र	-13359
▁गुनाहगारों	-13360
ix	-13361
ईद	-13362
आईए	-13363
सुल	-13364
्रय	-13365
▁:-	-13366
▁कं	-13367
हराम	-13368
िलिक	-13369
▁करत	-13370
▁घसी	-13371
र्जित	-13372
▁आलोक	-13373
▁क्षी	-13374
▁गिनी	-13375
▁घेरा	-13376
▁पाचन	-13377
▁बाइट	-13378
▁लगाव	-13379
ैंकिंग	-13380
▁क्लास	-13381
▁निचला	-13382
▁बताती	-13383
▁मकबरा	-13384
▁हिमाल	-13385
▁गुस्से	-13386
▁चेहरों	-13387
▁स्वीडन	-13388
▁टुकड़ों	-13389
▁उदाहरणार्थ	-13390
▁मांसपेशियों	-13391
mb	-13392
बख	-13393
200	-13394
all	-13395
ंती	-13396
फिक	-13397
▁वफ	-13398
▁शू	-13399
एनआर	-13400
किरा	-13401
न्टी	-13402
मोचन	-13403
ूस्त	-13404
▁अणु	-13405
▁कबी	-13406
▁सॉल	-13407
टरिंग	-13408
▁बकरी	-13409
▁शिवा	-13410
स्वच्छ	-13411
▁ग़लती	-13412
▁घटाने	-13413
▁मोक्ष	-13414
▁लिखकर	-13415
▁सैद्ध	-13416
साहित्य	-13417
▁करवाना	-13418
▁जानकार	-13419
▁मुर्दे	-13420
▁कारखाने	-13421
▁नियमावली	-13422
▁प्रयोगों	-13423
▁साम्राज़	-13424
▁प्रोद्भूत	-13425
▁शल्यक्रिया	-13426
ateg	-13427
अंतर	-13428
कम्प	-13429
रोधी	-13430
▁चिं	-13431
▁जोन	-13432
▁धड़	-13433
▁बाई	-13434
परायण	-13435
▁वक्ष	-13436
▁इन्टर	-13437
▁कलाओं	-13438
▁दरअसल	-13439
▁बनेगा	-13440
▁लाएगा	-13441
▁सवेरे	-13442
▁अलमस्त	-13443
▁उत्तरः	-13444
▁महासभा	-13445
▁शिकारी	-13446
▁शिशुओं	-13447
▁गेंदबाज	-13448
▁जबरदस्त	-13449
▁प्राप्य	-13450
▁कॉपीराइट	-13451
▁रामकृष्ण	-13452
▁विभिन्‍न	-13453
▁किरायेदार	-13454
▁प्रतिबन्ध	-13455
▁बहुपक्षीय	-13456
▁·	-13457
ace	-13458
ant	-13459
वाइ	-13460
हूर	-13461
▁इर	-13462
Serv	-13463
ital	-13464
ंमार	-13465
स्के	-13466
ुकूल	-13467
▁कन्	-13468
▁बुख	-13469
▁१९३	-13470
प्रेम	-13471
▁करुँ	-13472
▁काया	-13473
▁चिट्	-13474
▁हक़ी	-13475
eneral	-13476
केंद्र	-13477
▁अतिशय	-13478
▁जीर्ण	-13479
▁तरजीह	-13480
▁मज़हब	-13481
▁स्‍था	-13482
▁दाहिना	-13483
▁नियामक	-13484
▁मातृभूमि	-13485
▁पर्वतमाला	-13486
▁राष्ट्रवादी	-13487
▁पारिस्थितिकी	-13488
गुम	-13489
पुत	-13490
लूक	-13491
ात्	-13492
▁लह	-13493
ण्डर	-13494
वेली	-13495
▁SSL	-13496
▁एनी	-13497
▁खां	-13498
▁घुम	-13499
▁मुय	-13500
▁शैव	-13501
मैंने	-13502
▁अय्य	-13503
▁सिमु	-13504
क्सिको	-13505
ियंत्र	-13506
▁पारसी	-13507
▁मुझपर	-13508
▁वाजिब	-13509
▁विराज	-13510
▁मांगों	-13511
▁राज्‍य	-13512
▁संज्ञा	-13513
किस्तानी	-13514
▁दुकानों	-13515
▁प्रतिकर	-13516
▁रामलिंग	-13517
▁द्विआधारी	-13518
▁translated	-13519
▁दीर्घकालीन	-13520
▁विश्वासघात	-13521
ख्ता	-13522
हानी	-13523
▁आली	-13524
▁बफर	-13525
तालों	-13526
▁दीपा	-13527
▁मरते	-13528
▁आयातक	-13529
▁एकत्व	-13530
▁गोश्त	-13531
▁मांगी	-13532
▁अप्रति	-13533
▁तात्या	-13534
▁दरवाजा	-13535
▁मुबारक	-13536
▁किस्में	-13537
▁दृश्यों	-13538
▁फिनलैंड	-13539
▁जिज्ञासा	-13540
▁स्थापत्य	-13541
पौ	-13542
ंगत	-13543
▁as	-13544
चेतन	-13545
जेशन	-13546
भाजन	-13547
वहार	-13548
ॉफ्ट	-13549
▁(7)	-13550
▁मूस	-13551
▁सूख	-13552
▁औरंग	-13553
▁डायल	-13554
▁रोमन	-13555
ालियों	-13556
▁अनधिक	-13557
▁कच्चा	-13558
▁खेलते	-13559
▁गिरवी	-13560
▁नवजात	-13561
▁पित्त	-13562
▁महीना	-13563
▁माउंट	-13564
▁असंतोष	-13565
▁रविवार	-13566
▁विकृति	-13567
स्वतंत्र	-13568
▁मक्कारी	-13569
▁रिश्तों	-13570
▁सुनेंगे	-13571
▁हाथियों	-13572
▁गुवाहाटी	-13573
OL	-13574
ear	-13575
ँसा	-13576
टिन	-13577
प्य	-13578
बैठ	-13579
ोत्	-13580
▁In	-13581
त्थे	-13582
वायर	-13583
हाइट	-13584
▁इंट	-13585
▁कोइ	-13586
▁गला	-13587
▁धात	-13588
▁बंट	-13589
▁बाज	-13590
▁रास	-13591
ज़ाने	-13592
लाधार	-13593
▁1952	-13594
▁असम्	-13595
▁नेवि	-13596
▁पौंड	-13597
▁रिली	-13598
▁होली	-13599
अर्थात	-13600
▁इशारा	-13601
▁चुनना	-13602
▁डराता	-13603
▁पट्टा	-13604
▁श्लोक	-13605
▁सख़्त	-13606
▁अशुद्ध	-13607
▁मुमकिन	-13608
▁शासकीय	-13609
महाद्वीप	-13610
▁कड़ियाँ	-13611
▁कैलेंडर	-13612
▁समावेशन	-13613
▁उपलब्धियां	-13614
▁पूर्वानुमान	-13615
वेज	-13616
गोचर	-13617
दिया	-13618
वारे	-13619
हाला	-13620
ाप्र	-13621
ार्ग	-13622
▁खेद	-13623
▁निभ	-13624
▁बुन	-13625
पीसीएल	-13626
▁उन्ही	-13627
▁ज्वार	-13628
▁नाराज	-13629
▁बहाना	-13630
▁सस्ती	-13631
▁खींचने	-13632
▁नमूनों	-13633
▁नेटवर्	-13634
▁प्रकरण	-13635
▁फाइलों	-13636
▁ब्रांड	-13637
▁भवभूति	-13638
▁मोहताज	-13639
▁सुनाया	-13640
▁आनेवाली	-13641
▁सरोजिनी	-13642
▁अनुरक्षण	-13643
▁एकाधिकार	-13644
▁परमात्मा	-13645
▁विनम्रता	-13646
ऐब	-13647
सौ	-13648
हट	-13649
Lex	-13650
अज़	-13651
ुना	-13652
▁ऑल	-13653
▁चह	-13654
▁शिम	-13655
कीकरण	-13656
तुल्य	-13657
बेडकर	-13658
्रेसी	-13659
▁कड़ा	-13660
▁गुहा	-13661
▁निपु	-13662
▁भट्ट	-13663
▁मद्य	-13664
▁लशकर	-13665
▁२००७	-13666
▁घुटने	-13667
▁तौरात	-13668
▁पत्रा	-13669
▁बजाएँ	-13670
▁मैथुन	-13671
▁राजने	-13672
▁दिलाता	-13673
▁प्रहार	-13674
▁मिटाकर	-13675
▁औपनिवेश	-13676
▁जनशक्ति	-13677
▁वार्मिंग	-13678
▁गिड़गिड़ा	-13679
▁नरेन्‍द्र	-13680
UT	-13681
ंन	-13682
▁ं	-13683
ंधा	-13684
एसी	-13685
▁रज	-13686
र्दे	-13687
लेटर	-13688
ानात	-13689
▁जेर	-13690
▁रघु	-13691
▁हृद	-13692
इसमें	-13693
मेनान	-13694
▁गयाः	-13695
▁चेता	-13696
▁फाड़	-13697
▁बेवक	-13698
▁स्टे	-13699
दक्षिण	-13700
▁अक्लम	-13701
▁अड्डा	-13702
▁कीड़े	-13703
▁कोल्ह	-13704
▁ज्यों	-13705
▁वल्लभ	-13706
▁अपनाते	-13707
▁कहेगें	-13708
▁दीवाना	-13709
▁दौड़ते	-13710
▁परिधान	-13711
▁विधिवत	-13712
▁चलचित्र	-13713
▁बुढ़ापे	-13714
▁संभवतया	-13715
▁सुप्रीम	-13716
▁क़ुरबानी	-13717
▁रिपोर्टों	-13718
▁सृजनात्मक	-13719
,?	-13720
kt	-13721
ror	-13722
बला	-13723
▁66	-13724
▁li	-13725
चढ़ा	-13726
देशा	-13727
न्टर	-13728
मध्य	-13729
▁अजन	-13730
▁करण	-13731
▁चैक	-13732
▁थीम	-13733
विस्त	-13734
▁अकसर	-13735
▁अवशो	-13736
▁कुचल	-13737
नाइटेड	-13738
▁अड्डे	-13739
▁सुनना	-13740
▁स्राव	-13741
धिकारों	-13742
▁उपनिषद	-13743
▁कपड़ों	-13744
▁चित्रा	-13745
▁छवियाँ	-13746
▁यदुनाथ	-13747
विज्ञानी	-13748
▁आक्रामक	-13749
▁वृंदावन	-13750
▁शुद्धता	-13751
▁ज्ञानवान	-13752
▁बुराइयाँ	-13753
▁शिकायतें	-13754
▁सुस्पष्ट	-13755
¤	-13756
ill	-13757
फ्फ	-13758
ज्या	-13759
भूषा	-13760
▁कौर	-13761
खानों	-13762
विवाह	-13763
ांतिक	-13764
▁'{0}	-13765
▁उतरे	-13766
▁बदतर	-13767
▁बुजु	-13768
▁रूपए	-13769
▁स्पे	-13770
▁अलगाव	-13771
▁इरादे	-13772
▁ऊँटनी	-13773
▁कदमों	-13774
▁पिक्स	-13775
▁प्रवी	-13776
संस्कृत	-13777
▁अधिभार	-13778
▁प्लेयर	-13779
▁बेज़ार	-13780
▁मुसाफ़	-13781
▁पुकारने	-13782
▁पुराणों	-13783
▁प्राणिक	-13784
▁सदाबहार	-13785
▁अनुपलब्ध	-13786
▁स्टेशनों	-13787
▁स्मारकों	-13788
▁पक्षकारों	-13789
▁संयंत्रों	-13790
▁अभियांत्रिकी	-13791
▁कार्यक्षेत्र	-13792
▁इस्लामवादियों	-13793
▁प्रौद्योगिकीय	-13794
->	-13795
rib	-13796
लीम	-13797
ाफ़	-13798
▁औस	-13799
▁गह	-13800
ंदों	-13801
कर्ण	-13802
ण्डा	-13803
ैक्स	-13804
▁छठा	-13805
▁बख़	-13806
दान्त	-13807
▁जूते	-13808
▁भ्रा	-13809
▁लिफा	-13810
▁सिले	-13811
▁सोलह	-13812
▁सोशल	-13813
▁जड़ें	-13814
▁पक्के	-13815
▁परिधि	-13816
▁बेवकू	-13817
▁संवित	-13818
▁साहिब	-13819
▁इसमाईल	-13820
▁गुणगान	-13821
▁पकड़कर	-13822
▁विचलित	-13823
▁सिक्के	-13824
▁हाइड्र	-13825
▁नानालाल	-13826
▁मानेंगे	-13827
▁परिचर्चा	-13828
▁ज़बरदस्ती	-13829
▁तुलनात्मक	-13830
▁प्रस्थिति	-13831
▁पत्रकारिता	-13832
षऋ	-13833
▁|	-13834
Uri	-13835
ith	-13836
ंतक	-13837
बाइ	-13838
सले	-13839
ारत	-13840
DUCT	-13841
क़ौम	-13842
कांड	-13843
तनों	-13844
यूसु	-13845
र्पण	-13846
वक्त	-13847
ाफिल	-13848
▁अंट	-13849
▁कले	-13850
▁छाँट	-13851
▁दिक्	-13852
▁देवे	-13853
LexUri	-13854
आख़िरत	-13855
क़ुदरत	-13856
क़ुरआन	-13857
ग्रन्थ	-13858
ान्तरण	-13859
िस्तान	-13860
▁अंडों	-13861
▁कारसा	-13862
▁खौलता	-13863
▁चौड़ा	-13864
▁पहनते	-13865
▁बहाने	-13866
▁भड़का	-13867
▁रेज़ा	-13868
▁ग़ाफिल	-13869
▁घुमाएँ	-13870
▁रूसवाई	-13871
▁चंद्रमा	-13872
▁पत्रकार	-13873
▁फेफड़ों	-13874
▁राजनयिक	-13875
▁सज़ावार	-13876
▁साझेदार	-13877
▁मुब्तिला	-13878
▁यात्राओं	-13879
LexUriServ	-13880
▁परम्परागत	-13881
▁ब्रह्मांड	-13882
▁मंत्रिपरिषद	-13883
▁कारस्तानियों	-13884
cc	-13885
ha	-13886
अरे	-13887
़्त	-13888
गर्भ	-13889
न्जा	-13890
▁आसन	-13891
▁तान	-13892
▁मजे	-13893
▁मेक	-13894
▁सबक	-13895
्रीका	-13896
▁(199	-13897
▁1973	-13898
▁उगाई	-13899
▁डेमो	-13900
▁नासा	-13901
▁महज़	-13902
ानियों	-13903
▁अल्पा	-13904
▁आभारी	-13905
▁निजाम	-13906
▁बजाने	-13907
▁बरसों	-13908
▁मानें	-13909
ौपचारिक	-13910
▁आरोपों	-13911
▁उपास्य	-13912
▁तिब्बत	-13913
▁परिक्र	-13914
▁फ़ारसी	-13915
▁बैकेंड	-13916
▁राममोहन	-13917
▁सबवर्सन	-13918
▁प्रांतीय	-13919
▁प्राप्‍त	-13920
▁बहिष्कार	-13921
▁परिवीक्षाधीन	-13922
▁परिस्थितियां	-13923
28	-13924
▁.	-13925
ंजक	-13926
बाध	-13927
ैंप	-13928
▁5,	-13929
ंकार	-13930
जवाब	-13931
र्थक	-13932
▁शहद	-13933
▁शोथ	-13934
बाक्स	-13935
▁(198	-13936
▁उतरा	-13937
▁ग्ले	-13938
▁ट्यू	-13939
▁ललित	-13940
▁अपहरण	-13941
▁कस्टम	-13942
▁ग़ायब	-13943
▁चांदी	-13944
▁टिड्ड	-13945
▁परिकल	-13946
▁लसीका	-13947
▁वीरता	-13948
▁अभिदाय	-13949
▁पैदाइश	-13950
निरपेक्ष	-13951
▁वर्चुअल	-13952
▁मध्यस्थता	-13953
▁अत्यावश्यक	-13954
▁अभिलेखागार	-13955
▁संवेदनशीलता	-13956
VD	-13957
ऊं	-13958
uer	-13959
रणी	-13960
▁खट	-13961
iver	-13962
खड़ा	-13963
दिनी	-13964
सर्व	-13965
ारें	-13966
▁उपस	-13967
▁दाब	-13968
जिहाद	-13969
श्रित	-13970
▁पडता	-13971
▁लड़क	-13972
▁विज़	-13973
▁उठाये	-13974
▁कच्ची	-13975
▁खर्चे	-13976
▁टेम्प	-13977
▁ढूँढ़	-13978
▁बक्से	-13979
▁बर्मा	-13980
▁अनुरुप	-13981
▁अनेकों	-13982
▁अमिताभ	-13983
▁कुटुंब	-13984
▁ख़ातिर	-13985
▁निकटतम	-13986
▁निभाने	-13987
▁पुष्पा	-13988
▁मेट्रो	-13989
▁रोमांच	-13990
▁सिस्को	-13991
▁कुंजीपट	-13992
▁चिपकाएँ	-13993
▁आंदोलनों	-13994
▁राज्यसभा	-13995
▁रियासतों	-13996
▁पार्टियों	-13997
▁प्रतिभाशाली	-13998
▁प्रवृत्तियों	-13999
झक	-14000
तई	-14001
खड़	-14002
डैक	-14003
बीच	-14004
शरण	-14005
्शन	-14006
टीआई	-14007
डेटा	-14008
▁इको	-14009
▁लती	-14010
▁लाय	-14011
बराबर	-14012
ानिया	-14013
▁अनुष	-14014
▁चरित	-14015
▁शीशे	-14016
▁खोलकर	-14017
▁ग्रेट	-14018
▁जर्नल	-14019
▁त्रास	-14020
▁विस्म	-14021
▁स्थाय	-14022
▁अर्थों	-14023
▁ढूंढने	-14024
▁विचारा	-14025
▁सिद्धि	-14026
▁औषधियों	-14027
▁जाएंगें	-14028
▁जवाबदेही	-14029
▁प्रजातियां	-14030
-18	-14031
ंगण	-14032
ईजी	-14033
सही	-14034
▁9.	-14035
▁टु	-14036
इसकी	-14037
उच्च	-14038
वादा	-14039
सिला	-14040
▁use	-14041
▁आइट	-14042
शियां	-14043
▁कुला	-14044
▁तालि	-14045
▁तिरू	-14046
▁द्रो	-14047
▁नक्ष	-14048
▁माइन	-14049
▁मोनो	-14050
▁उड़ने	-14051
▁उपवास	-14052
▁अन्तरा	-14053
▁न्यासी	-14054
▁दूतावास	-14055
▁मालिकों	-14056
▁विवरणों	-14057
▁शब्दकूट	-14058
▁संकुचित	-14059
▁सुल्तान	-14060
▁अनौपचारिक	-14061
▁पुर्तगाली	-14062
▁स्वतन्त्रता	-14063
to	-14064
धीय	-14065
्राह	-14066
▁आलम	-14067
▁कंठ	-14068
▁छठी	-14069
▁छुप	-14070
▁माई	-14071
▁शिर	-14072
उत्तर	-14073
▁निःश	-14074
▁बतला	-14075
▁यतीम	-14076
▁साँस	-14077
प्रवाह	-14078
▁महोदय	-14079
▁सजाया	-14080
▁जटिलता	-14081
▁निर्मल	-14082
▁अक्षमता	-14083
▁नातेदार	-14084
▁कम्प्यूट	-14085
▁क्रमादेश	-14086
▁निरीक्षक	-14087
▁राष्‍ट्रीय	-14088
▁प्रतिबिंबित	-14089
76	-14090
टू	-14091
जाद	-14092
।--	-14093
▁72	-14094
▁II	-14095
▁\\	-14096
ब्रू	-14097
▁GNU	-14098
▁You	-14099
▁घोल	-14100
▁तले	-14101
▁राइ	-14102
स्कों	-14103
ोपड़ी	-14104
▁HTTP	-14105
▁आवेग	-14106
▁मोहर	-14107
▁gnome	-14108
▁निरोध	-14109
▁बन्दर	-14110
▁साइबर	-14111
▁नेपाली	-14112
▁मन्त्र	-14113
▁निस्पृह	-14114
▁सराहनीय	-14115
▁द्वितीयक	-14116
▁असुरक्षित	-14117
▁स्टार्टअप	-14118
▁विकासात्मक	-14119
५०	-14120
षेक	-14121
सिं	-14122
▁le	-14123
दीकी	-14124
बीसी	-14125
ल्चर	-14126
ूंगी	-14127
▁आसा	-14128
▁घनी	-14129
▁फाल	-14130
▁सिय	-14131
▁बाँट	-14132
▁बेहि	-14133
न्त्री	-14134
▁चुनते	-14135
▁पुतली	-14136
▁मथुरा	-14137
▁सजावट	-14138
▁स्पूल	-14139
▁जोधपुर	-14140
▁प्रिंस	-14141
▁अमेरिकन	-14142
▁दोहराया	-14143
▁औपनिवेशिक	-14144
▁कर्त्तव्य	-14145
▁कार्यनीति	-14146
▁मुद्रास्फीति	-14147
49	-14148
UR	-14149
ैग	-14150
-08	-14151
टेक	-14152
उसने	-14153
दांत	-14154
सेसर	-14155
▁अहा	-14156
▁ज़ब	-14157
▁भाप	-14158
ख़ाना	-14159
ग्राफ	-14160
वासित	-14161
▁क्वा	-14162
▁गर्द	-14163
▁बुझा	-14164
पद्धति	-14165
▁कुछेक	-14166
▁टिकाऊ	-14167
▁दर्पण	-14168
▁मुर्ग	-14169
▁रेशमी	-14170
▁लगाता	-14171
▁सीखते	-14172
ategory	-14173
▁ज़रिये	-14174
▁भ्रष्ट	-14175
▁उपबंधित	-14176
▁पोतन्ना	-14177
▁फॉर्मेट	-14178
▁हाइड्रो	-14179
▁गतिशीलता	-14180
▁तर्कसंगत	-14181
▁म्यांमार	-14182
▁अधिनिर्णय	-14183
▁इंडोनेशिया	-14184
▁शेयरधारकों	-14185
दौ	-14186
सक	-14187
INK	-14188
दीव	-14189
नार	-14190
िके	-14191
urop	-14192
एमपी	-14193
डीसी	-14194
शियम	-14195
्वती	-14196
▁600	-14197
▁क़े	-14198
▁खरा	-14199
▁फटा	-14200
▁राख	-14201
▁१९४	-14202
कार्ब	-14203
न्दरी	-14204
▁कमान	-14205
▁दोगे	-14206
▁बेचा	-14207
▁भृंग	-14208
▁लापर	-14209
▁स्के	-14210
श्मीरी	-14211
▁आकारः	-14212
▁एग्री	-14213
▁गर्भग	-14214
▁चलाते	-14215
▁शिष्यों	-14216
▁उद्घोषणा	-14217
▁माइक्रोस	-14218
▁हिन्दुस्तानी	-14219
38	-14220
अफ़	-14221
स्ड	-14222
सानी	-14223
▁जुन	-14224
▁हें	-14225
क्सीन	-14226
नुसार	-14227
ब्‍दी	-14228
▁अनार	-14229
▁उठती	-14230
▁चांद	-14231
▁थकान	-14232
▁दोहन	-14233
▁माँस	-14234
▁सेमी	-14235
▁२००६	-14236
▁बेजबर	-14237
▁मुझको	-14238
▁उदारता	-14239
▁भाषणों	-14240
▁महानगर	-14241
▁मुहताज	-14242
▁साइटों	-14243
▁सुनाता	-14244
▁प्रत्ये	-14245
▁महासचिव	-14246
▁विशेषतः	-14247
▁संप्रेषण	-14248
▁सर्वोपरि	-14249
▁सामग्रियों	-14250
खना	-14251
जपा	-14252
मास	-14253
सन्	-14254
सरी	-14255
ोंक	-14256
यनों	-14257
समाज	-14258
ादार	-14259
▁139	-14260
▁अथक	-14261
▁एम्	-14262
▁जेब	-14263
▁टॉम	-14264
भावित	-14265
▁उंगल	-14266
▁मीठा	-14267
नेस्को	-14268
प्रेषण	-14269
▁'{0}'	-14270
▁(1956	-14271
▁उलफ़त	-14272
▁कमाने	-14273
▁खौलते	-14274
▁तामील	-14275
▁मौर्य	-14276
▁संभाग	-14277
विभागों	-14278
▁क्षिति	-14279
▁ख़ैरात	-14280
▁सीमाएं	-14281
▁2006-07	-14282
▁अध्यापन	-14283
▁गर्भगृह	-14284
▁विभागीय	-14285
▁शीघ्रता	-14286
▁सूचनाएं	-14287
▁गोपनीयता	-14288
▁विराजमान	-14289
▁शताब्‍दी	-14290
▁अपेक्षाओं	-14291
▁तुल्यकालन	-14292
▁पंक्तिबद्ध	-14293
65	-14294
ET	-14295
NT	-14296
tor	-14297
कोप	-14298
फूल	-14299
हनी	-14300
▁1%	-14301
roup	-14302
अंदा	-14303
जैसा	-14304
नामी	-14305
वाहन	-14306
शेखर	-14307
सिंग	-14308
▁1/2	-14309
▁{1}	-14310
▁निम	-14311
▁सरा	-14312
भांति	-14313
ेक्टर	-14314
▁उभरे	-14315
▁तेरह	-14316
म्बख्त	-14317
▁उद्भव	-14318
▁उल्टा	-14319
▁जवानी	-14320
▁झूठला	-14321
▁देसाई	-14322
▁बुर्द	-14323
▁मुंशी	-14324
न्होंने	-14325
▁जाएगें	-14326
▁निद्रा	-14327
▁प्रकटन	-14328
▁रेड्डी	-14329
▁विमर्श	-14330
▁रिएक्टर	-14331
▁उदासीनता	-14332
▁लाभान्वित	-14333
ive	-14334
टलर	-14335
सां	-14336
▁२६	-14337
ख़ैर	-14338
तबली	-14339
फ़ान	-14340
ाबिल	-14341
▁छुआ	-14342
▁पैक	-14343
▁मनु	-14344
▁रेज	-14345
सुधार	-14346
्मीकि	-14347
▁जेने	-14348
▁दुरा	-14349
▁निगल	-14350
▁साधु	-14351
▁सूरी	-14352
▁काबुल	-14353
▁गुम्ब	-14354
▁ग्रीक	-14355
▁दुष्ट	-14356
▁पठनीय	-14357
▁मलामत	-14358
▁शिथिल	-14359
▁संघों	-14360
▁सीढ़ी	-14361
▁निशाना	-14362
▁बैठकें	-14363
▁सिक्का	-14364
▁दीपावली	-14365
▁दूरदर्शन	-14366
▁निर्यातक	-14367
▁सर्वांगी	-14368
ermissions	-14369
▁ट्रिब्यूनल	-14370
▁तत्वदर्शिता	-14371
▁राष्ट्रमंडल	-14372
२०	-14373
ठाई	-14374
पीओ	-14375
▁धर	-14376
ghan	-14377
menu	-14378
डाउन	-14379
फीक़	-14380
वारा	-14381
▁मरु	-14382
▁लवण	-14383
▁संख	-14384
▁१००	-14385
▁उभरा	-14386
▁जहॉन	-14387
▁डूबो	-14388
▁मरीज	-14389
▁साइड	-14390
युक़्त	-14391
िलिखित	-14392
्तिहान	-14393
▁निकली	-14394
▁पैकेट	-14395
▁फरीक़	-14396
▁बुलाओ	-14397
▁मिर्च	-14398
▁मुख्त	-14399
▁लॉगइन	-14400
▁सचेतन	-14401
▁अंधकार	-14402
▁आकृष्ट	-14403
▁इन्जील	-14404
▁कामगार	-14405
▁कीमतें	-14406
▁कीर्ति	-14407
▁जिबरील	-14408
▁जिलाता	-14409
▁दिलाना	-14410
▁परदाज़	-14411
▁फज़ीलत	-14412
▁वर्जित	-14413
▁मग़फिरत	-14414
आज्ञाकारी	-14415
▁इम्तिहान	-14416
▁प्रतिमान	-14417
▁प्रतिवाद	-14418
▁नाइट्रोजन	-14419
▁राजेन्द्र	-14420
▁अनुकम्पाओं	-14421
▁राष्‍ट्रपति	-14422
‍ध	-14423
14.	-14424
til	-14425
येक	-14426
▁St	-14427
जिकल	-14428
सबसे	-14429
ास्व	-14430
▁ओड़	-14431
▁गैल	-14432
▁भरण	-14433
▁मोम	-14434
ज़ूरी	-14435
ापन्न	-14436
▁1965	-14437
▁1975	-14438
▁घण्ट	-14439
▁पियो	-14440
▁युगल	-14441
▁वृहत	-14442
▁सोचे	-14443
istbox	-14444
▁आईएसओ	-14445
▁इजाजत	-14446
▁उदारी	-14447
▁एटीएम	-14448
▁कठपुत	-14449
▁किफाय	-14450
▁गैसों	-14451
▁अज़ीज़	-14452
▁उपद्रव	-14453
▁ड्यूटी	-14454
▁दांतों	-14455
▁विमानन	-14456
▁घटनाक्रम	-14457
▁जानबूझकर	-14458
▁पहुंचाया	-14459
▁अतिरिक़्त	-14460
▁त्यागपत्र	-14461
▁न्यायसंगत	-14462
▁प्रतिपादन	-14463
▁कनेक्टिविटी	-14464
▁पुनर्निर्माण	-14465
ey	-14466
ma	-14467
डॉ	-14468
key	-14469
मरण	-14470
हाए	-14471
▁41	-14472
भाष्	-14473
▁किट	-14474
▁फंस	-14475
▁सडक	-14476
.2018	-14477
ction	-14478
ोरियम	-14479
▁उनमे	-14480
▁दलित	-14481
▁परिर	-14482
▁रंगः	-14483
इस्लाम	-14484
कारिणी	-14485
संग्रह	-14486
सुविधा	-14487
▁अनजान	-14488
▁उभरती	-14489
▁करतूत	-14490
▁दुर्द	-14491
▁ब्लैक	-14492
▁मनोहर	-14493
▁मौसमी	-14494
▁लद्दा	-14495
▁सुचार	-14496
▁उत्खनन	-14497
▁देखेगा	-14498
▁नागपुर	-14499
▁निभाता	-14500
▁राजकोष	-14501
▁श्रद्ध	-14502
▁तीक्ष्ण	-14503
▁दुरुस्त	-14504
▁पक्षपात	-14505
▁पुनर्जी	-14506
▁मोहब्बत	-14507
▁मुलाक़ात	-14508
▁सम्पादित	-14509
▁हस्तांतरित	-14510
▁सेवानिवृत्त	-14511
sh	-14512
100	-14513
नबी	-14514
बेट	-14515
भंड	-14516
मैप	-14517
स्र	-14518
ानक	-14519
ूरक	-14520
▁आड	-14521
▁खन	-14522
SION	-14523
टीसी	-14524
▁125	-14525
▁ताश	-14526
▁बिज	-14527
▁भया	-14528
▁रूम	-14529
▁अकाल	-14530
▁कैदी	-14531
▁क्ली	-14532
▁टूटी	-14533
▁बोनस	-14534
निकेतन	-14535
▁कालीन	-14536
▁खरीदी	-14537
▁नायडू	-14538
▁निहाल	-14539
▁बाइंड	-14540
▁विध्व	-14541
▁अनुभवी	-14542
▁क़ाबिल	-14543
▁कार्या	-14544
▁पूर्वज	-14545
▁बुकिंग	-14546
▁संकुचन	-14547
▁स्टैंड	-14548
कर्मियों	-14549
▁अनेकाने	-14550
▁चार्ल्स	-14551
▁दुरूस्त	-14552
▁सूचनाएँ	-14553
ghanistan	-14554
▁एचटीएमएल	-14555
▁जनसाधारण	-14556
▁प्रतिबिंब	-14557
▁माननेवाले	-14558
▁पाकिस्तानी	-14559
▁विद्यासागर	-14560
▁प्रतिस्पर्धी	-14561
▁रजिस्ट्रीकरण	-14562
सच	-14563
amp	-14564
ath	-14565
पिन	-14566
फली	-14567
रिस	-14568
ोड़	-14569
▁58	-14570
तोड़	-14571
न्थि	-14572
ष्‍ठ	-14573
ुलकर	-14574
▁The	-14575
▁कॉर	-14576
▁मुल	-14577
▁शंख	-14578
द्रिक	-14579
▁1977	-14580
▁अम्ब	-14581
▁औंधे	-14582
▁कसरत	-14583
▁जनमत	-14584
▁डेढ़	-14585
▁दाता	-14586
▁रोपण	-14587
▁लगना	-14588
▁वज़न	-14589
▁अठारह	-14590
▁आजिज़	-14591
▁प्रान	-14592
▁कृष्णा	-14593
▁छानबीन	-14594
▁निष्का	-14595
▁परिहास	-14596
▁बनाएगा	-14597
▁निधियां	-14598
▁मार्जिन	-14599
▁अनेकानेक	-14600
▁उल्लेखित	-14601
▁प्रतियां	-14602
▁प्रमाणों	-14603
▁साधारणतया	-14604
▁प्रस्तावना	-14605
▁विश्वसनीयता	-14606
-14	-14607
ख्व	-14608
दून	-14609
ware	-14610
साधक	-14611
▁180	-14612
▁दाद	-14613
▁धुन	-14614
▁भती	-14615
▁हुम	-14616
शांति	-14617
▁कैले	-14618
▁लाती	-14619
▁स्‍व	-14620
कालयों	-14621
ड़ियाँ	-14622
▁आत्मक	-14623
▁घोड़ा	-14624
▁ढाँचा	-14625
▁तुझसे	-14626
▁पेयजल	-14627
▁वरदान	-14628
राज्यों	-14629
▁कैरियर	-14630
▁ग्रामो	-14631
▁विषाणु	-14632
▁सम्मेल	-14633
▁General	-14634
▁अद्यतनी	-14635
▁प्रभारी	-14636
▁विमानों	-14637
lo	-14638
रथ	-14639
एगी	-14640
फ़ल	-14641
फ्ल	-14642
सभी	-14643
न्यू	-14644
पीयू	-14645
▁कोच	-14646
▁गान	-14647
▁तड़	-14648
▁1984	-14649
▁कन्व	-14650
▁टीके	-14651
▁नुत्	-14652
▁शोधन	-14653
▁संयम	-14654
▁असहाय	-14655
▁कहावत	-14656
▁जहाज़	-14657
▁दुसरे	-14658
▁बागान	-14659
▁लौटते	-14660
▁सस्ता	-14661
oftware	-14662
▁छात्रा	-14663
▁बॉम्बे	-14664
▁मैनुअल	-14665
▁रहूँगा	-14666
▁राजपूत	-14667
▁विवेचन	-14668
▁शौचालय	-14669
▁सातवीं	-14670
▁हुज़ूर	-14671
▁अभियोजन	-14672
▁कंट्रोल	-14673
▁गुरुदेव	-14674
▁मिसालें	-14675
▁सर्वत्र	-14676
▁सिलसिला	-14677
▁अमानतदार	-14678
▁उदाहरणों	-14679
▁मानसिकता	-14680
▁प्रकाशनों	-14681
▁परिसंपत्ति	-14682
नॉ	-14683
zil	-14684
ईसी	-14685
कहा	-14686
ग़ु	-14687
गुल	-14688
डाक	-14689
हीम	-14690
atus	-14691
enef	-14692
ंगनी	-14693
प्रौ	-14694
समान	-14695
हाने	-14696
▁ढील	-14697
▁रमण	-14698
शीघ्र	-14699
▁अनभि	-14700
▁उतरी	-14701
▁औसतन	-14702
▁करोड	-14703
▁टेबल	-14704
▁मॉनी	-14705
▁लंका	-14706
▁लेखे	-14707
▁हथकर	-14708
अंग्रे	-14709
नमार्क	-14710
विरोधी	-14711
स्‍तुत	-14712
▁धर्मा	-14713
▁नलिका	-14714
▁फसलें	-14715
तुम्हें	-14716
▁नदियां	-14717
▁ब्यौरा	-14718
▁महत्तर	-14719
▁रेटिंग	-14720
▁शिवाजी	-14721
▁कीटनाशक	-14722
▁कोल्हटकर	-14723
▁तत्त्वों	-14724
▁उन्नीसवीं	-14725
▁कॉर्पोरेट	-14726
ूड	-14727
-2.	-14728
16.	-14729
इसे	-14730
कूद	-14731
ट्ठ	-14732
तीब	-14733
▁1:	-14734
▁भो	-14735
कार्	-14736
चारे	-14737
जिंग	-14738
ध्वा	-14739
विड़	-14740
▁269	-14741
▁अक़	-14742
▁ऋणी	-14743
▁बरफ	-14744
गाहों	-14745
धर्मी	-14746
फिरों	-14747
रिलिक	-14748
लैण्ड	-14749
वर्धक	-14750
िकाने	-14751
▁आदिम	-14752
▁एसिड	-14753
▁ख़री	-14754
▁जलीय	-14755
▁ढाँक	-14756
▁रंजन	-14757
▁लाला	-14758
▁लेटे	-14759
▁खजाने	-14760
▁फेरकर	-14761
▁भरोसे	-14762
▁राजेश	-14763
▁साहित	-14764
PRODUCT	-14765
व्यापार	-14766
▁अद्वैत	-14767
▁असीमित	-14768
▁गणितीय	-14769
▁जहाजों	-14770
▁नदियाँ	-14771
▁सद्भाव	-14772
▁प्रकाशक	-14773
▁प्रतीका	-14774
▁मार्टिन	-14775
▁परित्याग	-14776
▁रूपान्तर	-14777
▁संतुष्टि	-14778
▁सम्मेलनों	-14779
▁नर्मदाशंकर	-14780
▁अंतःस्थापित	-14781
lib	-14782
.200	-14783
अन्य	-14784
रियल	-14785
ल्लू	-14786
हमति	-14787
▁अमा	-14788
▁कौम	-14789
▁बढे	-14790
कुदरत	-14791
चुपके	-14792
फ्तार	-14793
वाजों	-14794
▁1955	-14795
▁औरों	-14796
▁घुसा	-14797
▁जब्त	-14798
▁मतों	-14799
▁वहॉँ	-14800
enefit	-14801
▁अजनबी	-14802
▁अनगिन	-14803
▁आरज़ू	-14804
▁किसके	-14805
▁क्षीण	-14806
▁जाग्र	-14807
▁डिस्प	-14808
▁बेरोज	-14809
▁सेंटी	-14810
▁चार्टर	-14811
▁परिसंघ	-14812
▁महत्‍व	-14813
▁शनिवार	-14814
▁उपलब्‍ध	-14815
▁निगाहें	-14816
▁पहुंचना	-14817
▁अस्पृश्य	-14818
▁प्रस्‍तुत	-14819
ंबी	-14820
उधर	-14821
बढ़	-14822
▁07	-14823
▁la	-14824
▁र्	-14825
गुरु	-14826
फ्रा	-14827
बैंक	-14828
िज्म	-14829
िताब	-14830
▁टूर	-14831
▁दीख	-14832
▁बहर	-14833
▁लटक	-14834
खास्त	-14835
ब्बुर	-14836
▁1963	-14837
▁अधिश	-14838
▁खंडन	-14839
▁जाली	-14840
▁दैवी	-14841
▁धीमा	-14842
▁पितृ	-14843
▁भीषण	-14844
▁भूले	-14845
▁माफी	-14846
▁रिंग	-14847
▁संचय	-14848
प्रिंट	-14849
▁क़ीमत	-14850
▁मंचों	-14851
▁संकोच	-14852
▁सिडबी	-14853
▁अविश्व	-14854
▁चमकदार	-14855
▁दूरभाष	-14856
▁यादगार	-14857
▁नापसन्द	-14858
▁परिजनों	-14859
▁विलुप्त	-14860
▁शैलियों	-14861
▁अतिक्रमण	-14862
▁देशभक्ति	-14863
▁निर्धनता	-14864
▁प्रदूषित	-14865
▁परिलक्षित	-14866
▁बल्लेबाजी	-14867
▁कार्यनीतिक	-14868
▁निम्नानुसार	-14869
▁वास्तुशिल्प	-14870
-09	-14871
खलन	-14872
बनी	-14873
शरी	-14874
स्वर	-14875
▁(30	-14876
▁ऑयल	-14877
▁जाम	-14878
▁पूल	-14879
ख्यान	-14880
ठासीन	-14881
र्करा	-14882
वाड़ा	-14883
सिर्फ	-14884
▁1920	-14885
▁1981	-14886
▁menu	-14887
▁मेजर	-14888
▁अन्धे	-14889
▁चालुक	-14890
▁चिंघा	-14891
▁पकाने	-14892
▁सेमिन	-14893
ान्तरित	-14894
▁कृषकों	-14895
▁निकलें	-14896
▁निरूपण	-14897
▁बर्ताव	-14898
▁मिलाया	-14899
अनुच्छेद	-14900
▁कार्रवा	-14901
▁विकल्पः	-14902
▁ऑब्जेक्ट	-14903
▁रिपब्लिक	-14904
▁सामान्यत	-14905
▁सम्प्रदाय	-14906
red	-14907
टीई	-14908
भरे	-14909
▁74	-14910
▁अघ	-14911
▁☻☻	-14912
पट्ट	-14913
▁एंप	-14914
▁डाँ	-14915
▁पिक	-14916
▁पॉव	-14917
▁1908	-14918
▁अभिश	-14919
▁काटे	-14920
▁डराए	-14921
▁दफ्त	-14922
▁पेटी	-14923
▁फेडर	-14924
▁मल्ल	-14925
▁मुखौ	-14926
▁मेरु	-14927
▁यूरे	-14928
▁रीढ़	-14929
▁शुऐब	-14930
▁हैंड	-14931
▁कंधों	-14932
▁कीमती	-14933
▁खींचा	-14934
▁परिणत	-14935
▁बांटा	-14936
▁मध्या	-14937
▁संभोग	-14938
▁उदयपुर	-14939
▁चिराग़	-14940
▁कश्मीरी	-14941
▁राजशाही	-14942
▁उपेक्षित	-14943
▁परमेश्वर	-14944
▁सर्वांगीण	-14945
▁पुष्पांजलि	-14946
Con	-14947
ord	-14948
ूको	-14949
▁68	-14950
▁२१	-14951
गलों	-14952
ज़रा	-14953
मयिक	-14954
र्मर	-14955
वादन	-14956
▁आधि	-14957
▁गड्	-14958
▁बची	-14959
▁सूद	-14960
▁1942	-14961
▁आमने	-14962
▁काना	-14963
▁गोल्	-14964
▁पायल	-14965
▁बूझे	-14966
▁मसख़	-14967
▁वंशज	-14968
स्वरुप	-14969
▁अभिनव	-14970
▁आपूर्	-14971
▁कोनों	-14972
▁ज़िना	-14973
▁नोटों	-14974
▁प्लान	-14975
▁फैक्स	-14976
▁लेखकः	-14977
▁विनिय	-14978
▁स्पैम	-14979
▁Public	-14980
▁आईआईटी	-14981
▁चश्में	-14982
▁चुकौती	-14983
▁देखिये	-14984
▁पैमाना	-14985
▁प्रत्‍	-14986
▁महानता	-14987
▁मार्शल	-14988
▁विभक्त	-14989
▁टेक्स्ट	-14990
र्विज्ञान	-14991
▁अंटार्कट	-14992
▁संख्याओं	-14993
पैग़म्बरों	-14994
ts	-14995
गै	-14996
जग	-14997
ोपन	-14998
ौली	-14999
इसका	-15000
चिकर	-15001
शन्स	-15002
ियोप	-15003
▁mon	-15004
▁उपल	-15005
▁नशी	-15006
▁पिच	-15007
▁भाष	-15008
Count	-15009
कुफ्र	-15010
मार्क	-15011
सामने	-15012
▁1962	-15013
▁कॉले	-15014
▁फकीर	-15015
▁बिंद	-15016
▁बीएस	-15017
▁लेंस	-15018
स्थानी	-15019
▁घटाकर	-15020
▁तेलंग	-15021
▁श्रवण	-15022
▁संगमर	-15023
▁गोविंद	-15024
▁निर्बल	-15025
▁फ्रेंच	-15026
▁वायुयान	-15027
▁इलैक्ट्र	-15028
▁वायुसेना	-15029
▁संशोधनों	-15030
▁कार्यसूची	-15031
▁उपमहाद्वीप	-15032
▁दृष्टिगोचर	-15033
▁पुरस्कारों	-15034
")	-15035
इम	-15036
ॉं	-15037
13.	-15038
ost	-15039
शमन	-15040
ायु	-15041
ेंग	-15042
एफआर	-15043
पर्व	-15044
▁1.5	-15045
▁एसी	-15046
▁ढका	-15047
▁पाम	-15048
▁बुझ	-15049
▁हर्	-15050
older	-15051
प्तान	-15052
▁1857	-15053
▁1945	-15054
▁1978	-15055
▁उठना	-15056
▁जुडे	-15057
▁नवयु	-15058
▁पठित	-15059
▁बहके	-15060
▁सपाट	-15061
अज़ाबे	-15062
कुफ़्र	-15063
दिहानी	-15064
▁जलाने	-15065
▁दिलाओ	-15066
▁दूषित	-15067
▁नसारा	-15068
▁बुख्ल	-15069
▁यौगिक	-15070
▁विखंड	-15071
केन्द्र	-15072
ख़तेयार	-15073
त्मेनान	-15074
▁क़िबले	-15075
▁फ़रवरी	-15076
▁अन्यत्र	-15077
▁ख़ज़ाने	-15078
▁निवृत्त	-15079
▁पीठासीन	-15080
▁बेटियों	-15081
▁बेहिसाब	-15082
▁वैचारिक	-15083
▁सेनापति	-15084
▁अध्यापकों	-15085
▁कारगुज़ार	-15086
▁कार्यपालक	-15087
▁प्रयत्नों	-15088
▁मुन्तज़िर	-15089
▁याददिहानी	-15090
▁उत्तमकारों	-15091
▁सुप्रसिद्ध	-15092
▁दुर्भाग्यवश	-15093
▁साम्प्रदायिक	-15094
32	-15095
In	-15096
dr	-15097
▁hO	-15098
▁फॅ	-15099
ंस्य	-15100
आईपी	-15101
बख्श	-15102
▁सुष	-15103
ारिटी	-15104
▁अराज	-15105
▁झाड़	-15106
▁धागे	-15107
▁पारी	-15108
▁बारा	-15109
▁मकसद	-15110
▁लुत्	-15111
▁समयः	-15112
▁स्वय	-15113
▁अधिरो	-15114
▁अनोखी	-15115
▁कैम्प	-15116
▁खोजना	-15117
▁गुलाब	-15118
▁जड़ों	-15119
▁वालिद	-15120
▁कक्षों	-15121
▁खासतौर	-15122
▁संबधित	-15123
▁क्रीड़ा	-15124
▁परीक्षक	-15125
प्रक्रिया	-15126
▁साइरिलिक	-15127
DE	-15128
ंरभ	-15129
गरण	-15130
▁इज	-15131
▁ऐल	-15132
▁घू	-15133
▁लल	-15134
lect	-15135
वेदी	-15136
▁फेल	-15137
▁रहस	-15138
कुमार	-15139
ग्रही	-15140
रक्षक	-15141
रीकरण	-15142
स्टेट	-15143
स्तंभ	-15144
ोत्सव	-15145
▁धमनी	-15146
▁बंधे	-15147
▁मोचन	-15148
▁संकर	-15149
▁सामी	-15150
▁सैयद	-15151
▁सोया	-15152
▁color	-15153
▁फूँका	-15154
▁रामान	-15155
▁इजराइल	-15156
▁आत्मकथा	-15157
▁ईर्ष्या	-15158
▁पहुँचना	-15159
▁सेंट्रल	-15160
▁चट्टानों	-15161
▁रहनेवाली	-15162
▁शुक्रवार	-15163
▁समामेलित	-15164
▁कांग्रेसी	-15165
▁वृत्तान्त	-15166
▁प्रतिस्थापन	-15167
▁हिंदुस्तानी	-15168
ॉम	-15169
oll	-15170
ual	-15171
सरा	-15172
▁घी	-15173
▁रग	-15174
टलुक	-15175
तानी	-15176
पाती	-15177
मिला	-15178
सवार	-15179
िंगर	-15180
▁कवच	-15181
▁ज़ा	-15182
▁मृद	-15183
हमेशा	-15184
▁आइटम	-15185
▁खाती	-15186
▁गोबर	-15187
▁राशन	-15188
▁साधक	-15189
▁अनवरत	-15190
▁आठवीं	-15191
▁ईस्वी	-15192
▁छुट्ट	-15193
▁दिखती	-15194
▁देशभर	-15195
▁माइकल	-15196
ट्रिक्स	-15197
▁जीवन्त	-15198
▁लाइनों	-15199
▁सीवीएस	-15200
▁सुधारक	-15201
क्रिप्शन	-15202
▁अवरुद्ध	-15203
▁पार्वती	-15204
▁प्रवृति	-15205
▁वॉल्यूम	-15206
▁क्रमबद्ध	-15207
▁प्रमुखों	-15208
▁प्रकाशमान	-15209
▁विशेषताएँ	-15210
▁उम्मीदवारों	-15211
CC	-15212
बक	-15213
बम	-15214
रव	-15215
डिय	-15216
भरी	-15217
▁छी	-15218
▁२४	-15219
आईबी	-15220
मानव	-15221
मापी	-15222
स्रा	-15223
िटरी	-15224
▁कटक	-15225
▁कण्	-15226
▁खरे	-15227
▁टॉप	-15228
▁दूं	-15229
▁मिर	-15230
▁मैक	-15231
▁युव	-15232
▁हकी	-15233
त्तों	-15234
हत्या	-15235
▁कणों	-15236
▁करूं	-15237
▁घंटी	-15238
▁निशा	-15239
विदेशी	-15240
▁अंशों	-15241
▁उल्टे	-15242
▁धक्का	-15243
▁पत्रक	-15244
▁बेचैन	-15245
▁राहुल	-15246
▁विरूप	-15247
▁वेदना	-15248
▁व्यभि	-15249
▁हज़रत	-15250
मुस्लिम	-15251
स्वार्थ	-15252
▁1.4.19	-15253
▁button	-15254
▁अनाथों	-15255
▁उदात्त	-15256
▁कन्नड़	-15257
▁अवमानना	-15258
▁कोरियाई	-15259
▁पदोन्नति	-15260
▁प्राथमिकताओं	-15261
ana	-15262
ंभी	-15263
ट्य	-15264
िपल	-15265
▁झट	-15266
ance	-15267
व्‍य	-15268
▁उके	-15269
▁कवक	-15270
▁घटी	-15271
▁जलन	-15272
▁तूर	-15273
▁नशे	-15274
▁पिल	-15275
▁मदन	-15276
▁हिच	-15277
वृक्ष	-15278
संख्य	-15279
▁1935	-15280
▁ग़ैर	-15281
▁धड़क	-15282
▁पराग	-15283
▁सहने	-15284
▁सिला	-15285
▁इस्ती	-15286
▁जिंदा	-15287
▁तलाशी	-15288
▁तिब्ब	-15289
▁शिमला	-15290
▁साइंस	-15291
वार्षिक	-15292
▁एकाधिक	-15293
▁कप्तान	-15294
▁रियासत	-15295
▁सितारे	-15296
▁महारानी	-15297
▁मौद्रिक	-15298
▁संगमरमर	-15299
▁सिक्कों	-15300
व्यवस्थित	-15301
▁वृद्धावस्था	-15302
▁आयुर्विज्ञान	-15303
-(	-15304
AL	-15305
तट	-15306
नै	-15307
सऋ	-15308
Cal	-15309
ram	-15310
ज्म	-15311
डें	-15312
ुली	-15313
▁${	-15314
▁(7	-15315
जन्म	-15316
मेशन	-15317
▁केक	-15318
▁गूँ	-15319
▁तज़	-15320
▁थें	-15321
▁नमा	-15322
▁पका	-15323
▁फिस	-15324
▁समन	-15325
state	-15326
बन्धु	-15327
▁1939	-15328
▁कड़े	-15329
▁निरु	-15330
▁फायद	-15331
▁बचते	-15332
▁बालू	-15333
मंडलों	-15334
िबंधीय	-15335
▁चुम्ब	-15336
▁जागरण	-15337
▁जातीं	-15338
▁जुनून	-15339
▁ब्लॉग	-15340
▁भाजपा	-15341
▁भावों	-15342
▁सस्ते	-15343
ऑक्साइड	-15344
धारियों	-15345
▁कठोरता	-15346
▁काउंटर	-15347
▁कार्यो	-15348
▁निभाते	-15349
▁प्लांट	-15350
▁सवालों	-15351
▁अनुषंगी	-15352
▁पक्षकार	-15353
▁आकृतियों	-15354
▁क्रोमियम	-15355
▁परिचालित	-15356
▁वरीयताएँ	-15357
▁औजारपट्टी	-15358
▁टेक्नोलॉजी	-15359
▁परिवर्तनीय	-15360
▁स्थानापन्न	-15361
▁अर्थव्यवस्थाओं	-15362
झू	-15363
ोभ	-15364
▁59	-15365
▁ढे	-15366
▁मग	-15367
▁२३	-15368
कांग	-15369
नाशी	-15370
पाटी	-15371
सारी	-15372
ोज्य	-15373
▁चूह	-15374
मान्त	-15375
मिस्र	-15376
ोनियम	-15377
▁file	-15378
▁आइसल	-15379
▁इमेज	-15380
▁दीपक	-15381
▁नकार	-15382
▁बाबर	-15383
▁लालच	-15384
▁लोहा	-15385
▁शौहर	-15386
मोबाइल	-15387
▁उल्टी	-15388
▁ग़रीब	-15389
▁नापाक	-15390
▁नोट्स	-15391
▁बुर्ज	-15392
▁बेमेल	-15393
▁तुम्ही	-15394
▁पूछेगा	-15395
▁रिचर्ड	-15396
▁सिगरेट	-15397
▁नर्सिंग	-15398
▁यंत्रों	-15399
▁अनुज्ञेय	-15400
▁तस्वीरें	-15401
▁अधिष्ठापित	-15402
37	-15403
मश	-15404
ुख	-15405
▁कफ	-15406
आरएस	-15407
रेखण	-15408
लीला	-15409
वेरी	-15410
▁ग्न	-15411
▁पों	-15412
▁केले	-15413
▁गांठ	-15414
▁गाजा	-15415
▁झुकी	-15416
▁सूफी	-15417
न्द्रह	-15418
▁अधूरा	-15419
▁आरोहण	-15420
▁क्रॉस	-15421
▁चिकनी	-15422
▁दबाने	-15423
▁बन्दी	-15424
▁विजयन	-15425
▁व्यंज	-15426
▁ह्रदय	-15427
▁अनगिनत	-15428
▁रचनाएं	-15429
▁सुशासन	-15430
▁ऑक्सीजन	-15431
▁ऑप्टिकल	-15432
▁कविताएँ	-15433
▁चिंताओं	-15434
▁पुत्रों	-15435
▁स्थानिक	-15436
▁निर्देशन	-15437
▁स्वराज्य	-15438
▁चमत्कारों	-15439
▁प्रोसेसिंग	-15440
▁ब्राह्मणों	-15441
▁राजनीतिज्ञ	-15442
▁सूक्ष्मदर्शी	-15443
".	-15444
per	-15445
नाद	-15446
लिफ	-15447
ालु	-15448
यहूद	-15449
वासन	-15450
ोलिक	-15451
▁50%	-15452
▁अवर	-15453
▁एप्	-15454
▁जेट	-15455
▁डाई	-15456
▁तरस	-15457
▁बुध	-15458
▁हाय	-15459
italy	-15460
स्पेस	-15461
▁उदास	-15462
▁उलझन	-15463
▁क़ार	-15464
▁परले	-15465
▁पर्स	-15466
▁मुन्	-15467
▁मेधा	-15468
▁रूपा	-15469
▁वाटर	-15470
उदाहरण	-15471
▁खरीदा	-15472
▁चमकता	-15473
▁दुर्व	-15474
▁बिन्द	-15475
▁भारित	-15476
▁50,000	-15477
▁इनसाफ़	-15478
▁कमियों	-15479
▁गर्दिश	-15480
▁निकालो	-15481
▁मद्देन	-15482
▁मोर्चा	-15483
▁सूरदास	-15484
▁सूर्या	-15485
▁सेकण्ड	-15486
राष्ट्री	-15487
▁क्षुद्र	-15488
▁बुजुर्ग	-15489
▁समयावधि	-15490
▁संग्रहीत	-15491
▁अल्पकालिक	-15492
▁उत्पादकों	-15493
/0	-15494
aj	-15495
आग	-15496
।।	-15497
आदम	-15498
डेल	-15499
lock	-15500
विले	-15501
सबको	-15502
▁int	-15503
▁आइस	-15504
▁मरो	-15505
▁रपट	-15506
▁सजग	-15507
▁हज़	-15508
-2-2.	-15509
लेकिन	-15510
स्‍था	-15511
▁क्रि	-15512
▁खेले	-15513
▁छापा	-15514
▁जलने	-15515
▁तुर्	-15516
▁थोडा	-15517
▁दाँत	-15518
▁धनुष	-15519
▁२००५	-15520
कोशिका	-15521
▁उर्जा	-15522
▁चौबीस	-15523
▁ताबीर	-15524
▁पक्षा	-15525
▁पैलेस	-15526
▁पोषित	-15527
▁प्यास	-15528
▁	-15529
ा	-15530
क	-15531
र	-15532
े	-15533
्	-15534
न	-15535
ि	-15536
स	-15537
त	-15538
ह	-15539
ं	-15540
ी	-15541
म	-15542
ो	-15543
य	-15544
प	-15545
ल	-15546
व	-15547
द	-15548
ज	-15549
ु	-15550
ग	-15551
ब	-15552
ै	-15553
अ	-15554
श	-15555
ए	-15556
उ	-15557
च	-15558
़	-15559
भ	-15560
ू	-15561
।	-15562
ट	-15563
औ	-15564
,	-15565
ध	-15566
थ	-15567
ख	-15568
ष	-15569
आ	-15570
ड	-15571
इ	-15572
ण	-15573
फ	-15574
(	-15575
)	-15576
.	-15577
ई	-15578
-	-15579
छ	-15580
ँ	-15581
1	-15582
ृ	-15583
ौ	-15584
0	-15585
ओ	-15586
ठ	-15587
e	-15588
2	-15589
ऐ	-15590
a	-15591
घ	-15592
झ	-15593
i	-15594
à	-15595
t	-15596
ढ	-15597
n	-15598
"	-15599
o	-15600
ः	-15601
ॉ	-15602
s	-15603
¤	-15604
4	-15605
r	-15606
9	-15607
3	-15608
/	-15609
5	-15610
'	-15611
ञ	-15612
l	-15613
?	-15614
m	-15615
;	-15616
%	-15617
8	-15618
:	-15619
6	-15620
ऊ	-15621
p	-15622
7	-15623
d	-15624
h	-15625
c	-15626
_	-15627
‍	-15628
u	-15629
!	-15630
b	-15631
g	-15632
¥	-15633
ऋ	-15634
ऑ	-15635
C	-15636
y	-15637
S	-15638
A	-15639
०	-15640
१	-15641
N	-15642
k	-15643
I	-15644
f	-15645
w	-15646
T	-15647
M	-15648
#	-15649
‘	-15650
”	-15651
R	-15652
P	-15653
E	-15654
’	-15655
v	-15656
D	-15657
L	-15658
२	-15659
>	-15660
O	-15661
&	-15662
“	-15663
⁄	-15664
x	-15665
९	-15666
F	-15667
	-15668
B	-15669
–	-15670
°	-15671
<	-15672
U	-15673
	-15674
	-15675
५	-15676
G	-15677
३	-15678
८	-15679
H	-15680
@	-15681
	-15682
६	-15683
४	-15684
{	-15685
}	-15686
७	-15687
̧	-15688
j	-15689
]	-15690
¿	-15691
̈	-15692
\	-15693
ॅ	-15694
[	-15695
V	-15696
ङ	-15697
W	-15698
Y	-15699
®	-15700
K	-15701
X	-15702
	-15703
Z	-15704
+	-15705
̄	-15706
q	-15707
	-15708
=	-15709
॰	-15710
z	-15711
ऱ	-15712
μ	-15713
*	-15714
Q	-15715
	-15716
¦	-15717
ऍ	-15718
	-15719
	-15720
—	-15721
¡	-15722
	-15723
«	-15724
ॊ	-15725
J	-15726
¬	-15727
ॆ	-15728
`	-15729
¶	-15730
☻	-15731
	-15732
$	-15733
·	-15734
	-15735
ळ	-15736
	-15737
	-15738
~	-15739
	-15740
É	-15741
£	-15742
	-15743
§	-15744
|	-15745
॥	-15746
ऎ	-15747
ऩ	-15748
	-15749
¢	-15750
×	-15751
☺	-15752
ॄ	-15753
	-15754
©	-15755
^	-15756
é	-15757
Â	-15758
♪	-15759
ţ	-15760
	-15761
ň	-15762
	-15763
и	-15764
ú	-15765
ä	-15766
̋	-15767
	-15768
♫	-15769
ऌ	-15770
	-15771
ş	-15772
ő	-15773
ॠ	-15774
₹	-15775
	-15776
Ž	-15777
•	-15778
॔	-15779
ऴ	-15780
ऽ	-15781
	-15782
Ň	-15783
ˇ	-15784
ऒ	-15785
′	-15786
Θ	-15787
Ę	-15788
	-15789
̊	-15790
ö	-15791
́	-15792
ů	-15793
Ş	-15794
॒	-15795
Ч	-15796
̇	-15797
ل	-15798
ॐ	-15799
	-15800
±	-15801
č	-15802
Ĺ	-15803
ا	-15804
র	-15805
্	-15806
■	-15807
	-15808
Ç	-15809
‡	-15810
−	-15811
ò	-15812
ą	-15813
Ć	-15814
ĺ	-15815
॑	-15816
š	-15817
ॣ	-15818
ন	-15819
া	-15820
ু	-15821
√	-15822
â	-15823
÷	-15824
è	-15825
ü	-15826
ώ	-15827
Ó	-15828
π	-15829
ñ	-15830
م	-15831
দ	-15832
ব	-15833
স	-15834
ι	-15835
⇒	-15836
Ð	-15837
Ö	-15838
Ś	-15839
→	-15840
þ	-15841
ś	-15842
̨	-15843
θ	-15844
Т	-15845
ॡ	-15846
─	-15847
Î	-15848
ā	-15849
Δ	-15850
β	-15851
С	-15852
س	-15853
†	-15854
≤	-15855
Ú	-15856
í	-15857
ŕ	-15858
آ	-15859
إ	-15860
ت	-15861
ج	-15862
ح	-15863
ر	-15864
ق	-15865
ن	-15866
ক	-15867
চ	-15868
ঠ	-15869
থ	-15870
ভ	-15871
ষ	-15872
ী	-15873
中	-15874
國	-15875
Ü	-15876
á	-15877
ç	-15878
ó	-15879
ī	-15880
φ	-15881
‐	-15882
秦	-15883
	-15884
Ä	-15885
Æ	-15886
Ľ	-15887
ř	-15888
Ω	-15889
τ	-15890
е	-15891
،	-15892
„	-15893
€	-15894
∕	-15895
≥	-15896
➣	-15897
	-15898
￼	-15899
	-15900
­	-15901
Ê	-15902
å	-15903
õ	-15904
Ă	-15905
Ą	-15906
Ě	-15907
ł	-15908
Ţ	-15909
Ż	-15910
ż	-15911
ž	-15912
ː	-15913
ͧ	-15914
Λ	-15915
λ	-15916
ν	-15917
ψ	-15918
У	-15919
а	-15920
ж	-15921
н	-15922
р	-15923
―	-15924
∂	-15925
⏎	-15926
か	-15927
な	-15928
字	-15929
漢	-15930
	-15931
Ô	-15932
Û	-15933
æ	-15934
ù	-15935
ý	-15936
ć	-15937
Č	-15938
ď	-15939
ě	-15940
ģ	-15941
ı	-15942
ľ	-15943
Š	-15944
Ť	-15945
ť	-15946
ű	-15947
ɓ	-15948
ɪ	-15949
ʼ	-15950
̃	-15951
̪	-15952
Π	-15953
α	-15954
γ	-15955
η	-15956
κ	-15957
ω	-15958
Ѕ	-15959
А	-15960
Д	-15961
в	-15962
д	-15963
й	-15964
о	-15965
п	-15966
ю	-15967
є	-15968
֦	-15969
ֹ	-15970
׃	-15971
د	-15972
ی	-15973
॓	-15974
ਦ	-15975
ਲ	-15976
ਿ	-15977
ੀ	-15978
ੱ	-15979
પ	-15980
બ	-15981
ા	-15982
ુ	-15983
‚	-15984
∞	-15985
∣	-15986
∨	-15987
≠	-15988
⌈	-15989
⌉	-15990
⌊	-15991
⌋	-15992
⌘	-15993
═	-15994
堀	-15995
