[PAD]	0
[UNK]	0
[SOS]	0
[EOS]	0
▁t	-0
he	-1
▁a	-2
in	-3
▁the	-4
▁o	-5
re	-6
er	-7
▁s	-8
nd	-9
▁w	-10
at	-11
on	-12
is	-13
en	-14
▁of	-15
it	-16
▁c	-17
▁b	-18
or	-19
es	-20
▁f	-21
ed	-22
ou	-23
▁p	-24
an	-25
al	-26
ar	-27
▁in	-28
▁and	-29
ing	-30
▁to	-31
▁m	-32
▁d	-33
ion	-34
▁h	-35
as	-36
ic	-37
le	-38
om	-39
▁th	-40
ent	-41
ll	-42
▁n	-43
▁A	-44
▁T	-45
▁be	-46
ve	-47
▁e	-48
▁I	-49
ct	-50
▁re	-51
▁is	-52
▁S	-53
ro	-54
▁l	-55
st	-56
▁y	-57
ot	-58
▁g	-59
ut	-60
id	-61
se	-62
▁for	-63
ation	-64
ur	-65
im	-66
▁wh	-67
ce	-68
ay	-69
ly	-70
ad	-71
▁you	-72
ver	-73
▁u	-74
ow	-75
▁The	-76
am	-77
▁on	-78
▁C	-79
▁P	-80
▁M	-81
et	-82
▁H	-83
ir	-84
il	-85
▁-	-86
ig	-87
▁that	-88
ch	-89
▁he	-90
ment	-91
▁B	-92
ith	-93
ol	-94
▁it	-95
▁as	-96
▁(	-97
ra	-98
ill	-99
▁an	-100
▁or	-101
od	-102
▁not	-103
if	-104
▁W	-105
▁st	-106
ess	-107
ul	-108
▁with	-109
ter	-110
▁are	-111
ri	-112
ge	-113
▁de	-114
▁ha	-115
her	-116
▁pro	-117
▁G	-118
▁D	-119
▁con	-120
ate	-121
▁su	-122
▁we	-123
ld	-124
▁R	-125
▁se	-126
rom	-127
ab	-128
res	-129
op	-130
ers	-131
▁'	-132
th	-133
ak	-134
nt	-135
▁L	-136
▁com	-137
▁by	-138
ist	-139
▁sh	-140
▁1	-141
pe	-142
ain	-143
ht	-144
▁N	-145
▁was	-146
▁have	-147
▁they	-148
▁from	-149
▁ex	-150
iv	-151
▁them	-152
▁will	-153
est	-154
all	-155
ity	-156
us	-157
em	-158
and	-159
▁O	-160
▁who	-161
ah	-162
▁v	-163
▁E	-164
▁F	-165
▁this	-166
ore	-167
ich	-168
ive	-169
ie	-170
ant	-171
ac	-172
um	-173
▁k	-174
▁Ind	-175
qu	-176
▁has	-177
ction	-178
▁r	-179
pp	-180
▁He	-181
ies	-182
▁at	-183
art	-184
ure	-185
os	-186
▁which	-187
un	-188
ia	-189
ould	-190
ort	-191
▁All	-192
▁their	-193
el	-194
ard	-195
oc	-196
▁ne	-197
ight	-198
red	-199
our	-200
▁his	-201
ord	-202
▁al	-203
ind	-204
pt	-205
ous	-206
▁all	-207
ose	-208
▁le	-209
ust	-210
▁ch	-211
te	-212
ther	-213
▁2	-214
▁do	-215
▁In	-216
▁whe	-217
▁K	-218
ong	-219
ud	-220
ag	-221
age	-222
ial	-223
ome	-224
▁Allah	-225
▁Th	-226
▁tr	-227
▁And	-228
▁We	-229
▁wor	-230
cc	-231
ated	-232
▁U	-233
ance	-234
ount	-235
▁your	-236
▁me	-237
▁sa	-238
▁pl	-239
▁go	-240
ip	-241
ect	-242
▁dis	-243
ans	-244
▁ab	-245
rou	-246
av	-247
ast	-248
ear	-249
▁us	-250
▁India	-251
ide	-252
ost	-253
ry	-254
able	-255
▁can	-256
▁any	-257
ff	-258
▁im	-259
▁there	-260
ame	-261
ok	-262
▁pe	-263
▁but	-264
▁un	-265
nder	-266
now	-267
▁comp	-268
▁ad	-269
▁en	-270
▁man	-271
▁up	-272
ish	-273
▁one	-274
ary	-275
▁him	-276
ap	-277
og	-278
▁j	-279
▁so	-280
ult	-281
▁been	-282
ice	-283
▁"	-284
▁other	-285
▁per	-286
▁J	-287
so	-288
▁V	-289
out	-290
ople	-291
one	-292
▁were	-293
▁res	-294
ical	-295
ru	-296
per	-297
ik	-298
ence	-299
au	-300
ions	-301
gh	-302
▁had	-303
▁It	-304
▁cont	-305
ib	-306
ire	-307
pl	-308
▁those	-309
00	-310
ress	-311
iz	-312
vel	-313
▁am	-314
▁when	-315
are	-316
▁said	-317
ake	-318
▁ag	-319
ime	-320
ine	-321
ail	-322
▁people	-323
▁know	-324
ations	-325
ign	-326
very	-327
▁shall	-328
ue	-329
orm	-330
ase	-331
▁Y	-332
▁inc	-333
▁under	-334
▁out	-335
ile	-336
ade	-337
▁ind	-338
▁part	-339
ang	-340
vers	-341
ath	-342
ings	-343
▁cl	-344
▁no	-345
ub	-346
ens	-347
▁/	-348
▁int	-349
rit	-350
▁its	-351
▁what	-352
▁bel	-353
ace	-354
▁ar	-355
▁God	-356
ach	-357
▁also	-358
ep	-359
▁if	-360
▁co	-361
▁our	-362
ian	-363
ass	-364
▁Ch	-365
act	-366
▁ev	-367
▁19	-368
ber	-369
▁St	-370
▁comm	-371
ious	-372
▁may	-373
ren	-374
▁te	-375
lic	-376
reat	-377
▁Lord	-378
ise	-379
▁app	-380
du	-381
ual	-382
vern	-383
▁acc	-384
▁imp	-385
▁sc	-386
fore	-387
ook	-388
ree	-389
erv	-390
fter	-391
▁This	-392
ition	-393
ory	-394
ident	-395
ack	-396
fe	-397
▁year	-398
▁sp	-399
old	-400
urn	-401
▁would	-402
▁sub	-403
▁spe	-404
▁Sh	-405
ike	-406
▁only	-407
▁bec	-408
▁“	-409
▁such	-410
ove	-411
▁rel	-412
hed	-413
ject	-414
form	-415
▁_	-416
▁tw	-417
▁time	-418
▁pre	-419
ause	-420
sel	-421
▁prov	-422
▁work	-423
ater	-424
ted	-425
▁then	-426
▁rec	-427
▁over	-428
ational	-429
▁po	-430
..	-431
rib	-432
ric	-433
▁Go	-434
▁ear	-435
ities	-436
▁fo	-437
▁made	-438
▁belie	-439
▁day	-440
ild	-441
▁qu	-442
▁As	-443
we	-444
ward	-445
lect	-446
ound	-447
ied	-448
▁should	-449
▁more	-450
▁about	-451
▁like	-452
▁than	-453
vernment	-454
▁my	-455
wn	-456
▁some	-457
ces	-458
▁into	-459
ution	-460
ife	-461
▁Pro	-462
▁new	-463
▁say	-464
▁ass	-465
tern	-466
▁em	-467
▁bet	-468
ert	-469
uth	-470
ite	-471
ful	-472
▁count	-473
ark	-474
▁fe	-475
▁off	-476
▁But	-477
▁rem	-478
▁Wh	-479
▁cons	-480
aj	-481
way	-482
▁They	-483
▁pr	-484
▁Com	-485
velop	-486
ness	-487
iss	-488
▁3	-489
ons	-490
sh	-491
▁Se	-492
stit	-493
own	-494
cept	-495
▁two	-496
ific	-497
gr	-498
▁”	-499
▁reg	-500
oy	-501
ank	-502
hen	-503
▁[	-504
▁good	-505
ments	-506
▁these	-507
ved	-508
me	-509
▁after	-510
▁form	-511
▁ro	-512
▁act	-513
ily	-514
▁So	-515
▁Un	-516
led	-517
▁des	-518
ates	-519
▁before	-520
▁Re	-521
ient	-522
▁pers	-523
▁ent	-524
ond	-525
▁ob	-526
ph	-527
ne	-528
ave	-529
cess	-530
01	-531
▁again	-532
llow	-533
▁De	-534
ts	-535
▁His	-536
ors	-537
▁bl	-538
▁dec	-539
eng	-540
▁right	-541
cy	-542
▁see	-543
ght	-544
▁rep	-545
▁gu	-546
▁fir	-547
ower	-548
ink	-549
row	-550
▁trans	-551
▁ac	-552
▁pres	-553
▁her	-554
▁life	-555
▁sy	-556
rough	-557
cial	-558
erm	-559
ced	-560
aw	-561
▁An	-562
eth	-563
▁call	-564
▁giv	-565
▁Indian	-566
▁world	-567
ob	-568
▁ra	-569
ism	-570
▁Pr	-571
arm	-572
pect	-573
▁fl	-574
▁where	-575
▁Con	-576
resident	-577
▁being	-578
▁set	-579
rent	-580
▁through	-581
ener	-582
▁way	-583
▁develop	-584
),	-585
other	-586
ange	-587
▁You	-588
▁inv	-589
▁cre	-590
▁every	-591
ning	-592
▁great	-593
▁dif	-594
ally	-595
ves	-596
eed	-597
▁There	-598
ating	-599
ever	-600
uring	-601
li	-602
uc	-603
igh	-604
▁If	-605
int	-606
ft	-607
ull	-608
▁Bh	-609
oth	-610
ative	-611
les	-612
nds	-613
▁serv	-614
xt	-615
▁down	-616
▁thou	-617
ween	-618
▁make	-619
ided	-620
▁country	-621
▁att	-622
olog	-623
▁sec	-624
its	-625
▁br	-626
▁add	-627
▁pol	-628
).	-629
ax	-630
▁Is	-631
▁Government	-632
▁President	-633
▁produ	-634
▁cent	-635
ages	-636
▁follow	-637
▁between	-638
ular	-639
▁used	-640
ible	-641
▁exp	-642
▁&	-643
ublic	-644
▁pos	-645
ood	-646
▁ke	-647
ple	-648
ural	-649
ised	-650
▁En	-651
▁well	-652
▁could	-653
pen	-654
▁Min	-655
stem	-656
▁did	-657
▁first	-658
ble	-659
gan	-660
▁Him	-661
▁come	-662
▁inte	-663
▁person	-664
oci	-665
▁Act	-666
als	-667
▁years	-668
ty	-669
▁eff	-670
▁most	-671
▁For	-672
▁ret	-673
▁upon	-674
lp	-675
▁many	-676
▁5	-677
any	-678
pport	-679
▁sign	-680
ving	-681
▁Ex	-682
hi	-683
▁col	-684
ents	-685
▁unt	-686
ility	-687
ature	-688
▁back	-689
▁very	-690
▁even	-691
lud	-692
▁earth	-693
ited	-694
rie	-695
▁dist	-696
▁how	-697
▁Comm	-698
con	-699
▁4	-700
▁ord	-701
▁num	-702
fer	-703
▁among	-704
ven	-705
▁mess	-706
▁pur	-707
ister	-708
▁ed	-709
▁get	-710
ting	-711
▁200	-712
▁own	-713
▁against	-714
ale	-715
self	-716
▁tra	-717
elie	-718
air	-719
iew	-720
▁need	-721
amm	-722
uch	-723
aking	-724
ck	-725
ather	-726
▁help	-727
ha	-728
hes	-729
irect	-730
ission	-731
▁inst	-732
ati	-733
▁sent	-734
get	-735
▁take	-736
ute	-737
ision	-738
ures	-739
ased	-740
▁val	-741
chn	-742
▁writ	-743
und	-744
▁does	-745
▁mem	-746
▁char	-747
ract	-748
▁Ad	-749
▁mod	-750
formation	-751
▁disc	-752
▁believe	-753
▁she	-754
▁use	-755
▁Ne	-756
▁given	-757
▁ap	-758
ick	-759
not	-760
▁gr	-761
ants	-762
▁turn	-763
▁system	-764
rong	-765
read	-766
▁just	-767
▁State	-768
▁child	-769
▁bu	-770
ished	-771
ices	-772
▁because	-773
▁end	-774
▁must	-775
▁requ	-776
▁ins	-777
▁import	-778
▁On	-779
▁mat	-780
▁mon	-781
▁cert	-782
▁Sc	-783
▁To	-784
▁ph	-785
ives	-786
ock	-787
belie	-788
▁ye	-789
round	-790
up	-791
▁pass	-792
▁place	-793
▁diffe	-794
▁hum	-795
ash	-796
ital	-797
ctions	-798
of	-799
ides	-800
iness	-801
▁lit	-802
▁account	-803
ari	-804
ror	-805
alth	-806
▁long	-807
▁car	-808
▁When	-809
pr	-810
▁Am	-811
▁equ	-812
rest	-813
ouse	-814
arch	-815
pos	-816
ivers	-817
▁wom	-818
▁give	-819
▁power	-820
ten	-821
▁>	-822
▁sm	-823
ries	-824
tle	-825
▁cap	-826
...	-827
▁Al	-828
▁av	-829
▁cle	-830
ene	-831
ral	-832
▁Day	-833
ix	-834
▁gener	-835
ified	-836
▁min	-837
▁includ	-838
▁sure	-839
pend	-840
▁prom	-841
arn	-842
▁inter	-843
ata	-844
▁water	-845
ES	-846
▁name	-847
uthor	-848
▁cond	-849
▁201	-850
selves	-851
▁<	-852
▁No	-853
▁nor	-854
▁now	-855
▁away	-856
▁gl	-857
▁let	-858
▁Hind	-859
▁found	-860
ork	-861
ars	-862
ined	-863
ug	-864
oun	-865
ee	-866
▁lar	-867
ared	-868
ety	-869
ern	-870
▁want	-871
▁number	-872
roup	-873
ship	-874
conom	-875
▁state	-876
▁men	-877
▁lo	-878
."	-879
ists	-880
▁lead	-881
▁heav	-882
▁Our	-883
▁fin	-884
day	-885
tc	-886
▁conc	-887
▁during	-888
▁conf	-889
▁inf	-890
ana	-891
less	-892
angu	-893
the	-894
▁fam	-895
▁Cent	-896
ters	-897
▁same	-898
ict	-899
▁main	-900
ody	-901
▁fore	-902
▁section	-903
ledge	-904
▁while	-905
ys	-906
▁heart	-907
ruct	-908
imes	-909
iod	-910
▁spec	-911
▁whom	-912
▁cur	-913
▁occ	-914
ology	-915
▁Q	-916
▁present	-917
▁det	-918
▁each	-919
ired	-920
ron	-921
▁rece	-922
▁development	-923
▁case	-924
▁6	-925
▁land	-926
▁ask	-927
ered	-928
▁here	-929
▁est	-930
lim	-931
▁sin	-932
aken	-933
▁art	-934
▁pay	-935
▁cor	-936
ality	-937
▁organ	-938
▁resp	-939
▁process	-940
▁Te	-941
▁book	-942
ption	-943
▁ser	-944
▁called	-945
▁stud	-946
▁cour	-947
▁adv	-948
ains	-949
▁both	-950
▁order	-951
ya	-952
▁another	-953
▁def	-954
▁etc	-955
har	-956
▁loc	-957
su	-958
▁things	-959
▁dem	-960
▁law	-961
▁open	-962
▁comple	-963
▁truth	-964
▁Then	-965
▁word	-966
ience	-967
▁return	-968
ics	-969
▁Res	-970
▁prev	-971
wards	-972
man	-973
▁fac	-974
▁educ	-975
▁sur	-976
lease	-977
amp	-978
ize	-979
▁aff	-980
▁Ar	-981
▁bus	-982
ained	-983
▁start	-984
▁mark	-985
▁ce	-986
port	-987
▁public	-988
▁period	-989
▁indust	-990
▁dev	-991
bers	-992
▁term	-993
▁different	-994
▁list	-995
ention	-996
lish	-997
▁beh	-998
EN	-999
▁partic	-1000
▁indeed	-1001
▁play	-1002
▁Mu	-1003
▁file	-1004
▁Do	-1005
▁best	-1006
▁Par	-1007
▁Mus	-1008
▁ref	-1009
▁find	-1010
▁certain	-1011
▁three	-1012
ov	-1013
▁came	-1014
▁commun	-1015
▁8	-1016
▁without	-1017
▁Mess	-1018
▁Tr	-1019
▁fil	-1020
▁fact	-1021
▁wind	-1022
▁econom	-1023
erg	-1024
▁knowledge	-1025
▁sou	-1026
▁cro	-1027
▁bro	-1028
▁show	-1029
▁7	-1030
▁fa	-1031
▁fear	-1032
▁National	-1033
▁sl	-1034
▁techn	-1035
▁poss	-1036
▁relig	-1037
stitution	-1038
▁0	-1039
ived	-1040
▁read	-1041
▁ext	-1042
ines	-1043
▁‘	-1044
▁means	-1045
mit	-1046
▁support	-1047
▁interest	-1048
▁appro	-1049
▁hand	-1050
▁author	-1051
aid	-1052
▁look	-1053
ai	-1054
▁much	-1055
ament	-1056
▁high	-1057
▁avail	-1058
▁information	-1059
▁progr	-1060
▁except	-1061
ploy	-1062
▁Mah	-1063
▁Shri	-1064
▁grow	-1065
▁ty	-1066
esh	-1067
▁gra	-1068
▁vis	-1069
ner	-1070
ither	-1071
stand	-1072
▁tem	-1073
ination	-1074
▁langu	-1075
ough	-1076
▁stand	-1077
here	-1078
▁pun	-1079
▁respect	-1080
ield	-1081
iving	-1082
crib	-1083
ually	-1084
▁incre	-1085
▁direct	-1086
▁med	-1087
▁contin	-1088
▁disbelie	-1089
▁full	-1090
ized	-1091
▁government	-1092
ccess	-1093
▁Minister	-1094
:%	-1095
rence	-1096
▁(1	-1097
ocial	-1098
▁var	-1099
▁OF	-1100
▁Say	-1101
ffic	-1102
▁human	-1103
▁women	-1104
oh	-1105
ret	-1106
ms	-1107
▁think	-1108
▁oper	-1109
ify	-1110
▁sk	-1111
cl	-1112
▁Or	-1113
▁small	-1114
gg	-1115
▁unto	-1116
▁meet	-1117
▁project	-1118
▁group	-1119
▁clear	-1120
▁At	-1121
▁Man	-1122
▁That	-1123
eds	-1124
▁prof	-1125
▁18	-1126
▁created	-1127
error	-1128
ins	-1129
ware	-1130
▁sim	-1131
▁cannot	-1132
ool	-1133
ried	-1134
thing	-1135
▁last	-1136
▁Le	-1137
olution	-1138
▁ver	-1139
▁exam	-1140
▁effect	-1141
▁appe	-1142
▁som	-1143
▁happ	-1144
▁My	-1145
▁important	-1146
▁che	-1147
▁rest	-1148
ctor	-1149
▁become	-1150
▁cult	-1151
ency	-1152
▁bring	-1153
inal	-1154
lected	-1155
▁proper	-1156
▁–	-1157
ND	-1158
▁What	-1159
▁How	-1160
asht	-1161
stitut	-1162
▁message	-1163
▁div	-1164
ks	-1165
▁Be	-1166
▁ca	-1167
ways	-1168
mb	-1169
▁Book	-1170
▁company	-1171
rap	-1172
▁business	-1173
▁New	-1174
▁amount	-1175
hip	-1176
older	-1177
▁taken	-1178
RB	-1179
▁today	-1180
▁surely	-1181
enef	-1182
erc	-1183
▁never	-1184
▁known	-1185
lf	-1186
ember	-1187
▁These	-1188
por	-1189
▁estab	-1190
▁income	-1191
ider	-1192
▁might	-1193
▁pat	-1194
▁wrong	-1195
▁punish	-1196
ER	-1197
ases	-1198
▁head	-1199
▁pri	-1200
ining	-1201
akes	-1202
gress	-1203
ense	-1204
az	-1205
▁Pl	-1206
AR	-1207
▁children	-1208
den	-1209
bs	-1210
icy	-1211
istr	-1212
ls	-1213
min	-1214
▁various	-1215
▁ele	-1216
▁Me	-1217
▁applic	-1218
▁within	-1219
▁days	-1220
▁Ram	-1221
▁dest	-1222
ote	-1223
▁put	-1224
ID	-1225
▁fun	-1226
orts	-1227
work	-1228
▁forg	-1229
▁9	-1230
▁sch	-1231
▁bank	-1232
ss	-1233
▁month	-1234
▁accept	-1235
tend	-1236
▁four	-1237
▁activ	-1238
▁Muslim	-1239
▁themselves	-1240
▁old	-1241
▁better	-1242
▁view	-1243
reed	-1244
▁times	-1245
ode	-1246
▁PR	-1247
▁frie	-1248
▁faith	-1249
▁den	-1250
put	-1251
▁mind	-1252
ternal	-1253
▁proble	-1254
▁evil	-1255
▁sit	-1256
▁allow	-1257
▁done	-1258
▁large	-1259
▁success	-1260
▁ide	-1261
▁mar	-1262
▁body	-1263
to	-1264
▁Ab	-1265
ething	-1266
▁bas	-1267
▁Raj	-1268
▁left	-1269
ii	-1270
▁real	-1271
▁move	-1272
▁window	-1273
rought	-1274
▁social	-1275
avan	-1276
▁Isl	-1277
▁employ	-1278
▁going	-1279
▁others	-1280
▁par	-1281
▁level	-1282
TI	-1283
oin	-1284
▁keep	-1285
▁address	-1286
lished	-1287
▁Eng	-1288
▁education	-1289
ically	-1290
ues	-1291
rol	-1292
▁Gu	-1293
▁10	-1294
▁leg	-1295
ateg	-1296
ulation	-1297
ium	-1298
line	-1299
▁bo	-1300
ization	-1301
ery	-1302
▁too	-1303
▁imm	-1304
▁exper	-1305
ferred	-1306
▁build	-1307
oint	-1308
ator	-1309
par	-1310
ram	-1311
ey	-1312
alf	-1313
▁polit	-1314
ury	-1315
▁soci	-1316
ession	-1317
▁tre	-1318
▁light	-1319
atic	-1320
▁invest	-1321
▁towards	-1322
rah	-1323
▁free	-1324
▁chang	-1325
▁pop	-1326
▁due	-1327
itions	-1328
▁less	-1329
ON	-1330
ran	-1331
▁dra	-1332
▁result	-1333
▁sche	-1334
▁benef	-1335
iron	-1336
▁kind	-1337
▁Who	-1338
eric	-1339
▁available	-1340
▁One	-1341
▁jud	-1342
enger	-1343
▁quest	-1344
ief	-1345
▁dep	-1346
▁hist	-1347
ording	-1348
ailed	-1349
▁rev	-1350
▁Im	-1351
ged	-1352
▁war	-1353
irc	-1354
▁Central	-1355
▁trad	-1356
▁health	-1357
tt	-1358
inc	-1359
alk	-1360
ason	-1361
oss	-1362
▁heavens	-1363
▁issu	-1364
▁offic	-1365
▁Del	-1366
ird	-1367
▁language	-1368
ENT	-1369
▁understand	-1370
▁Ass	-1371
▁brought	-1372
▁prote	-1373
000	-1374
iversity	-1375
▁mo	-1376
▁199	-1377
▁exist	-1378
ering	-1379
na	-1380
ng	-1381
▁value	-1382
▁national	-1383
ances	-1384
▁ri	-1385
▁command	-1386
▁punishment	-1387
ala	-1388
cri	-1389
uss	-1390
▁cause	-1391
201	-1392
▁family	-1393
▁She	-1394
str	-1395
▁poet	-1396
ajor	-1397
▁Dep	-1398
tal	-1399
iful	-1400
▁tas	-1401
▁class	-1402
▁bre	-1403
▁const	-1404
ructure	-1405
▁{	-1406
▁lim	-1407
▁change	-1408
▁food	-1409
ternational	-1410
▁15	-1411
▁str	-1412
▁death	-1413
ately	-1414
▁Sub	-1415
ceed	-1416
ising	-1417
ification	-1418
▁run	-1419
▁associ	-1420
▁something	-1421
▁met	-1422
urity	-1423
▁Bhavan	-1424
aim	-1425
▁market	-1426
hing	-1427
▁Islam	-1428
▁house	-1429
▁special	-1430
▁service	-1431
▁Add	-1432
isions	-1433
ready	-1434
▁plan	-1435
▁non	-1436
rict	-1437
used	-1438
rial	-1439
ocu	-1440
▁vill	-1441
section	-1442
▁self	-1443
▁ru	-1444
phe	-1445
uty	-1446
▁Rs	-1447
ource	-1448
▁supp	-1449
ential	-1450
▁mer	-1451
cut	-1452
▁ey	-1453
ricult	-1454
▁Rasht	-1455
irit	-1456
▁hard	-1457
AN	-1458
▁far	-1459
▁Z	-1460
▁Can	-1461
▁program	-1462
▁father	-1463
ivid	-1464
uk	-1465
▁object	-1466
▁reve	-1467
▁field	-1468
ait	-1469
▁area	-1470
agement	-1471
▁12	-1472
▁comput	-1473
▁subject	-1474
▁provided	-1475
▁matter	-1476
orn	-1477
itte	-1478
iqu	-1479
▁near	-1480
▁data	-1481
▁product	-1482
urther	-1483
nect	-1484
▁ple	-1485
▁love	-1486
ured	-1487
▁net	-1488
▁already	-1489
rapati	-1490
han	-1491
▁op	-1492
▁Americ	-1493
▁Sec	-1494
▁enc	-1495
ali	-1496
▁regard	-1497
▁sw	-1498
ference	-1499
▁date	-1500
▁true	-1501
▁whole	-1502
reng	-1503
▁:	-1504
▁eng	-1505
▁Dis	-1506
gether	-1507
▁together	-1508
▁hig	-1509
▁night	-1510
▁Ag	-1511
▁members	-1512
▁Sing	-1513
▁charact	-1514
ability	-1515
▁few	-1516
▁ann	-1517
▁rese	-1518
▁Gand	-1519
oney	-1520
▁second	-1521
▁gave	-1522
▁capital	-1523
▁common	-1524
▁worship	-1525
raph	-1526
aring	-1527
▁perform	-1528
▁cr	-1529
▁services	-1530
▁Us	-1531
cing	-1532
▁signs	-1533
▁Indeed	-1534
▁countries	-1535
▁Your	-1536
▁following	-1537
reen	-1538
▁Rashtrapati	-1539
▁del	-1540
io	-1541
iding	-1542
ancial	-1543
▁Delhi	-1544
▁care	-1545
ently	-1546
▁20	-1547
▁Cont	-1548
▁expl	-1549
ma	-1550
▁Brit	-1551
▁above	-1552
▁liter	-1553
▁god	-1554
▁tax	-1555
▁hold	-1556
▁Those	-1557
eness	-1558
be	-1559
▁11	-1560
▁pray	-1561
ners	-1562
▁Spe	-1563
▁little	-1564
▁Pre	-1565
▁pract	-1566
come	-1567
land	-1568
▁streng	-1569
▁dou	-1570
▁provide	-1571
▁areas	-1572
liament	-1573
ope	-1574
▁based	-1575
▁himself	-1576
ogn	-1577
▁major	-1578
▁particular	-1579
▁nation	-1580
eous	-1581
ians	-1582
▁age	-1583
▁respons	-1584
itness	-1585
otion	-1586
▁path	-1587
▁economic	-1588
▁cost	-1589
▁Rep	-1590
▁asse	-1591
ying	-1592
▁action	-1593
ems	-1594
itor	-1595
▁test	-1596
val	-1597
aining	-1598
ilities	-1599
oses	-1600
▁making	-1601
▁thought	-1602
▁plac	-1603
▁words	-1604
isation	-1605
▁belong	-1606
▁consider	-1607
▁policy	-1608
artment	-1609
▁eas	-1610
ividual	-1611
▁hearts	-1612
adesh	-1613
HE	-1614
▁init	-1615
▁until	-1616
▁having	-1617
▁Acc	-1618
ger	-1619
▁el	-1620
▁able	-1621
▁Commission	-1622
ilit	-1623
uro	-1624
▁still	-1625
ges	-1626
aled	-1627
▁beg	-1628
istry	-1629
ling	-1630
▁though	-1631
▁pain	-1632
▁ve	-1633
▁seen	-1634
▁ever	-1635
▁around	-1636
chie	-1637
▁current	-1638
lection	-1639
oura	-1640
osed	-1641
▁sector	-1642
▁sol	-1643
▁took	-1644
iver	-1645
▁society	-1646
viron	-1647
▁type	-1648
idence	-1649
AL	-1650
ards	-1651
ories	-1652
▁sing	-1653
▁instru	-1654
▁necess	-1655
▁%	-1656
▁Cour	-1657
ara	-1658
▁occas	-1659
▁farm	-1660
▁aut	-1661
▁whose	-1662
jee	-1663
akh	-1664
▁States	-1665
ises	-1666
icult	-1667
▁send	-1668
▁always	-1669
▁individual	-1670
▁mus	-1671
uct	-1672
ammad	-1673
els	-1674
▁orig	-1675
▁along	-1676
▁spirit	-1677
play	-1678
▁rul	-1679
▁express	-1680
▁post	-1681
▁repres	-1682
▁seek	-1683
▁believers	-1684
vironment	-1685
▁Cl	-1686
▁nothing	-1687
▁PRES	-1688
▁enter	-1689
▁mult	-1690
ats	-1691
▁therefore	-1692
hy	-1693
▁local	-1694
▁meas	-1695
▁ut	-1696
▁fav	-1697
veral	-1698
▁whether	-1699
▁thing	-1700
cil	-1701
▁contrib	-1702
▁'%	-1703
▁including	-1704
▁clause	-1705
▁Em	-1706
▁deeds	-1707
▁political	-1708
▁guid	-1709
▁creat	-1710
▁thee	-1711
br	-1712
▁folder	-1713
▁mill	-1714
lement	-1715
▁create	-1716
▁achie	-1717
▁Bank	-1718
▁Beng	-1719
oad	-1720
▁With	-1721
▁school	-1722
▁witness	-1723
▁Gener	-1724
arent	-1725
▁religion	-1726
▁further	-1727
▁vers	-1728
▁point	-1729
▁yet	-1730
▁young	-1731
▁mean	-1732
ails	-1733
▁five	-1734
ched	-1735
ames	-1736
▁Reg	-1737
ication	-1738
▁Gandhi	-1739
umb	-1740
▁Rem	-1741
▁Show	-1742
reme	-1743
com	-1744
IN	-1745
▁growth	-1746
bt	-1747
hammad	-1748
▁Col	-1749
ustom	-1750
pportun	-1751
▁Prov	-1752
eration	-1753
▁live	-1754
oard	-1755
▁complete	-1756
pose	-1757
▁side	-1758
cribed	-1759
af	-1760
▁received	-1761
▁control	-1762
▁equal	-1763
ream	-1764
▁later	-1765
▁total	-1766
▁nature	-1767
after	-1768
▁British	-1769
atever	-1770
▁became	-1771
ier	-1772
▁es	-1773
▁institut	-1774
▁Not	-1775
erve	-1776
lling	-1777
▁home	-1778
ta	-1779
ann	-1780
ours	-1781
▁held	-1782
▁peace	-1783
▁Ph	-1784
▁docu	-1785
▁impro	-1786
ources	-1787
rael	-1788
▁since	-1789
▁Please	-1790
▁Sy	-1791
▁hands	-1792
ude	-1793
ittee	-1794
hat	-1795
itional	-1796
illed	-1797
▁inde	-1798
ached	-1799
ministr	-1800
▁cred	-1801
▁circ	-1802
▁leave	-1803
▁opportun	-1804
▁dr	-1805
incip	-1806
ead	-1807
▁diff	-1808
The	-1809
▁friend	-1810
▁Messenger	-1811
▁next	-1812
▁After	-1813
▁Most	-1814
▁THE	-1815
ences	-1816
▁mor	-1817
▁record	-1818
▁occasion	-1819
▁short	-1820
▁question	-1821
▁(2	-1822
▁strong	-1823
▁function	-1824
IDENT	-1825
▁English	-1826
opy	-1827
outh	-1828
herjee	-1829
atch	-1830
▁required	-1831
▁ill	-1832
▁x	-1833
▁mater	-1834
▁knows	-1835
▁region	-1836
▁Hindi	-1837
ches	-1838
for	-1839
▁Prime	-1840
▁PRESIDENT	-1841
▁previous	-1842
▁son	-1843
▁forth	-1844
OR	-1845
▁feel	-1846
▁Israel	-1847
▁key	-1848
ivil	-1849
ergy	-1850
▁brother	-1851
dom	-1852
▁Singh	-1853
▁Develop	-1854
▁share	-1855
▁reward	-1856
▁selected	-1857
▁mis	-1858
▁position	-1859
▁money	-1860
ibility	-1861
▁reason	-1862
▁Pe	-1863
▁text	-1864
omes	-1865
▁possible	-1866
ior	-1867
▁industry	-1868
just	-1869
▁flow	-1870
▁several	-1871
▁foreign	-1872
amb	-1873
▁relations	-1874
ME	-1875
stitute	-1876
▁port	-1877
uation	-1878
udd	-1879
▁dom	-1880
change	-1881
We	-1882
▁connect	-1883
▁priv	-1884
▁either	-1885
cious	-1886
▁activities	-1887
▁application	-1888
IT	-1889
▁certainly	-1890
▁concern	-1891
▁research	-1892
▁Hindu	-1893
▁Ministry	-1894
anab	-1895
ps	-1896
▁authority	-1897
▁mother	-1898
IA	-1899
▁access	-1900
earch	-1901
▁dise	-1902
IS	-1903
▁Offic	-1904
ouncil	-1905
end	-1906
most	-1907
hold	-1908
▁z	-1909
▁Cong	-1910
▁Parliament	-1911
ively	-1912
gu	-1913
aster	-1914
▁face	-1915
▁commit	-1916
▁Some	-1917
▁error	-1918
ony	-1919
▁Sw	-1920
▁sat	-1921
▁contact	-1922
▁character	-1923
▁University	-1924
▁progress	-1925
▁recogn	-1926
icle	-1927
▁itself	-1928
▁technology	-1929
▁sum	-1930
mission	-1931
▁fall	-1932
urely	-1933
ension	-1934
cell	-1935
ross	-1936
▁Comp	-1937
▁financial	-1938
▁plant	-1939
▁fut	-1940
▁obs	-1941
ring	-1942
▁example	-1943
▁went	-1944
cent	-1945
▁anything	-1946
idd	-1947
▁ur	-1948
rodu	-1949
▁inn	-1950
▁link	-1951
▁visit	-1952
▁opp	-1953
▁don	-1954
ault	-1955
uf	-1956
▁air	-1957
▁anim	-1958
augh	-1959
aries	-1960
▁production	-1961
men	-1962
ully	-1963
see	-1964
▁elect	-1965
▁rate	-1966
▁trust	-1967
▁difficult	-1968
▁assess	-1969
▁lab	-1970
▁using	-1971
▁provisions	-1972
bar	-1973
▁grant	-1974
arat	-1975
mber	-1976
▁history	-1977
▁quality	-1978
▁mag	-1979
▁deal	-1980
iation	-1981
▁Af	-1982
une	-1983
▁Here	-1984
isl	-1985
▁agricult	-1986
▁represent	-1987
▁property	-1988
bsite	-1989
▁established	-1990
ibr	-1991
lu	-1992
ilt	-1993
.201	-1994
▁Pradesh	-1995
▁works	-1996
ened	-1997
▁line	-1998
▁nat	-1999
▁stat	-2000
▁working	-2001
imum	-2002
▁purpose	-2003
phet	-2004
▁Ver	-2005
▁Court	-2006
▁ident	-2007
▁16	-2008
ograph	-2009
aps	-2010
ince	-2011
▁enj	-2012
▁harm	-2013
▁Direct	-2014
▁fire	-2015
▁Fin	-2016
▁report	-2017
▁therein	-2018
▁material	-2019
▁Dr	-2020
▁suff	-2021
▁scheme	-2022
▁ded	-2023
▁Co	-2024
by	-2025
ilar	-2026
▁soul	-2027
▁necessary	-2028
▁started	-2029
▁ens	-2030
▁big	-2031
▁behind	-2032
▁course	-2033
ills	-2034
obal	-2035
▁Serv	-2036
ape	-2037
▁image	-2038
▁save	-2039
▁entire	-2040
▁App	-2041
rab	-2042
▁IND	-2043
▁meeting	-2044
▁hy	-2045
▁hath	-2046
▁Could	-2047
▁mercy	-2048
▁’	-2049
▁Des	-2050
aun	-2051
▁files	-2052
▁future	-2053
▁referred	-2054
▁network	-2055
▁Development	-2056
▁hon	-2057
▁top	-2058
itiz	-2059
▁Euro	-2060
▁By	-2061
ably	-2062
▁dri	-2063
acity	-2064
▁demand	-2065
ets	-2066
irth	-2067
know	-2068
▁196	-2069
▁High	-2070
▁ten	-2071
▁fund	-2072
▁continu	-2073
▁vi	-2074
▁close	-2075
▁related	-2076
osp	-2077
▁greater	-2078
▁Congress	-2079
▁security	-2080
▁redu	-2081
erciful	-2082
▁asked	-2083
▁Open	-2084
▁court	-2085
▁Know	-2086
▁fight	-2087
mend	-2088
▁25	-2089
▁bar	-2090
mitted	-2091
▁i	-2092
▁implement	-2093
ethod	-2094
airs	-2095
▁got	-2096
pur	-2097
▁Thus	-2098
▁news	-2099
esides	-2100
edi	-2101
▁mail	-2102
▁institutions	-2103
▁decl	-2104
▁higher	-2105
▁Now	-2106
engers	-2107
▁agree	-2108
▁community	-2109
▁six	-2110
▁General	-2111
▁whatever	-2112
▁000	-2113
▁written	-2114
aged	-2115
▁RRB	-2116
ointed	-2117
▁House	-2118
▁mount	-2119
▁city	-2120
▁treat	-2121
▁revealed	-2122
unt	-2123
▁once	-2124
▁students	-2125
▁198	-2126
▁Europe	-2127
urs	-2128
▁warn	-2129
▁guidance	-2130
ipp	-2131
AT	-2132
▁specified	-2133
▁comes	-2134
rast	-2135
▁living	-2136
olk	-2137
ton	-2138
▁cal	-2139
▁leaders	-2140
▁stri	-2141
▁195	-2142
▁Mar	-2143
▁forward	-2144
side	-2145
▁List	-2146
▁paid	-2147
▁1.	-2148
▁Ev	-2149
▁months	-2150
ani	-2151
fully	-2152
bit	-2153
▁step	-2154
▁modern	-2155
▁website	-2156
▁14	-2157
▁repl	-2158
▁ones	-2159
uly	-2160
▁ans	-2161
▁sal	-2162
ung	-2163
ront	-2164
▁lay	-2165
▁rele	-2166
▁13	-2167
▁Union	-2168
▁Su	-2169
▁soon	-2170
word	-2171
ned	-2172
▁tell	-2173
▁according	-2174
▁told	-2175
poses	-2176
▁past	-2177
ones	-2178
▁Nor	-2179
▁goods	-2180
▁prep	-2181
▁verily	-2182
▁story	-2183
▁believed	-2184
):	-2185
▁righteous	-2186
ruction	-2187
▁role	-2188
▁determ	-2189
atives	-2190
▁Department	-2191
▁Committee	-2192
▁Pol	-2193
▁Sat	-2194
orrow	-2195
▁abs	-2196
▁pot	-2197
hood	-2198
IC	-2199
▁cell	-2200
▁environment	-2201
▁eyes	-2202
der	-2203
▁recom	-2204
anch	-2205
itive	-2206
▁thy	-2207
▁force	-2208
ji	-2209
▁claim	-2210
ison	-2211
▁Er	-2212
▁separ	-2213
▁Such	-2214
▁initi	-2215
▁194	-2216
▁LRB	-2217
▁destro	-2218
ush	-2219
▁wis	-2220
▁king	-2221
▁doing	-2222
ires	-2223
▁problem	-2224
lled	-2225
reedom	-2226
rish	-2227
▁lot	-2228
▁pub	-2229
▁(1)	-2230
▁till	-2231
rop	-2232
▁office	-2233
▁phys	-2234
▁Muslims	-2235
▁computer	-2236
▁Constitution	-2237
▁Sp	-2238
lier	-2239
idered	-2240
ored	-2241
▁method	-2242
▁invol	-2243
aves	-2244
▁ter	-2245
▁building	-2246
abha	-2247
▁Qur	-2248
▁turned	-2249
▁particip	-2250
▁century	-2251
▁design	-2252
acher	-2253
istic	-2254
▁Mad	-2255
ideo	-2256
▁Govern	-2257
▁international	-2258
▁however	-2259
▁Mr	-2260
ek	-2261
▁why	-2262
▁vari	-2263
▁Bengal	-2264
▁ange	-2265
▁party	-2266
▁basis	-2267
▁blood	-2268
soever	-2269
itation	-2270
oid	-2271
▁parts	-2272
▁Let	-2273
▁acqu	-2274
▁appointed	-2275
▁considered	-2276
ival	-2277
▁bea	-2278
ita	-2279
▁speak	-2280
▁problems	-2281
▁X	-2282
irt	-2283
▁needs	-2284
▁Select	-2285
▁htt	-2286
▁energy	-2287
▁administr	-2288
▁purposes	-2289
▁super	-2290
▁197	-2291
▁Sche	-2292
▁loss	-2293
▁learn	-2294
▁arm	-2295
▁sun	-2296
▁movement	-2297
▁ess	-2298
▁arch	-2299
▁Surely	-2300
▁changes	-2301
▁Moses	-2302
▁vol	-2303
▁Part	-2304
ina	-2305
▁trib	-2306
▁Lo	-2307
ript	-2308
▁tree	-2309
▁integr	-2310
▁manner	-2311
essee	-2312
▁fru	-2313
?"	-2314
▁crit	-2315
▁Cor	-2316
▁Verily	-2317
ificate	-2318
▁dele	-2319
▁Council	-2320
▁Fire	-2321
▁discuss	-2322
▁Techn	-2323
sue	-2324
ulf	-2325
▁firm	-2326
with	-2327
▁tor	-2328
▁custom	-2329
▁single	-2330
action	-2331
hether	-2332
acy	-2333
▁persons	-2334
ont	-2335
▁terms	-2336
▁deep	-2337
▁host	-2338
▁pen	-2339
ological	-2340
▁However	-2341
▁trade	-2342
▁princip	-2343
▁citiz	-2344
▁17	-2345
istan	-2346
▁often	-2347
▁scient	-2348
▁assist	-2349
▁gre	-2350
▁check	-2351
▁village	-2352
▁Information	-2353
▁cho	-2354
▁server	-2355
▁spread	-2356
▁mention	-2357
asing	-2358
▁display	-2359
ategory	-2360
ouses	-2361
▁establish	-2362
▁fr	-2363
▁poor	-2364
▁bra	-2365
▁sense	-2366
▁30	-2367
▁carry	-2368
▁destroy	-2369
▁religious	-2370
▁press	-2371
nic	-2372
▁Muk	-2373
▁begin	-2374
▁books	-2375
TION	-2376
▁remember	-2377
▁sac	-2378
▁undert	-2379
▁messages	-2380
▁anc	-2381
▁passed	-2382
▁protect	-2383
▁task	-2384
▁assessee	-2385
cription	-2386
vey	-2387
▁makes	-2388
▁Bl	-2389
aper	-2390
aught	-2391
ixed	-2392
▁general	-2393
imate	-2394
ousand	-2395
▁gives	-2396
aint	-2397
▁issued	-2398
go	-2399
▁wealth	-2400
▁management	-2401
▁terror	-2402
▁America	-2403
ama	-2404
▁mach	-2405
▁allowed	-2406
▁Set	-2407
▁maint	-2408
rect	-2409
▁INDIA	-2410
▁civil	-2411
▁er	-2412
▁low	-2413
▁squ	-2414
▁Muhammad	-2415
▁thus	-2416
▁Ed	-2417
▁none	-2418
▁wish	-2419
▁*	-2420
▁reach	-2421
▁patient	-2422
▁expect	-2423
atory	-2424
▁sound	-2425
▁freedom	-2426
▁aud	-2427
▁compan	-2428
▁viol	-2429
▁http	-2430
▁benefit	-2431
▁everything	-2432
ke	-2433
▁taking	-2434
▁conditions	-2435
sequ	-2436
▁aware	-2437
wer	-2438
▁red	-2439
▁size	-2440
▁conduct	-2441
▁increase	-2442
▁efforts	-2443
▁natural	-2444
▁Chand	-2445
▁fel	-2446
then	-2447
▁norm	-2448
vi	-2449
va	-2450
hara	-2451
inary	-2452
▁extend	-2453
ift	-2454
krit	-2455
uses	-2456
▁fig	-2457
▁matters	-2458
▁institution	-2459
ox	-2460
▁really	-2461
▁neither	-2462
idden	-2463
▁Public	-2464
▁million	-2465
new	-2466
▁reject	-2467
▁alone	-2468
▁global	-2469
▁fast	-2470
itude	-2471
▁pet	-2472
▁duty	-2473
▁partners	-2474
▁enjoy	-2475
▁2.	-2476
ples	-2477
believers	-2478
ots	-2479
▁cover	-2480
use	-2481
▁culture	-2482
▁jour	-2483
over	-2484
▁ant	-2485
▁least	-2486
tax	-2487
itable	-2488
rown	-2489
ental	-2490
▁grie	-2491
▁bur	-2492
▁talk	-2493
▁subs	-2494
ech	-2495
▁thousand	-2496
▁developed	-2497
▁source	-2498
▁search	-2499
▁doubt	-2500
▁followed	-2501
cies	-2502
▁early	-2503
▁parent	-2504
▁exc	-2505
▁consum	-2506
▁industrial	-2507
▁Whether	-2508
rec	-2509
▁Kh	-2510
▁chall	-2511
▁Wor	-2512
▁training	-2513
iles	-2514
attle	-2515
ilk	-2516
nam	-2517
▁Bi	-2518
▁Mon	-2519
▁member	-2520
▁assessment	-2521
rs	-2522
kind	-2523
▁stay	-2524
▁li	-2525
▁transfer	-2526
▁pros	-2527
iveness	-2528
adem	-2529
▁Trans	-2530
▁Cannot	-2531
▁independ	-2532
gment	-2533
▁Where	-2534
▁creation	-2535
▁dead	-2536
▁conv	-2537
▁Are	-2538
▁gen	-2539
iction	-2540
▁opens	-2541
▁temple	-2542
▁Ap	-2543
▁woman	-2544
▁credit	-2545
▁Error	-2546
▁neg	-2547
▁programm	-2548
▁di	-2549
▁saying	-2550
ptions	-2551
▁May	-2552
▁Int	-2553
vere	-2554
▁dire	-2555
tings	-2556
mon	-2557
oke	-2558
alend	-2559
▁log	-2560
▁adop	-2561
uge	-2562
▁outside	-2563
▁literature	-2564
▁eat	-2565
▁san	-2566
],	-2567
app	-2568
▁soft	-2569
▁achieve	-2570
▁capacity	-2571
▁tou	-2572
aste	-2573
ols	-2574
alay	-2575
▁ground	-2576
▁democ	-2577
▁bless	-2578
▁Even	-2579
▁drink	-2580
emed	-2581
▁Prophet	-2582
▁provision	-2583
ew	-2584
▁town	-2585
abad	-2586
rist	-2587
▁birth	-2588
▁half	-2589
▁wife	-2590
▁arr	-2591
▁event	-2592
usion	-2593
▁File	-2594
2.	-2595
▁Qu	-2596
▁disease	-2597
▁gard	-2598
▁sea	-2599
ique	-2600
ulated	-2601
▁charge	-2602
▁payment	-2603
▁population	-2604
▁fem	-2605
▁mass	-2606
▁stra	-2607
ane	-2608
▁mode	-2609
▁Div	-2610
▁Rec	-2611
▁rights	-2612
▁programme	-2613
▁disbelieve	-2614
ows	-2615
omb	-2616
▁aim	-2617
▁saw	-2618
▁remain	-2619
▁sust	-2620
▁personal	-2621
▁angels	-2622
▁wide	-2623
enty	-2624
iddle	-2625
▁write	-2626
▁compet	-2627
▁People	-2628
▁mankind	-2629
▁hope	-2630
alse	-2631
▁insp	-2632
▁lost	-2633
his	-2634
▁pal	-2635
▁Name	-2636
pecial	-2637
wise	-2638
▁document	-2639
▁Mod	-2640
▁immedi	-2641
▁SA	-2642
▁resources	-2643
nding	-2644
ada	-2645
▁ir	-2646
▁Cal	-2647
rastructure	-2648
ares	-2649
▁cut	-2650
▁try	-2651
▁transl	-2652
▁receive	-2653
▁Mukherjee	-2654
ler	-2655
yle	-2656
RA	-2657
▁Per	-2658
▁Aut	-2659
▁include	-2660
▁judge	-2661
▁almost	-2662
▁propos	-2663
▁stru	-2664
undred	-2665
▁sugg	-2666
face	-2667
▁cases	-2668
▁deny	-2669
▁lat	-2670
▁innov	-2671
▁suggest	-2672
ufact	-2673
vert	-2674
estern	-2675
uration	-2676
▁earlier	-2677
▁request	-2678
▁rule	-2679
▁price	-2680
▁kept	-2681
▁Section	-2682
empt	-2683
▁Rel	-2684
▁revel	-2685
▁writing	-2686
aff	-2687
pril	-2688
▁accom	-2689
duc	-2690
▁raised	-2691
anskrit	-2692
▁across	-2693
▁24	-2694
▁deli	-2695
▁lakh	-2696
▁continue	-2697
▁exe	-2698
▁experience	-2699
▁seven	-2700
▁Merciful	-2701
irm	-2702
▁IN	-2703
▁user	-2704
▁similar	-2705
isf	-2706
▁bal	-2707
ging	-2708
▁typ	-2709
▁multip	-2710
▁install	-2711
Ex	-2712
▁strength	-2713
▁cast	-2714
▁Sabha	-2715
▁TO	-2716
▁Project	-2717
▁torment	-2718
//	-2719
://	-2720
▁Afric	-2721
▁says	-2722
▁Mem	-2723
▁enough	-2724
ables	-2725
▁official	-2726
ifest	-2727
▁products	-2728
▁condition	-2729
▁boy	-2730
▁require	-2731
▁fu	-2732
erved	-2733
▁Institute	-2734
gest	-2735
▁ign	-2736
ees	-2737
▁space	-2738
rection	-2739
▁pow	-2740
▁operation	-2741
▁tar	-2742
▁astr	-2743
▁third	-2744
▁district	-2745
▁Mahar	-2746
▁job	-2747
▁Tra	-2748
▁enem	-2749
▁Jan	-2750
▁Che	-2751
▁projects	-2752
rote	-2753
▁farmers	-2754
▁structure	-2755
EC	-2756
▁Fl	-2757
▁West	-2758
▁Republic	-2759
▁affect	-2760
▁private	-2761
uary	-2762
RI	-2763
▁desire	-2764
▁laun	-2765
▁Arab	-2766
rences	-2767
▁hundred	-2768
▁apply	-2769
▁Budd	-2770
▁guard	-2771
lebr	-2772
▁rad	-2773
▁investment	-2774
▁science	-2775
well	-2776
▁lear	-2777
igation	-2778
▁astray	-2779
oly	-2780
let	-2781
▁states	-2782
▁influ	-2783
▁introdu	-2784
▁Board	-2785
▁Jud	-2786
▁below	-2787
▁guide	-2788
anda	-2789
▁pra	-2790
ivity	-2791
▁wait	-2792
oud	-2793
ators	-2794
▁fulf	-2795
▁signific	-2796
alendar	-2797
▁Pers	-2798
▁Work	-2799
▁carried	-2800
▁tour	-2801
▁conne	-2802
▁US	-2803
owed	-2804
▁eight	-2805
ager	-2806
▁forms	-2807
▁front	-2808
ribution	-2809
▁teacher	-2810
▁failed	-2811
haps	-2812
pecially	-2813
ava	-2814
▁guided	-2815
▁United	-2816
fficient	-2817
▁decided	-2818
▁exchange	-2819
ww	-2820
▁April	-2821
▁Asia	-2822
▁East	-2823
▁Sur	-2824
ney	-2825
▁draw	-2826
▁rural	-2827
▁hear	-2828
▁Off	-2829
▁id	-2830
▁Med	-2831
▁reform	-2832
▁ancient	-2833
▁attack	-2834
llah	-2835
▁Pun	-2836
▁Brah	-2837
▁depos	-2838
▁provides	-2839
agar	-2840
▁prepared	-2841
▁From	-2842
▁bear	-2843
0,	-2844
▁places	-2845
▁relating	-2846
▁issue	-2847
estic	-2848
▁economy	-2849
▁South	-2850
▁approach	-2851
ades	-2852
ales	-2853
htm	-2854
▁music	-2855
lear	-2856
▁bound	-2857
▁behalf	-2858
▁King	-2859
▁decision	-2860
▁Sanskrit	-2861
▁World	-2862
▁disbelievers	-2863
▁Pal	-2864
▁promise	-2865
▁page	-2866
▁Their	-2867
▁strengthen	-2868
▁improve	-2869
▁coop	-2870
utes	-2871
▁produce	-2872
6.	-2873
mir	-2874
umn	-2875
▁Use	-2876
ban	-2877
▁Ins	-2878
▁issues	-2879
▁dark	-2880
▁built	-2881
▁led	-2882
▁manufact	-2883
gram	-2884
▁defe	-2885
vant	-2886
urance	-2887
▁foc	-2888
iture	-2889
▁Har	-2890
▁Ak	-2891
amed	-2892
▁Gur	-2893
▁actually	-2894
AS	-2895
eral	-2896
▁accord	-2897
ump	-2898
▁situation	-2899
▁stop	-2900
▁proceed	-2901
▁tele	-2902
▁Cert	-2903
▁popular	-2904
▁lives	-2905
▁instrument	-2906
reg	-2907
osop	-2908
inion	-2909
▁whoever	-2910
▁Pranab	-2911
▁prayer	-2912
eb	-2913
▁secret	-2914
ici	-2915
▁Chief	-2916
ourage	-2917
3.	-2918
▁Educ	-2919
ex	-2920
▁Up	-2921
▁Technology	-2922
▁video	-2923
▁rain	-2924
▁meaning	-2925
▁profession	-2926
▁ensure	-2927
bed	-2928
▁da	-2929
▁crore	-2930
aka	-2931
icro	-2932
▁193	-2933
▁study	-2934
▁rich	-2935
▁subst	-2936
▁groups	-2937
▁100	-2938
ening	-2939
▁happy	-2940
chan	-2941
▁Account	-2942
▁Pur	-2943
▁satisf	-2944
▁false	-2945
▁Income	-2946
▁deb	-2947
pri	-2948
uted	-2949
ibrary	-2950
▁besides	-2951
que	-2952
▁unbelievers	-2953
▁values	-2954
▁Every	-2955
▁forb	-2956
▁road	-2957
jab	-2958
▁physical	-2959
▁indic	-2960
▁essential	-2961
▁published	-2962
▁especially	-2963
▁ste	-2964
▁friends	-2965
gar	-2966
▁rules	-2967
▁original	-2968
ume	-2969
▁Def	-2970
mes	-2971
asure	-2972
▁Cons	-2973
ilosop	-2974
▁opportunity	-2975
▁Leg	-2976
adu	-2977
▁har	-2978
▁coming	-2979
▁regular	-2980
▁accepted	-2981
▁Indust	-2982
.,	-2983
band	-2984
mark	-2985
▁univers	-2986
▁wall	-2987
urrection	-2988
▁conscious	-2989
▁river	-2990
▁Child	-2991
▁occur	-2992
▁Right	-2993
▁celebr	-2994
▁vict	-2995
▁providing	-2996
yond	-2997
utions	-2998
oe	-2999
ites	-3000
0.	-3001
ED	-3002
▁sens	-3003
▁evidence	-3004
▁concerned	-3005
'.	-3006
▁load	-3007
▁lower	-3008
anation	-3009
▁Have	-3010
▁Secret	-3011
▁During	-3012
▁caused	-3013
▁Category	-3014
▁Net	-3015
▁letter	-3016
▁increased	-3017
▁dig	-3018
ulate	-3019
▁details	-3020
▁ways	-3021
▁facilities	-3022
▁View	-3023
▁attend	-3024
▁teach	-3025
▁specific	-3026
▁wrote	-3027
▁giving	-3028
light	-3029
hest	-3030
▁easy	-3031
▁reached	-3032
▁becomes	-3033
7.	-3034
▁21	-3035
▁Christ	-3036
▁obt	-3037
▁Under	-3038
▁stage	-3039
▁depend	-3040
▁status	-3041
▁Fore	-3042
aving	-3043
▁fair	-3044
ott	-3045
External	-3046
▁Will	-3047
ley	-3048
osition	-3049
▁dam	-3050
▁While	-3051
▁wid	-3052
▁manifest	-3053
▁names	-3054
▁International	-3055
▁Cre	-3056
▁possess	-3057
cle	-3058
war	-3059
▁citizens	-3060
aughter	-3061
▁began	-3062
▁Sign	-3063
▁Hereafter	-3064
▁break	-3065
▁thereof	-3066
▁prescribed	-3067
▁percent	-3068
▁copy	-3069
▁Dist	-3070
8.	-3071
▁"%	-3072
▁morning	-3073
▁infrastructure	-3074
att	-3075
▁bill	-3076
▁programmes	-3077
load	-3078
iting	-3079
▁arri	-3080
▁belongs	-3081
fort	-3082
▁color	-3083
▁room	-3084
▁feed	-3085
kar	-3086
oday	-3087
▁rather	-3088
▁measure	-3089
▁Sm	-3090
mbly	-3091
▁Save	-3092
ras	-3093
▁die	-3094
▁remind	-3095
ervation	-3096
▁mut	-3097
▁expend	-3098
▁Officer	-3099
hib	-3100
uction	-3101
▁comb	-3102
▁instead	-3103
▁cultural	-3104
abled	-3105
▁appear	-3106
▁Krish	-3107
do	-3108
▁unless	-3109
▁Service	-3110
encies	-3111
▁March	-3112
oon	-3113
head	-3114
▁Guj	-3115
▁yourselves	-3116
▁Commissioner	-3117
▁Ma	-3118
▁lib	-3119
ented	-3120
▁bird	-3121
▁justice	-3122
▁beyond	-3123
5.	-3124
▁Ge	-3125
inn	-3126
ocation	-3127
▁importance	-3128
.)	-3129
▁Expl	-3130
ober	-3131
▁concer	-3132
ev	-3133
▁clean	-3134
▁origin	-3135
▁central	-3136
irst	-3137
▁Governor	-3138
▁coll	-3139
▁shown	-3140
rog	-3141
vest	-3142
cribe	-3143
▁oil	-3144
▁bi	-3145
▁chast	-3146
▁(2)	-3147
▁forest	-3148
UR	-3149
▁prim	-3150
▁Pak	-3151
▁device	-3152
▁Val	-3153
▁placed	-3154
ection	-3155
▁stone	-3156
▁camp	-3157
▁sky	-3158
▁Africa	-3159
▁languages	-3160
▁mere	-3161
▁Art	-3162
▁Hell	-3163
▁song	-3164
▁returned	-3165
▁responsible	-3166
.'	-3167
▁idea	-3168
▁accounts	-3169
▁bit	-3170
▁emerg	-3171
▁prior	-3172
▁takes	-3173
▁fail	-3174
▁fort	-3175
ground	-3176
resh	-3177
▁North	-3178
9.	-3179
▁Director	-3180
abor	-3181
▁disp	-3182
▁weak	-3183
4.	-3184
ration	-3185
▁NA	-3186
7,	-3187
ili	-3188
▁answer	-3189
▁agreement	-3190
▁aver	-3191
▁rivers	-3192
gn	-3193
▁Bal	-3194
▁und	-3195
oice	-3196
▁poin	-3197
raw	-3198
▁Sam	-3199
▁lies	-3200
▁inform	-3201
▁loan	-3202
elf	-3203
sect	-3204
▁schol	-3205
ressed	-3206
▁Other	-3207
▁appoint	-3208
▁Sim	-3209
▁Moh	-3210
▁password	-3211
▁Failed	-3212
▁potential	-3213
▁der	-3214
▁effective	-3215
▁1,	-3216
▁gir	-3217
though	-3218
oted	-3219
ule	-3220
▁(3	-3221
▁heaven	-3222
▁heard	-3223
wh	-3224
▁Gl	-3225
▁Centre	-3226
ell	-3227
omet	-3228
▁govern	-3229
▁Plan	-3230
▁coun	-3231
▁Of	-3232
▁hor	-3233
▁Education	-3234
▁Gang	-3235
▁beginning	-3236
0}	-3237
▁bad	-3238
▁Sup	-3239
▁win	-3240
known	-3241
▁powers	-3242
▁servants	-3243
▁Forg	-3244
2,	-3245
▁spiritual	-3246
▁understanding	-3247
This	-3248
▁round	-3249
▁Ac	-3250
);	-3251
tion	-3252
▁deg	-3253
▁style	-3254
uck	-3255
▁burn	-3256
▁quite	-3257
racy	-3258
inate	-3259
▁added	-3260
▁gone	-3261
AP	-3262
▁Quran	-3263
▁contract	-3264
▁existing	-3265
rug	-3266
▁Evolution	-3267
▁else	-3268
▁default	-3269
▁parents	-3270
▁Scheme	-3271
▁histor	-3272
▁CO	-3273
".	-3274
▁article	-3275
riage	-3276
haraoh	-3277
▁unjust	-3278
▁philosop	-3279
sc	-3280
II	-3281
icles	-3282
▁offer	-3283
▁emb	-3284
oo	-3285
▁simple	-3286
▁speech	-3287
▁vision	-3288
▁setting	-3289
▁connection	-3290
▁treatment	-3291
▁Kash	-3292
▁Many	-3293
▁Move	-3294
▁folk	-3295
▁mom	-3296
▁notice	-3297
▁legal	-3298
▁nar	-3299
rem	-3300
▁ge	-3301
▁obey	-3302
standing	-3303
▁activity	-3304
8,	-3305
▁Sa	-3306
anced	-3307
IL	-3308
▁Group	-3309
▁31	-3310
raham	-3311
▁lie	-3312
▁System	-3313
ami	-3314
▁Bar	-3315
▁bond	-3316
▁fif	-3317
▁mot	-3318
ctors	-3319
▁presented	-3320
▁certificate	-3321
▁sn	-3322
▁Unt	-3323
▁youth	-3324
▁Research	-3325
▁Gard	-3326
▁Author	-3327
▁ship	-3328
▁asset	-3329
▁compl	-3330
▁excell	-3331
arge	-3332
▁existence	-3333
▁colle	-3334
▁exerc	-3335
▁favour	-3336
▁agricultural	-3337
▁Dele	-3338
▁option	-3339
▁black	-3340
▁goes	-3341
20	-3342
▁concerning	-3343
ingu	-3344
▁Out	-3345
▁emp	-3346
▁kill	-3347
▁strugg	-3348
ancy	-3349
amil	-3350
▁proced	-3351
▁basic	-3352
oting	-3353
iff	-3354
antly	-3355
RO	-3356
oom	-3357
▁sle	-3358
▁direction	-3359
▁employment	-3360
▁scale	-3361
].	-3362
▁ris	-3363
▁felt	-3364
▁getting	-3365
▁knew	-3366
▁Punjab	-3367
▁wanted	-3368
▁addition	-3369
▁female	-3370
▁argu	-3371
▁Air	-3372
▁Sar	-3373
▁parties	-3374
▁commer	-3375
nal	-3376
▁anal	-3377
▁beaut	-3378
▁Therefore	-3379
▁plus	-3380
▁virt	-3381
▁running	-3382
▁swe	-3383
▁unit	-3384
▁houses	-3385
▁fixed	-3386
▁verses	-3387
▁learning	-3388
▁Resurrection	-3389
uls	-3390
▁warm	-3391
rim	-3392
▁formed	-3393
▁collect	-3394
▁remove	-3395
▁Trib	-3396
▁Utt	-3397
iva	-3398
body	-3399
ulations	-3400
CC	-3401
▁week	-3402
cember	-3403
isement	-3404
▁sil	-3405
▁born	-3406
▁assign	-3407
ils	-3408
▁pack	-3409
▁Corpor	-3410
▁aspect	-3411
▁Prof	-3412
▁engine	-3413
ules	-3414
▁Sch	-3415
road	-3416
▁mentioned	-3417
▁Why	-3418
▁aw	-3419
▁generally	-3420
ze	-3421
▁Ay	-3422
▁Asse	-3423
▁hus	-3424
▁tri	-3425
▁ep	-3426
Allah	-3427
▁Search	-3428
▁systems	-3429
▁produced	-3430
▁poll	-3431
AY	-3432
▁forces	-3433
la	-3434
▁Kal	-3435
lt	-3436
istered	-3437
▁usually	-3438
▁destroyed	-3439
▁Cur	-3440
▁cy	-3441
▁wise	-3442
▁plants	-3443
atures	-3444
▁Chair	-3445
▁ideas	-3446
where	-3447
▁responsibility	-3448
▁novel	-3449
▁sight	-3450
cer	-3451
▁sold	-3452
▁Ved	-3453
▁pie	-3454
▁limit	-3455
▁50	-3456
▁cove	-3457
▁immediately	-3458
sy	-3459
▁sex	-3460
oured	-3461
porary	-3462
▁Today	-3463
oved	-3464
▁practice	-3465
▁Pri	-3466
▁3.	-3467
▁tried	-3468
▁contro	-3469
▁prosper	-3470
▁Supreme	-3471
▁associated	-3472
▁mand	-3473
▁note	-3474
ength	-3475
▁wishes	-3476
▁According	-3477
▁generation	-3478
▁26	-3479
▁animals	-3480
ctober	-3481
▁white	-3482
▁base	-3483
▁safe	-3484
rew	-3485
▁milit	-3486
▁presence	-3487
▁painful	-3488
▁Kashmir	-3489
co	-3490
umbai	-3491
▁Legisl	-3492
▁continued	-3493
oor	-3494
▁units	-3495
▁content	-3496
▁statement	-3497
▁Enter	-3498
▁dream	-3499
-1	-3500
▁award	-3501
▁blind	-3502
▁Tem	-3503
▁ON	-3504
▁opportunities	-3505
▁Just	-3506
▁Mark	-3507
▁Program	-3508
▁banks	-3509
▁Dev	-3510
rick	-3511
▁poetry	-3512
▁regarding	-3513
▁fest	-3514
▁stor	-3515
Ind	-3516
▁serious	-3517
▁Pat	-3518
▁Any	-3519
▁active	-3520
▁pict	-3521
ching	-3522
▁feet	-3523
▁famous	-3524
▁American	-3525
▁correct	-3526
▁symb	-3527
▁forgiveness	-3528
omen	-3529
▁Yet	-3530
▁desp	-3531
▁anyone	-3532
▁Ser	-3533
▁cross	-3534
▁Islamic	-3535
OS	-3536
osing	-3537
▁imag	-3538
▁industries	-3539
▁item	-3540
▁revelations	-3541
▁companies	-3542
▁Explanation	-3543
IR	-3544
▁numbers	-3545
▁includes	-3546
rep	-3547
▁contains	-3548
▁Provided	-3549
▁medical	-3550
▁traditional	-3551
cend	-3552
▁Sri	-3553
▁obl	-3554
▁walk	-3555
ovember	-3556
arily	-3557
▁particularly	-3558
fect	-3559
▁gold	-3560
▁purch	-3561
▁version	-3562
▁greet	-3563
etic	-3564
▁conce	-3565
▁insect	-3566
▁workers	-3567
EL	-3568
▁please	-3569
▁directory	-3570
▁assistance	-3571
▁bow	-3572
▁Wise	-3573
▁legisl	-3574
▁increasing	-3575
▁circum	-3576
▁concept	-3577
right	-3578
aximum	-3579
▁tradition	-3580
▁Pakistan	-3581
enth	-3582
miss	-3583
view	-3584
▁fra	-3585
▁Shah	-3586
▁former	-3587
muk	-3588
▁War	-3589
adise	-3590
▁fully	-3591
▁fold	-3592
▁af	-3593
▁Conf	-3594
▁Address	-3595
▁plug	-3596
set	-3597
▁Only	-3598
▁supply	-3599
aksh	-3600
▁green	-3601
▁Hy	-3602
▁transport	-3603
9,	-3604
iers	-3605
ipur	-3606
▁granted	-3607
▁normal	-3608
▁petition	-3609
▁relevant	-3610
itle	-3611
▁supported	-3612
ties	-3613
rows	-3614
▁attempt	-3615
▁successful	-3616
▁prob	-3617
▁severe	-3618
ply	-3619
vious	-3620
▁Red	-3621
▁accordance	-3622
aches	-3623
▁Tag	-3624
cutta	-3625
5,	-3626
▁autom	-3627
▁session	-3628
▁limited	-3629
▁scientific	-3630
▁Adv	-3631
▁laid	-3632
▁select	-3633
▁Create	-3634
adi	-3635
iet	-3636
icial	-3637
iling	-3638
▁moon	-3639
ateral	-3640
iter	-3641
▁team	-3642
▁perhaps	-3643
▁sons	-3644
▁Tamil	-3645
▁spend	-3646
▁collection	-3647
▁contribution	-3648
▁Uttar	-3649
▁Message	-3650
▁Tur	-3651
▁police	-3652
▁23	-3653
▁ago	-3654
▁minister	-3655
asa	-3656
▁IT	-3657
▁Ty	-3658
▁Last	-3659
athe	-3660
▁respond	-3661
▁worth	-3662
▁software	-3663
▁broad	-3664
▁code	-3665
▁Start	-3666
▁Truth	-3667
▁final	-3668
▁moment	-3669
▁expenditure	-3670
ternet	-3671
▁serve	-3672
ids	-3673
▁Mal	-3674
ini	-3675
▁apost	-3676
text	-3677
▁Calcutta	-3678
▁Mo	-3679
▁distin	-3680
urt	-3681
ero	-3682
ptember	-3683
▁target	-3684
▁husband	-3685
izing	-3686
▁Tw	-3687
▁agriculture	-3688
▁January	-3689
rid	-3690
▁inj	-3691
▁repe	-3692
iverse	-3693
▁announ	-3694
▁Which	-3695
▁consist	-3696
ighty	-3697
lied	-3698
asth	-3699
▁prin	-3700
ellect	-3701
▁format	-3702
▁memory	-3703
itect	-3704
▁directly	-3705
▁film	-3706
▁advance	-3707
aug	-3708
▁dial	-3709
▁Pharaoh	-3710
▁mountains	-3711
apter	-3712
▁Bang	-3713
▁quick	-3714
▁expression	-3715
amental	-3716
▁sufficient	-3717
▁administration	-3718
avi	-3719
▁Pra	-3720
▁assets	-3721
▁jo	-3722
verse	-3723
▁challeng	-3724
dden	-3725
▁cities	-3726
▁attract	-3727
▁Lok	-3728
▁strateg	-3729
▁recommend	-3730
▁medic	-3731
▁looking	-3732
equ	-3733
▁Sah	-3734
▁villages	-3735
▁changed	-3736
▁covered	-3737
▁Thou	-3738
▁sacr	-3739
ores	-3740
uman	-3741
▁middle	-3742
▁paper	-3743
▁relationship	-3744
ugust	-3745
▁gods	-3746
ays	-3747
▁Ob	-3748
▁discip	-3749
▁denied	-3750
▁opinion	-3751
▁measures	-3752
▁Mumbai	-3753
▁prevent	-3754
▁separate	-3755
▁appropri	-3756
▁benefits	-3757
hab	-3758
▁travel	-3759
▁forgive	-3760
▁relation	-3761
ishn	-3762
▁192	-3763
▁laws	-3764
ae	-3765
▁drug	-3766
▁types	-3767
▁attention	-3768
icit	-3769
▁male	-3770
▁phot	-3771
ional	-3772
med	-3773
alty	-3774
hent	-3775
▁inside	-3776
▁speed	-3777
▁Management	-3778
obile	-3779
▁steps	-3780
▁occup	-3781
inite	-3782
▁weight	-3783
▁Abraham	-3784
▁Import	-3785
▁promised	-3786
1.	-3787
▁sides	-3788
▁transgress	-3789
▁Its	-3790
▁Organ	-3791
▁Bab	-3792
▁eye	-3793
order	-3794
▁cooperation	-3795
▁calc	-3796
▁standard	-3797
▁Children	-3798
▁faces	-3799
▁fruit	-3800
▁hours	-3801
▁Messengers	-3802
▁script	-3803
▁largest	-3804
▁sym	-3805
▁opened	-3806
▁effort	-3807
has	-3808
ateful	-3809
▁highest	-3810
▁IS	-3811
hru	-3812
▁officers	-3813
iii	-3814
▁card	-3815
▁qual	-3816
▁Forgiving	-3817
▁beautiful	-3818
▁straight	-3819
▁permission	-3820
▁dy	-3821
▁AND	-3822
▁milk	-3823
▁range	-3824
from	-3825
ulpt	-3826
▁wills	-3827
▁Bas	-3828
▁pred	-3829
hra	-3830
▁prot	-3831
▁Inst	-3832
▁proof	-3833
▁foot	-3834
▁length	-3835
▁arrange	-3836
▁longer	-3837
▁threat	-3838
▁twenty	-3839
▁chastisement	-3840
▁San	-3841
▁release	-3842
▁protection	-3843
▁extent	-3844
▁dram	-3845
▁stream	-3846
▁pattern	-3847
ratic	-3848
▁game	-3849
▁polic	-3850
inent	-3851
▁Western	-3852
▁calendar	-3853
▁esc	-3854
▁taste	-3855
▁connected	-3856
▁Ker	-3857
▁pure	-3858
osis	-3859
▁joint	-3860
▁shows	-3861
▁someone	-3862
▁documents	-3863
▁performance	-3864
yan	-3865
▁corru	-3866
▁extra	-3867
▁Sik	-3868
▁cam	-3869
▁upd	-3870
atha	-3871
add	-3872
arer	-3873
▁deemed	-3874
▁export	-3875
▁pan	-3876
iment	-3877
▁academ	-3878
!"	-3879
▁enemy	-3880
▁mechan	-3881
▁resident	-3882
▁appeal	-3883
pro	-3884
▁Wind	-3885
▁north	-3886
ken	-3887
ole	-3888
▁Port	-3889
▁Tax	-3890
PS	-3891
▁Jew	-3892
▁chief	-3893
▁implementation	-3894
▁June	-3895
▁played	-3896
▁nations	-3897
▁December	-3898
▁entered	-3899
▁fre	-3900
AC	-3901
▁Folder	-3902
▁Form	-3903
It	-3904
▁mental	-3905
▁included	-3906
▁educational	-3907
ously	-3908
▁execut	-3909
istration	-3910
▁completed	-3911
▁Well	-3912
fall	-3913
▁rupe	-3914
▁sins	-3915
tic	-3916
under	-3917
▁Copy	-3918
▁hosp	-3919
▁somet	-3920
▁violence	-3921
▁Inter	-3922
lict	-3923
▁standing	-3924
▁balance	-3925
▁leading	-3926
▁intellect	-3927
▁Char	-3928
▁height	-3929
▁rail	-3930
▁Bharat	-3931
6,	-3932
▁Inf	-3933
▁complex	-3934
▁construction	-3935
My	-3936
▁(%	-3937
▁Ann	-3938
▁centre	-3939
In	-3940
▁0.	-3941
▁exceed	-3942
▁knowing	-3943
▁doers	-3944
▁items	-3945
▁offe	-3946
hens	-3947
▁sudden	-3948
▁chann	-3949
▁Krishna	-3950
▁belief	-3951
And	-3952
▁saved	-3953
ops	-3954
▁furn	-3955
▁advice	-3956
▁struggle	-3957
oga	-3958
icip	-3959
▁funds	-3960
",	-3961
pir	-3962
leg	-3963
board	-3964
ilateral	-3965
▁watch	-3966
▁convey	-3967
▁Gujarat	-3968
▁otherwise	-3969
▁Bill	-3970
▁species	-3971
pper	-3972
ifying	-3973
▁PM	-3974
omin	-3975
pty	-3976
ography	-3977
▁Vis	-3978
▁repent	-3979
▁democracy	-3980
▁Time	-3981
mical	-3982
▁emph	-3983
EE	-3984
▁Post	-3985
▁rank	-3986
▁stre	-3987
▁util	-3988
▁contain	-3989
▁Agricult	-3990
▁Ah	-3991
RL	-3992
rene	-3993
▁labour	-3994
11	-3995
▁apprec	-3996
▁ton	-3997
▁journey	-3998
pted	-3999
▁hyp	-4000
▁dwell	-4001
▁south	-4002
ferences	-4003
He	-4004
icated	-4005
▁Indians	-4006
▁Home	-4007
▁ready	-4008
NA	-4009
▁sister	-4010
▁operations	-4011
▁Dh	-4012
erous	-4013
▁config	-4014
▁minus	-4015
▁focus	-4016
▁Policy	-4017
asc	-4018
▁cry	-4019
▁First	-4020
▁pursu	-4021
▁stock	-4022
▁Finance	-4023
gy	-4024
tered	-4025
▁employees	-4026
▁results	-4027
▁amend	-4028
▁Assist	-4029
press	-4030
▁stories	-4031
▁dece	-4032
▁Langu	-4033
▁Unable	-4034
▁functions	-4035
▁pleasure	-4036
▁drive	-4037
▁Sal	-4038
▁Bomb	-4039
▁Text	-4040
▁frame	-4041
▁unique	-4042
▁imper	-4043
▁Fund	-4044
▁fathers	-4045
▁located	-4046
▁circumst	-4047
▁(4	-4048
stituted	-4049
▁wood	-4050
▁grace	-4051
onse	-4052
▁Sol	-4053
enced	-4054
▁Back	-4055
ensive	-4056
▁October	-4057
▁Law	-4058
If	-4059
html	-4060
▁cou	-4061
▁Pass	-4062
▁hour	-4063
▁suc	-4064
▁significant	-4065
ula	-4066
▁heavy	-4067
▁territ	-4068
▁revolution	-4069
che	-4070
▁rise	-4071
▁commercial	-4072
ipt	-4073
▁tal	-4074
▁situ	-4075
▁domestic	-4076
▁site	-4077
ashtra	-4078
▁growing	-4079
▁Script	-4080
▁schemes	-4081
▁Aud	-4082
▁mighty	-4083
oll	-4084
▁named	-4085
▁Power	-4086
▁recent	-4087
▁table	-4088
▁gardens	-4089
▁consideration	-4090
▁More	-4091
▁perman	-4092
What	-4093
▁hot	-4094
▁useful	-4095
de	-4096
▁rock	-4097
▁Assembly	-4098
atically	-4099
▁Gr	-4100
uled	-4101
▁apart	-4102
▁valid	-4103
▁Ur	-4104
▁Hist	-4105
pranab	-4106
mukherjee	-4107
▁marriage	-4108
pranabmukherjee	-4109
▁facilit	-4110
▁storage	-4111
,"	-4112
▁stated	-4113
▁trees	-4114
ighb	-4115
raft	-4116
▁Nehru	-4117
▁leaves	-4118
▁vac	-4119
▁staff	-4120
▁Science	-4121
CT	-4122
▁adopted	-4123
▁CD	-4124
roud	-4125
odies	-4126
▁secure	-4127
▁block	-4128
▁SAW	-4129
aya	-4130
▁join	-4131
▁tool	-4132
',	-4133
apan	-4134
pense	-4135
▁Remove	-4136
4,	-4137
top	-4138
▁resol	-4139
ruary	-4140
itled	-4141
inery	-4142
▁Contact	-4143
▁Excell	-4144
igr	-4145
▁committed	-4146
▁prec	-4147
▁Delete	-4148
▁leader	-4149
▁divided	-4150
▁contained	-4151
ask	-4152
▁technical	-4153
▁mid	-4154
▁involved	-4155
ebruary	-4156
-201	-4157
resp	-4158
aker	-4159
▁sus	-4160
▁gain	-4161
▁powerful	-4162
▁helped	-4163
▁UN	-4164
▁engaged	-4165
▁pil	-4166
cause	-4167
▁media	-4168
▁Bombay	-4169
iry	-4170
▁Path	-4171
▁figure	-4172
▁temples	-4173
▁Secretary	-4174
▁declared	-4175
▁disob	-4176
osen	-4177
▁appropriate	-4178
▁cells	-4179
▁famil	-4180
▁consult	-4181
▁September	-4182
▁exists	-4183
▁payable	-4184
▁portion	-4185
▁fields	-4186
▁temper	-4187
▁praise	-4188
adh	-4189
▁sculpt	-4190
lication	-4191
▁consequ	-4192
▁Office	-4193
▁causes	-4194
▁questions	-4195
▁Gh	-4196
aters	-4197
fection	-4198
▁emphas	-4199
▁registered	-4200
aran	-4201
▁policies	-4202
▁architect	-4203
▁Head	-4204
▁amongst	-4205
ora	-4206
▁Pand	-4207
▁entry	-4208
▁model	-4209
▁divine	-4210
▁promote	-4211
▁November	-4212
▁thinking	-4213
ests	-4214
▁Over	-4215
▁hearing	-4216
rust	-4217
▁won	-4218
▁military	-4219
AD	-4220
▁Bus	-4221
▁Nath	-4222
▁fruits	-4223
▁officer	-4224
▁reading	-4225
▁prostr	-4226
ications	-4227
▁processing	-4228
▁Nep	-4229
▁developing	-4230
▁profit	-4231
itch	-4232
▁Ret	-4233
▁withd	-4234
▁review	-4235
▁Edit	-4236
▁cloud	-4237
▁Image	-4238
▁extreme	-4239
▁reference	-4240
You	-4241
athy	-4242
▁capt	-4243
▁depart	-4244
▁neighb	-4245
▁deduction	-4246
▁animal	-4247
▁events	-4248
▁shape	-4249
▁22	-4250
rehens	-4251
▁Enable	-4252
urg	-4253
▁seed	-4254
▁families	-4255
▁4.	-4256
▁Gra	-4257
▁Satan	-4258
▁lines	-4259
▁lived	-4260
▁shares	-4261
mer	-4262
▁ID	-4263
ti	-4264
▁AT	-4265
pid	-4266
▁earn	-4267
▁China	-4268
▁email	-4269
arma	-4270
▁veget	-4271
▁symbol	-4272
nes	-4273
▁miss	-4274
▁track	-4275
▁images	-4276
▁succeed	-4277
▁external	-4278
▁influence	-4279
▁tid	-4280
iled	-4281
cher	-4282
▁seem	-4283
assion	-4284
Mu	-4285
▁Nay	-4286
▁corpor	-4287
▁expressed	-4288
▁gather	-4289
▁sometimes	-4290
iences	-4291
ounty	-4292
▁refuge	-4293
▁messengers	-4294
▁fit	-4295
▁circumstances	-4296
asons	-4297
xy	-4298
ogle	-4299
▁Inc	-4300
▁gar	-4301
umber	-4302
▁incl	-4303
▁likely	-4304
▁standards	-4305
3,	-4306
▁interests	-4307
like	-4308
▁needed	-4309
▁ST	-4310
▁nuc	-4311
▁excl	-4312
▁touch	-4313
▁seems	-4314
▁desires	-4315
▁remained	-4316
▁Car	-4317
▁Stand	-4318
▁Check	-4319
aging	-4320
▁Paradise	-4321
▁response	-4322
OL	-4323
▁magic	-4324
▁square	-4325
▁Unto	-4326
▁Her	-4327
▁waste	-4328
▁expand	-4329
▁Gandhiji	-4330
MS	-4331
uff	-4332
▁box	-4333
▁web	-4334
▁choose	-4335
inet	-4336
ought	-4337
shipp	-4338
▁Bihar	-4339
▁dance	-4340
▁dated	-4341
▁raise	-4342
ING	-4343
▁wel	-4344
▁pric	-4345
▁ignor	-4346
▁August	-4347
▁URL	-4348
▁attach	-4349
▁master	-4350
▁remains	-4351
icate	-4352
1,	-4353
lies	-4354
grat	-4355
▁truly	-4356
▁variety	-4357
▁II	-4358
▁wo	-4359
enge	-4360
ression	-4361
▁Kerala	-4362
▁consciousness	-4363
▁taught	-4364
▁constitution	-4365
aja	-4366
▁fish	-4367
reprene	-4368
lying	-4369
▁compon	-4370
aur	-4371
atma	-4372
▁interp	-4373
▁killed	-4374
▁average	-4375
▁rejected	-4376
▁ball	-4377
▁fill	-4378
▁magn	-4379
▁quar	-4380
▁additional	-4381
llig	-4382
▁trial	-4383
▁Roy	-4384
▁extended	-4385
▁egg	-4386
▁location	-4387
▁worshipp	-4388
▁graph	-4389
▁remark	-4390
Muhammad	-4391
▁Knowing	-4392
unk	-4393
▁column	-4394
oming	-4395
oj	-4396
▁Nar	-4397
▁elements	-4398
▁Ear	-4399
▁mouth	-4400
▁enable	-4401
▁Chairman	-4402
▁calls	-4403
▁sup	-4404
ading	-4405
▁80	-4406
rain	-4407
usive	-4408
▁terrorism	-4409
IV	-4410
▁Also	-4411
▁levels	-4412
unal	-4413
▁School	-4414
▁surface	-4415
▁Conference	-4416
cast	-4417
▁wives	-4418
▁refers	-4419
uous	-4420
iance	-4421
▁Palest	-4422
▁chosen	-4423
olute	-4424
▁Corporation	-4425
▁partnership	-4426
▁input	-4427
▁proud	-4428
▁maintain	-4429
▁lack	-4430
▁trying	-4431
▁saf	-4432
icked	-4433
asthan	-4434
▁inaug	-4435
▁Exchange	-4436
aji	-4437
▁advant	-4438
▁evening	-4439
▁sectors	-4440
▁July	-4441
▁voice	-4442
▁cash	-4443
▁print	-4444
▁earned	-4445
▁perfect	-4446
▁whosoever	-4447
▁Fil	-4448
▁cop	-4449
▁Germ	-4450
▁Det	-4451
▁unf	-4452
iring	-4453
▁joy	-4454
▁medium	-4455
sec	-4456
▁skin	-4457
▁store	-4458
▁series	-4459
nded	-4460
vention	-4461
▁settle	-4462
▁poly	-4463
AM	-4464
▁27	-4465
▁Great	-4466
▁Japan	-4467
▁brings	-4468
▁described	-4469
▁difference	-4470
▁Di	-4471
erative	-4472
EM	-4473
▁avoid	-4474
▁28	-4475
▁Buddh	-4476
my	-4477
▁Att	-4478
anges	-4479
▁Turk	-4480
▁dang	-4481
▁worked	-4482
▁distance	-4483
▁2,	-4484
▁Soci	-4485
▁gets	-4486
▁plain	-4487
▁construct	-4488
▁quant	-4489
▁larger	-4490
▁machine	-4491
▁reflect	-4492
▁“”	-4493
▁prem	-4494
▁root	-4495
▁crops	-4496
actions	-4497
▁distribution	-4498
lick	-4499
▁diss	-4500
▁Maharashtra	-4501
▁independence	-4502
atter	-4503
▁hell	-4504
▁mutual	-4505
idy	-4506
ray	-4507
▁risk	-4508
aign	-4509
uries	-4510
▁expected	-4511
▁observed	-4512
▁abroad	-4513
▁Bhag	-4514
▁opening	-4515
▁Inte	-4516
▁died	-4517
▁cultiv	-4518
▁Fr	-4519
▁Som	-4520
ivered	-4521
▁forget	-4522
abh	-4523
▁poems	-4524
▁cattle	-4525
▁associate	-4526
overy	-4527
▁teachers	-4528
▁Elect	-4529
▁borrow	-4530
ube	-4531
eties	-4532
ifice	-4533
▁online	-4534
▁objective	-4535
▁dust	-4536
▁stead	-4537
▁output	-4538
▁Guru	-4539
▁clearly	-4540
▁brothers	-4541
▁applications	-4542
apt	-4543
▁truthful	-4544
▁Pres	-4545
▁fine	-4546
▁looked	-4547
▁sale	-4548
▁Hindus	-4549
ague	-4550
▁sleep	-4551
▁launched	-4552
pped	-4553
▁remem	-4554
▁tidings	-4555
aling	-4556
Our	-4557
▁Pan	-4558
▁Sum	-4559
▁Madh	-4560
▁determined	-4561
▁association	-4562
ught	-4563
▁annual	-4564
▁messenger	-4565
▁Had	-4566
▁listen	-4567
▁Mission	-4568
▁defined	-4569
▁European	-4570
▁introduced	-4571
ndra	-4572
ception	-4573
▁;	-4574
iny	-4575
▁friendly	-4576
▁pill	-4577
▁exercise	-4578
▁hidden	-4579
▁independent	-4580
olid	-4581
▁removed	-4582
▁wisdom	-4583
▁fellow	-4584
▁honour	-4585
▁Services	-4586
ius	-4587
ands	-4588
teen	-4589
▁Nob	-4590
▁deliver	-4591
▁majority	-4592
onal	-4593
▁screen	-4594
▁Chandra	-4595
▁rupees	-4596
▁academic	-4597
▁Description	-4598
verty	-4599
▁burden	-4600
▁February	-4601
▁Av	-4602
ahar	-4603
▁Men	-4604
pan	-4605
ocal	-4606
▁vast	-4607
istics	-4608
ologies	-4609
▁Because	-4610
▁glad	-4611
▁element	-4612
▁remote	-4613
▁poverty	-4614
▁Iran	-4615
▁convers	-4616
▁affairs	-4617
▁spent	-4618
▁Tagore	-4619
▁safety	-4620
▁throughout	-4621
oms	-4622
▁literary	-4623
ij	-4624
ousing	-4625
▁Change	-4626
nel	-4627
▁191	-4628
▁maximum	-4629
▁km	-4630
▁electric	-4631
For	-4632
▁songs	-4633
▁procedure	-4634
▁Did	-4635
▁hel	-4636
▁homes	-4637
▁Stat	-4638
▁confirm	-4639
▁delivered	-4640
ESS	-4641
alted	-4642
▁army	-4643
▁beauty	-4644
▁easily	-4645
▁station	-4646
▁ourselves	-4647
ARD	-4648
enture	-4649
▁impact	-4650
▁goal	-4651
▁initial	-4652
▁ideal	-4653
▁Sir	-4654
apers	-4655
▁submit	-4656
▁35	-4657
▁Ke	-4658
aram	-4659
ysis	-4660
▁trou	-4661
▁offered	-4662
▁Nav	-4663
▁cat	-4664
▁unc	-4665
▁studies	-4666
▁philosophy	-4667
▁Rail	-4668
▁gains	-4669
heduled	-4670
▁breast	-4671
OP	-4672
amet	-4673
▁equip	-4674
▁characters	-4675
▁Kum	-4676
▁Mag	-4677
itis	-4678
▁unity	-4679
▁contem	-4680
▁disbelieved	-4681
▁Ant	-4682
▁context	-4683
▁Division	-4684
▁assigned	-4685
ixt	-4686
enior	-4687
▁Karn	-4688
▁mort	-4689
▁Khan	-4690
venant	-4691
.0	-4692
▁confidence	-4693
isc	-4694
uties	-4695
▁moving	-4696
▁door	-4697
▁congrat	-4698
▁department	-4699
▁lad	-4700
▁distingu	-4701
▁greatest	-4702
irty	-4703
rone	-4704
▁Display	-4705
▁Rama	-4706
▁heed	-4707
▁birds	-4708
▁suffer	-4709
▁charges	-4710
abilities	-4711
▁fresh	-4712
▁Mahatma	-4713
▁Dem	-4714
▁bed	-4715
▁organisation	-4716
▁points	-4717
ML	-4718
▁views	-4719
▁soil	-4720
ika	-4721
▁dim	-4722
epend	-4723
▁griev	-4724
urate	-4725
TH	-4726
▁fle	-4727
elines	-4728
▁authent	-4729
▁hospital	-4730
▁Web	-4731
▁flag	-4732
▁History	-4733
gen	-4734
▁dry	-4735
▁seeking	-4736
▁approved	-4737
▁40	-4738
▁Prom	-4739
▁empty	-4740
▁Health	-4741
▁Network	-4742
▁District	-4743
ese	-4744
▁enterpr	-4745
ktop	-4746
▁lik	-4747
▁Both	-4748
▁schools	-4749
▁initiatives	-4750
▁Ext	-4751
▁rapid	-4752
▁Special	-4753
▁fert	-4754
▁communication	-4755
▁River	-4756
▁namely	-4757
▁Belie	-4758
era	-4759
cript	-4760
ira	-4761
▁debt	-4762
▁yield	-4763
▁dialog	-4764
▁Ham	-4765
▁inher	-4766
▁Social	-4767
▁divide	-4768
▁settings	-4769
chand	-4770
▁hide	-4771
▁kinds	-4772
▁souls	-4773
una	-4774
▁“%	-4775
▁acts	-4776
▁Rajasthan	-4777
▁Default	-4778
▁replied	-4779
▁articles	-4780
▁forbidden	-4781
▁jur	-4782
▁Akbar	-4783
▁innovation	-4784
oph	-4785
▁blessings	-4786
▁holding	-4787
▁wherein	-4788
AG	-4789
omp	-4790
▁{0}	-4791
▁Google	-4792
▁(3)	-4793
▁1961	-4794
▁Data	-4795
▁reduced	-4796
aped	-4797
▁Ste	-4798
▁mainly	-4799
osh	-4800
▁shr	-4801
▁habit	-4802
▁happen	-4803
▁kingdom	-4804
”.	-4805
mat	-4806
▁2000	-4807
▁oath	-4808
dule	-4809
▁Among	-4810
gra	-4811
▁Bad	-4812
▁gas	-4813
enses	-4814
▁sell	-4815
▁Colle	-4816
▁micro	-4817
▁merely	-4818
▁follows	-4819
▁pleased	-4820
▁profits	-4821
US	-4822
lfare	-4823
▁daily	-4824
▁welfare	-4825
▁machinery	-4826
ronic	-4827
▁conver	-4828
omy	-4829
▁Ra	-4830
▁prop	-4831
▁challenges	-4832
ux	-4833
aneous	-4834
▁season	-4835
▁organization	-4836
▁Lab	-4837
▁Nat	-4838
▁frequ	-4839
▁returns	-4840
▁vital	-4841
▁grand	-4842
▁sections	-4843
▁sort	-4844
BI	-4845
Do	-4846
▁IP	-4847
▁grad	-4848
▁happened	-4849
▁undertaking	-4850
▁Besides	-4851
imal	-4852
▁partner	-4853
▁devotion	-4854
▁appointment	-4855
anged	-4856
▁Himalay	-4857
▁Programme	-4858
▁Bel	-4859
▁neck	-4860
▁carrying	-4861
▁cra	-4862
▁excess	-4863
▁minor	-4864
▁intellig	-4865
▁generations	-4866
▁Since	-4867
osphere	-4868
▁minimum	-4869
▁Lim	-4870
▁ban	-4871
▁feeling	-4872
▁excellent	-4873
▁installed	-4874
▁promotion	-4875
atab	-4876
▁(19	-4877
▁lic	-4878
▁Each	-4879
▁turns	-4880
▁surround	-4881
▁Though	-4882
▁Mary	-4883
▁lest	-4884
▁wrongdo	-4885
▁altern	-4886
▁prison	-4887
▁recompense	-4888
▁Water	-4889
▁Second	-4890
ATION	-4891
venue	-4892
▁utter	-4893
▁sought	-4894
▁sustain	-4895
12	-4896
phone	-4897
▁primary	-4898
▁authorities	-4899
▁fat	-4900
rency	-4901
▁cook	-4902
▁wants	-4903
▁creating	-4904
▁practices	-4905
ja	-4906
arant	-4907
▁slow	-4908
▁Two	-4909
▁mal	-4910
respond	-4911
aying	-4912
▁notification	-4913
▁...	-4914
▁Key	-4915
▁rej	-4916
▁nine	-4917
▁joined	-4918
▁regional	-4919
▁Environment	-4920
ilty	-4921
▁buy	-4922
arati	-4923
▁attrib	-4924
▁keeping	-4925
▁battle	-4926
ET	-4927
▁Mer	-4928
▁Free	-4929
▁urban	-4930
▁encoura	-4931
▁covenant	-4932
▁See	-4933
▁Bengali	-4934
▁Official	-4935
rate	-4936
▁nut	-4937
▁Commun	-4938
▁highly	-4939
izations	-4940
▁mir	-4941
▁library	-4942
achal	-4943
▁cold	-4944
▁prepar	-4945
▁Type	-4946
▁affected	-4947
▁Financial	-4948
▁MS	-4949
▁campaign	-4950
▁thank	-4951
▁ult	-4952
ancing	-4953
▁5.	-4954
▁dispute	-4955
ips	-4956
▁branch	-4957
▁household	-4958
▁huge	-4959
asi	-4960
lly	-4961
aces	-4962
▁cance	-4963
vis	-4964
▁Cap	-4965
▁ast	-4966
▁receipt	-4967
▁festival	-4968
▁plat	-4969
conomic	-4970
▁diseases	-4971
▁Aff	-4972
▁resource	-4973
rees	-4974
▁individuals	-4975
gin	-4976
▁filled	-4977
▁completely	-4978
▁Certificate	-4979
▁destination	-4980
iciency	-4981
▁wonder	-4982
▁Members	-4983
UN	-4984
ataka	-4985
vision	-4986
▁positive	-4987
▁believing	-4988
▁communities	-4989
roll	-4990
▁Hour	-4991
▁mist	-4992
▁degree	-4993
▁prosperity	-4994
▁east	-4995
▁ji	-4996
▁sett	-4997
▁Language	-4998
▁wild	-4999
▁Rules	-5000
▁critic	-5001
ollow	-5002
▁Arch	-5003
▁Aust	-5004
▁cand	-5005
▁tong	-5006
oot	-5007
▁reasons	-5008
▁darkness	-5009
▁Emp	-5010
▁submitted	-5011
▁probably	-5012
▁Authority	-5013
▁drawn	-5014
▁colour	-5015
▁cru	-5016
▁bab	-5017
▁opt	-5018
▁Assam	-5019
ensation	-5020
▁confident	-5021
▁Date	-5022
▁Russ	-5023
▁garden	-5024
▁rare	-5025
▁theme	-5026
▁actual	-5027
▁Gardens	-5028
iate	-5029
▁Excellency	-5030
ander	-5031
▁impl	-5032
ishing	-5033
▁Ganga	-5034
▁delivery	-5035
▁integral	-5036
▁materials	-5037
▁board	-5038
tenance	-5039
▁requirements	-5040
▁latter	-5041
▁reality	-5042
▁guilty	-5043
▁relief	-5044
udget	-5045
▁demon	-5046
▁agreed	-5047
▁learned	-5048
▁entitled	-5049
▁Bu	-5050
▁moral	-5051
een	-5052
▁syn	-5053
▁jinn	-5054
icient	-5055
▁latest	-5056
▁pressure	-5057
seen	-5058
▁distrib	-5059
▁passing	-5060
DE	-5061
▁Non	-5062
▁crim	-5063
▁visible	-5064
▁features	-5065
ura	-5066
▁Est	-5067
▁Kov	-5068
▁sick	-5069
▁Click	-5070
▁greetings	-5071
▁ende	-5072
▁SH	-5073
ertain	-5074
▁wronged	-5075
▁girl	-5076
▁late	-5077
▁leadership	-5078
igible	-5079
▁volunt	-5080
pic	-5081
▁Joh	-5082
arian	-5083
ricts	-5084
▁Panch	-5085
▁Company	-5086
TP	-5087
▁aid	-5088
oseph	-5089
▁Foreign	-5090
▁aspects	-5091
mi	-5092
▁bodies	-5093
▁picture	-5094
▁Speaking	-5095
▁Ib	-5096
ped	-5097
▁duties	-5098
▁everyone	-5099
▁2014	-5100
▁Library	-5101
▁thereby	-5102
Is	-5103
eting	-5104
▁mission	-5105
▁disput	-5106
▁principles	-5107
▁England	-5108
▁yourself	-5109
▁correspond	-5110
ayana	-5111
▁sacred	-5112
▁regions	-5113
▁meant	-5114
▁universal	-5115
▁adequ	-5116
imately	-5117
valid	-5118
▁seized	-5119
▁shared	-5120
▁facility	-5121
amin	-5122
▁reforms	-5123
▁reply	-5124
50	-5125
othe	-5126
▁internal	-5127
▁teaching	-5128
CE	-5129
ayan	-5130
▁juris	-5131
▁performed	-5132
▁selection	-5133
▁fab	-5134
▁fell	-5135
▁hypoc	-5136
▁substant	-5137
▁iron	-5138
▁moved	-5139
▁Andhra	-5140
▁encourage	-5141
▁tiss	-5142
▁Trust	-5143
▁resolution	-5144
▁Park	-5145
▁hair	-5146
▁assum	-5147
▁collabor	-5148
▁description	-5149
hu	-5150
force	-5151
charge	-5152
▁editor	-5153
▁methods	-5154
▁background	-5155
▁Yoga	-5156
▁compr	-5157
▁string	-5158
▁foundation	-5159
▁incident	-5160
AB	-5161
aul	-5162
▁Subs	-5163
▁estim	-5164
▁prices	-5165
▁victory	-5166
▁although	-5167
▁inspired	-5168
▁60	-5169
▁click	-5170
▁College	-5171
ester	-5172
▁dear	-5173
▁participation	-5174
clause	-5175
▁planning	-5176
ifications	-5177
▁Life	-5178
▁button	-5179
box	-5180
cean	-5181
▁Word	-5182
isition	-5183
▁establishment	-5184
iber	-5185
▁beings	-5186
athi	-5187
▁west	-5188
▁title	-5189
▁users	-5190
▁myself	-5191
▁delight	-5192
▁petitioner	-5193
▁ic	-5194
▁tab	-5195
urities	-5196
▁Internet	-5197
▁division	-5198
▁entreprene	-5199
▁governance	-5200
UL	-5201
▁uns	-5202
-2018	-5203
▁bestowed	-5204
▁Governments	-5205
▁inner	-5206
▁Current	-5207
▁released	-5208
▁intellectual	-5209
▁ahead	-5210
▁trave	-5211
▁forever	-5212
▁transform	-5213
asm	-5214
▁Mail	-5215
▁admon	-5216
odes	-5217
▁ang	-5218
inger	-5219
rench	-5220
▁daughter	-5221
▁suitable	-5222
ache	-5223
▁audio	-5224
OC	-5225
ricket	-5226
▁Sun	-5227
oning	-5228
▁Config	-5229
▁double	-5230
▁limits	-5231
ERS	-5232
▁Like	-5233
▁arrest	-5234
▁nearly	-5235
▁channel	-5236
▁options	-5237
▁attached	-5238
▁Scripture	-5239
itt	-5240
grim	-5241
ocol	-5242
sych	-5243
▁tur	-5244
astic	-5245
bell	-5246
rible	-5247
othing	-5248
▁Export	-5249
▁delete	-5250
▁critical	-5251
▁exact	-5252
▁endeav	-5253
▁Reserve	-5254
▁folders	-5255
▁sources	-5256
ka	-5257
▁challenge	-5258
▁insurance	-5259
▁registration	-5260
thy	-5261
▁sacrifice	-5262
▁Self	-5263
▁climate	-5264
▁defence	-5265
▁deposit	-5266
▁Send	-5267
▁crop	-5268
▁grass	-5269
▁plays	-5270
▁consists	-5271
pel	-5272
▁Kar	-5273
ottom	-5274
▁enabled	-5275
▁Custom	-5276
▁Mighty	-5277
VD	-5278
▁plugin	-5279
▁Maj	-5280
▁actions	-5281
▁Docu	-5282
▁Number	-5283
▁changing	-5284
▁HT	-5285
▁stood	-5286
▁Independ	-5287
ams	-5288
mar	-5289
▁atm	-5290
▁hero	-5291
gypt	-5292
▁manager	-5293
▁pi	-5294
▁190	-5295
▁Invalid	-5296
▁subjects	-5297
eks	-5298
....	-5299
▁obst	-5300
▁About	-5301
▁Micro	-5302
▁containing	-5303
▁Color	-5304
▁Ash	-5305
ingly	-5306
ondon	-5307
▁achieved	-5308
india	-5309
atience	-5310
▁Buddha	-5311
ipl	-5312
▁AS	-5313
▁Sk	-5314
▁Autom	-5315
▁waiting	-5316
▁recently	-5317
mn	-5318
▁00	-5319
isms	-5320
writ	-5321
▁Disc	-5322
▁orders	-5323
▁platform	-5324
▁Assistant	-5325
▁reminder	-5326
acter	-5327
ients	-5328
▁upper	-5329
▁Print	-5330
▁charged	-5331
idge	-5332
▁sand	-5333
look	-5334
▁glor	-5335
▁Mount	-5336
▁letters	-5337
▁bilateral	-5338
▁publication	-5339
ifies	-5340
▁reduce	-5341
▁failure	-5342
▁agencies	-5343
▁Nag	-5344
▁nuclear	-5345
using	-5346
orial	-5347
▁surv	-5348
▁Press	-5349
▁centres	-5350
▁historical	-5351
rical	-5352
▁Knower	-5353
▁Princip	-5354
▁treated	-5355
▁examination	-5356
▁Tour	-5357
▁Kovind	-5358
▁insects	-5359
▁mountain	-5360
iy	-5361
▁Met	-5362
iders	-5363
▁proved	-5364
▁proport	-5365
overed	-5366
▁swear	-5367
▁reports	-5368
▁fighting	-5369
iant	-5370
▁Tru	-5371
▁ax	-5372
▁Another	-5373
▁approval	-5374
▁multiple	-5375
ubs	-5376
▁priority	-5377
▁suffering	-5378
▁Proper	-5379
▁counter	-5380
hern	-5381
▁Bah	-5382
▁row	-5383
▁scholar	-5384
▁recorded	-5385
▁sanction	-5386
▁doub	-5387
▁Civil	-5388
diction	-5389
▁extension	-5390
bal	-5391
▁Nepal	-5392
▁thanks	-5393
▁SC	-5394
▁Pet	-5395
▁star	-5396
▁Prote	-5397
▁purchase	-5398
essing	-5399
▁relative	-5400
▁witnesses	-5401
▁Mun	-5402
▁anti	-5403
▁infl	-5404
▁liqu	-5405
▁Party	-5406
▁Palestin	-5407
▁Tribunal	-5408
▁register	-5409
▁advantage	-5410
▁awareness	-5411
▁commanded	-5412
▁forgiving	-5413
hand	-5414
▁flu	-5415
▁Make	-5416
▁Society	-5417
atabase	-5418
▁served	-5419
▁fabric	-5420
▁visited	-5421
▁chemical	-5422
▁tend	-5423
▁distinct	-5424
▁01	-5425
ithm	-5426
▁Egypt	-5427
▁volume	-5428
▁manufacturing	-5429
▁marked	-5430
ho	-5431
▁Ira	-5432
▁plot	-5433
▁requires	-5434
oration	-5435
stitu	-5436
▁reck	-5437
▁Associ	-5438
▁figures	-5439
God	-5440
▁caste	-5441
▁seeing	-5442
▁Pen	-5443
▁Modi	-5444
dess	-5445
▁Class	-5446
▁newsp	-5447
iration	-5448
▁warner	-5449
▁AD	-5450
rant	-5451
▁ren	-5452
▁signed	-5453
▁Enc	-5454
▁hind	-5455
▁president	-5456
fts	-5457
▁refer	-5458
▁courage	-5459
▁instance	-5460
oral	-5461
▁piece	-5462
▁London	-5463
▁guides	-5464
▁situated	-5465
5)	-5466
▁Play	-5467
▁whereas	-5468
back	-5469
▁Creat	-5470
▁Gov	-5471
thern	-5472
▁Code	-5473
▁leaf	-5474
▁minutes	-5475
▁Training	-5476
▁constituted	-5477
▁manufacture	-5478
▁mobile	-5479
▁monitor	-5480
▁universities	-5481
▁Po	-5482
▁fault	-5483
▁match	-5484
▁happiness	-5485
▁Writ	-5486
astern	-5487
▁absolute	-5488
oti	-5489
oose	-5490
hance	-5491
imb	-5492
ammu	-5493
▁Once	-5494
▁preced	-5495
▁contacts	-5496
▁faithful	-5497
▁Cult	-5498
enance	-5499
▁phase	-5500
▁ability	-5501
▁incor	-5502
▁subsequ	-5503
▁BC	-5504
ammed	-5505
otic	-5506
▁lock	-5507
▁privile	-5508
▁proceedings	-5509
alg	-5510
ghan	-5511
plit	-5512
▁eleph	-5513
▁election	-5514
▁Va	-5515
esus	-5516
rief	-5517
▁heat	-5518
▁Prem	-5519
▁poem	-5520
▁Karnataka	-5521
▁commitment	-5522
▁successfully	-5523
esty	-5524
▁Stud	-5525
▁dign	-5526
▁interesting	-5527
▁Benef	-5528
▁healthy	-5529
raid	-5530
athered	-5531
▁Justice	-5532
orthern	-5533
▁appears	-5534
▁banking	-5535
▁replace	-5536
▁showing	-5537
rehensive	-5538
▁officials	-5539
▁Top	-5540
▁hop	-5541
▁descend	-5542
▁Log	-5543
▁Year	-5544
▁decades	-5545
▁records	-5546
▁warning	-5547
▁parliament	-5548
aly	-5549
▁Arabic	-5550
claim	-5551
▁grown	-5552
▁looks	-5553
▁burning	-5554
Pro	-5555
pta	-5556
▁DVD	-5557
plate	-5558
▁Iraq	-5559
▁Jews	-5560
▁weeks	-5561
▁Before	-5562
▁bright	-5563
▁assured	-5564
▁Security	-5565
▁supreme	-5566
▁falsehood	-5567
“”	-5568
▁Next	-5569
inated	-5570
▁defend	-5571
▁student	-5572
▁fundamental	-5573
aded	-5574
going	-5575
▁quot	-5576
mendment	-5577
mod	-5578
▁notes	-5579
▁toward	-5580
▁discussion	-5581
▁announced	-5582
▁2006	-5583
▁delay	-5584
erves	-5585
▁Help	-5586
▁factors	-5587
▁principle	-5588
lal	-5589
ses	-5590
rated	-5591
▁2013	-5592
▁bran	-5593
▁Vishn	-5594
▁writer	-5595
▁smaller	-5596
▁Administr	-5597
▁Don	-5598
▁Page	-5599
▁rates	-5600
▁tonnes	-5601
▁scholars	-5602
greg	-5603
▁Clear	-5604
▁Jammu	-5605
▁admit	-5606
▁scientists	-5607
▁Rad	-5608
ittees	-5609
luding	-5610
▁sitting	-5611
▁friendship	-5612
▁jurisdiction	-5613
▁Find	-5614
▁Brahm	-5615
ibilities	-5616
▁eth	-5617
▁reb	-5618
▁veh	-5619
erted	-5620
▁disk	-5621
anging	-5622
▁spoke	-5623
aughters	-5624
▁accident	-5625
▁Sind	-5626
▁herit	-5627
▁overt	-5628
▁Invest	-5629
▁followers	-5630
▁mur	-5631
▁Noah	-5632
▁coord	-5633
▁helps	-5634
▁democratic	-5635
rel	-5636
eless	-5637
abinet	-5638
ulating	-5639
▁merciful	-5640
▁proposed	-5641
▁Mand	-5642
▁coal	-5643
▁Rajya	-5644
▁abode	-5645
▁efficient	-5646
oken	-5647
▁Human	-5648
▁orient	-5649
▁unable	-5650
▁applied	-5651
▁offline	-5652
▁bringing	-5653
▁transferred	-5654
▁valu	-5655
▁abund	-5656
▁phone	-5657
▁objects	-5658
▁recognised	-5659
▁professional	-5660
bon	-5661
▁bes	-5662
holders	-5663
▁decide	-5664
▁becoming	-5665
▁conflict	-5666
▁uses	-5667
▁Nan	-5668
▁negative	-5669
UT	-5670
10	-5671
▁2005	-5672
▁exec	-5673
▁sole	-5674
det	-5675
▁bene	-5676
▁weap	-5677
pected	-5678
▁deleg	-5679
▁explo	-5680
▁doctor	-5681
▁showed	-5682
▁acquired	-5683
▁Application	-5684
oples	-5685
▁Call	-5686
▁hill	-5687
▁heritage	-5688
▁obtained	-5689
▁whatsoever	-5690
apur	-5691
▁2007	-5692
▁courts	-5693
▁Process	-5694
▁elected	-5695
▁engineering	-5696
▁translation	-5697
wa	-5698
▁skill	-5699
▁Sl	-5700
▁Unknown	-5701
▁married	-5702
▁Legislative	-5703
inity	-5704
▁Bose	-5705
▁abide	-5706
▁sugar	-5707
▁concent	-5708
▁instruments	-5709
▁Nare	-5710
▁Mahab	-5711
last	-5712
▁Down	-5713
▁currently	-5714
▁29	-5715
▁surpr	-5716
▁implemented	-5717
issa	-5718
▁effects	-5719
▁currency	-5720
anya	-5721
vent	-5722
▁Women	-5723
▁withdraw	-5724
▁daughters	-5725
ouch	-5726
▁drop	-5727
▁arrog	-5728
▁sending	-5729
▁Business	-5730
▁download	-5731
▁patience	-5732
▁Ka	-5733
▁eld	-5734
▁enhan	-5735
▁politics	-5736
IP	-5737
▁irr	-5738
▁adult	-5739
isations	-5740
▁FOR	-5741
▁cave	-5742
▁rice	-5743
▁candid	-5744
▁dispos	-5745
▁recall	-5746
▁1961-2018	-5747
▁recon	-5748
▁classes	-5749
quest	-5750
▁decisions	-5751
.—	-5752
ila	-5753
▁3,	-5754
aced	-5755
osit	-5756
▁compassion	-5757
▁Joseph	-5758
▁choice	-5759
▁destruction	-5760
▁administrative	-5761
had	-5762
▁ears	-5763
▁pollution	-5764
VE	-5765
▁Fort	-5766
▁Would	-5767
▁indig	-5768
▁damage	-5769
▁Ben	-5770
▁Mother	-5771
▁skills	-5772
▁dia	-5773
▁sends	-5774
▁hasten	-5775
▁playing	-5776
▁behold	-5777
▁Ent	-5778
No	-5779
▁doesn	-5780
▁attain	-5781
▁factor	-5782
▁obvious	-5783
▁appeared	-5784
▁objectives	-5785
omic	-5786
will	-5787
ormal	-5788
▁Found	-5789
▁technologies	-5790
▁gathered	-5791
wor	-5792
rier	-5793
▁fee	-5794
rites	-5795
▁lawful	-5796
ployment	-5797
▁compared	-5798
▁equipment	-5799
▁maintenance	-5800
▁Hon	-5801
▁escape	-5802
▁Affairs	-5803
▁ordinary	-5804
▁initiative	-5805
oser	-5806
▁Nadu	-5807
▁bounty	-5808
▁Kan	-5809
▁minds	-5810
▁noted	-5811
▁operating	-5812
lands	-5813
▁recip	-5814
▁permanent	-5815
alt	-5816
ishes	-5817
▁amb	-5818
▁Mugh	-5819
▁Afghan	-5820
▁stands	-5821
▁interpret	-5822
▁organized	-5823
▁university	-5824
iversary	-5825
▁archive	-5826
aman	-5827
▁CON	-5828
▁Yes	-5829
▁thoughts	-5830
MP	-5831
▁-.	-5832
ceeds	-5833
▁drugs	-5834
▁inherit	-5835
▁argument	-5836
▁organised	-5837
▁corruption	-5838
umer	-5839
▁adequate	-5840
▁western	-5841
▁Ministers	-5842
▁conducted	-5843
▁org	-5844
▁Mult	-5845
▁hall	-5846
omever	-5847
pective	-5848
▁Control	-5849
van	-5850
▁Dec	-5851
▁Ref	-5852
▁facts	-5853
▁compar	-5854
▁addressed	-5855
rat	-5856
▁Ali	-5857
▁Tel	-5858
▁rob	-5859
▁Kumar	-5860
▁prose	-5861
▁Chapter	-5862
▁maintained	-5863
inese	-5864
▁holds	-5865
▁afford	-5866
rad	-5867
▁CH	-5868
redit	-5869
ofindia	-5870
▁agency	-5871
▁settled	-5872
▁unknown	-5873
izon	-5874
▁kil	-5875
▁rent	-5876
▁constant	-5877
▁John	-5878
▁afraid	-5879
president	-5880
▁examples	-5881
ossible	-5882
▁enemies	-5883
▁weather	-5884
▁Industrial	-5885
fast	-5886
oned	-5887
▁Das	-5888
▁welcome	-5889
ankar	-5890
ensions	-5891
▁citizen	-5892
▁territory	-5893
▁GN	-5894
▁mos	-5895
▁Load	-5896
▁arms	-5897
▁Vishnu	-5898
▁resist	-5899
▁struct	-5900
▁thirty	-5901
▁suddenly	-5902
▁conference	-5903
)?	-5904
60	-5905
udi	-5906
▁cow	-5907
▁Remember	-5908
▁centuries	-5909
ni	-5910
www	-5911
antic	-5912
▁incur	-5913
▁desert	-5914
▁willed	-5915
▁identified	-5916
,—	-5917
alle	-5918
release	-5919
▁chance	-5920
presidentofindia	-5921
▁32	-5922
▁Tri	-5923
▁didn	-5924
▁pages	-5925
▁covering	-5926
▁dedicated	-5927
ially	-5928
▁lose	-5929
▁solution	-5930
izes	-5931
▁Gaz	-5932
▁evol	-5933
▁blessed	-5934
▁marketing	-5935
RE	-5936
Sh	-5937
itual	-5938
▁Frie	-5939
▁inval	-5940
▁atmosphere	-5941
ros	-5942
anas	-5943
brance	-5944
detail	-5945
▁solar	-5946
▁contents	-5947
arya	-5948
▁stars	-5949
▁transaction	-5950
▁bul	-5951
ourse	-5952
▁motion	-5953
odh	-5954
▁6.	-5955
▁attitude	-5956
▁demonstr	-5957
▁Files	-5958
▁prime	-5959
▁aims	-5960
▁favor	-5961
▁designed	-5962
▁eligible	-5963
▁Kab	-5964
▁rid	-5965
▁feature	-5966
▁finance	-5967
▁thousands	-5968
ST	-5969
▁tom	-5970
▁tasks	-5971
▁branches	-5972
▁wr	-5973
▁Jaw	-5974
▁vir	-5975
▁Flag	-5976
▁Musa	-5977
▁psych	-5978
▁closed	-5979
eal	-5980
▁ment	-5981
▁Whoever	-5982
▁guarant	-5983
▁medicine	-5984
▁terrible	-5985
▁substance	-5986
▁senior	-5987
▁peoples	-5988
▁districts	-5989
▁Hyder	-5990
▁finally	-5991
place	-5992
▁Sard	-5993
▁spot	-5994
▁Engine	-5995
▁Although	-5996
▁Regional	-5997
▁grateful	-5998
▁electricity	-5999
▁Judge	-6000
▁Middle	-6001
▁Austral	-6002
,'	-6003
▁Orissa	-6004
▁enhance	-6005
▁squared	-6006
je	-6007
▁il	-6008
▁Alm	-6009
▁idol	-6010
▁sanct	-6011
▁reported	-6012
atre	-6013
▁Jag	-6014
▁Good	-6015
▁Swami	-6016
▁blame	-6017
▁prayers	-6018
▁Christian	-6019
▁Ha	-6020
▁wage	-6021
▁flowers	-6022
▁pilgrim	-6023
▁2008	-6024
▁brows	-6025
▁Report	-6026
▁respective	-6027
isis	-6028
▁SP	-6029
▁memo	-6030
iments	-6031
▁strike	-6032
luded	-6033
▁costs	-6034
▁launch	-6035
ga	-6036
ette	-6037
▁offices	-6038
▁principal	-6039
▁brain	-6040
▁billion	-6041
▁felicit	-6042
▁identity	-6043
anta	-6044
lets	-6045
▁2002	-6046
▁brief	-6047
▁heads	-6048
▁marry	-6049
▁sweet	-6050
▁configuration	-6051
▁Ter	-6052
▁hrs	-6053
▁Best	-6054
▁User	-6055
ica	-6056
umin	-6057
▁font	-6058
rome	-6059
▁fourth	-6060
▁turning	-6061
iced	-6062
▁Sikh	-6063
▁Forest	-6064
ien	-6065
▁train	-6066
▁Ara	-6067
▁dog	-6068
ndered	-6069
▁ritual	-6070
▁theory	-6071
▁Agriculture	-6072
osers	-6073
▁Close	-6074
▁thereafter	-6075
▁Exe	-6076
▁discl	-6077
▁commod	-6078
ansion	-6079
▁Similar	-6080
▁Choose	-6081
▁whenever	-6082
▁Bin	-6083
▁ble	-6084
cutive	-6085
▁links	-6086
▁throw	-6087
▁ec	-6088
▁mock	-6089
oles	-6090
▁lif	-6091
▁Force	-6092
▁Rural	-6093
▁Small	-6094
▁simpl	-6095
▁width	-6096
▁occurred	-6097
▁committee	-6098
▁Rest	-6099
▁blue	-6100
▁Compan	-6101
▁Nature	-6102
▁fertil	-6103
▁advanced	-6104
elve	-6105
essor	-6106
▁forgot	-6107
▁Chinese	-6108
▁Univers	-6109
▁500	-6110
▁tim	-6111
acific	-6112
▁categ	-6113
▁coast	-6114
EP	-6115
FC	-6116
ster	-6117
▁Produ	-6118
▁broken	-6119
▁whomever	-6120
ranath	-6121
▁temporary	-6122
unction	-6123
▁elections	-6124
▁processes	-6125
ladesh	-6126
▁oblig	-6127
▁adjust	-6128
▁markets	-6129
▁Believers	-6130
agh	-6131
aut	-6132
▁crow	-6133
anj	-6134
▁Muse	-6135
▁Article	-6136
▁properly	-6137
▁penalty	-6138
▁Independence	-6139
SS	-6140
▁Id	-6141
▁gate	-6142
▁judgment	-6143
uta	-6144
▁Ye	-6145
▁2016	-6146
▁Adam	-6147
▁Vice	-6148
▁upgr	-6149
▁seemed	-6150
▁mad	-6151
osure	-6152
▁band	-6153
▁analysis	-6154
yl	-6155
pers	-6156
▁backs	-6157
▁union	-6158
▁reveal	-6159
▁arrived	-6160
▁Signs	-6161
▁Command	-6162
▁Eastern	-6163
▁Speaker	-6164
▁creative	-6165
avid	-6166
▁undertaken	-6167
.%	-6168
▁Pay	-6169
▁Sud	-6170
anish	-6171
▁rout	-6172
▁comfort	-6173
▁disbelief	-6174
▁movements	-6175
▁curs	-6176
▁189	-6177
▁Mos	-6178
marks	-6179
▁surre	-6180
▁properties	-6181
wan	-6182
▁suit	-6183
▁absence	-6184
▁accused	-6185
sha	-6186
▁menu	-6187
▁pled	-6188
▁informed	-6189
atio	-6190
ping	-6191
▁loans	-6192
▁functioning	-6193
hus	-6194
▁alt	-6195
▁orph	-6196
olkata	-6197
▁inhab	-6198
▁pride	-6199
▁mostly	-6200
▁displayed	-6201
akti	-6202
▁leads	-6203
▁capable	-6204
▁Divine	-6205
cont	-6206
quiry	-6207
▁roof	-6208
▁runs	-6209
▁Aware	-6210
▁poets	-6211
▁sorrow	-6212
▁accompan	-6213
▁tomorrow	-6214
▁bind	-6215
▁center	-6216
tes	-6217
ipes	-6218
aints	-6219
▁2015	-6220
▁plans	-6221
▁Options	-6222
▁immense	-6223
▁applicable	-6224
▁environmental	-6225
▁Az	-6226
onds	-6227
▁sad	-6228
▁fifty	-6229
▁multi	-6230
▁Judgment	-6231
yr	-6232
ola	-6233
▁aside	-6234
king	-6235
▁End	-6236
▁zero	-6237
▁Limited	-6238
▁organizations	-6239
oked	-6240
oring	-6241
▁filter	-6242
▁liquid	-6243
▁comment	-6244
▁expenses	-6245
pet	-6246
ibly	-6247
asant	-6248
▁Circ	-6249
edient	-6250
▁deity	-6251
ourable	-6252
▁journal	-6253
▁Settings	-6254
▁differences	-6255
30	-6256
TER	-6257
lude	-6258
mary	-6259
▁afflic	-6260
▁fulfil	-6261
▁temperature	-6262
phets	-6263
▁Read	-6264
▁girls	-6265
▁Hyderabad	-6266
▁possession	-6267
ym	-6268
iger	-6269
ports	-6270
raction	-6271
▁losers	-6272
▁Principal	-6273
▁compensation	-6274
stood	-6275
aviour	-6276
▁employee	-6277
uity	-6278
▁Awards	-6279
▁bottom	-6280
▁governments	-6281
zz	-6282
apa	-6283
▁pu	-6284
▁emotion	-6285
▁apostles	-6286
pto	-6287
▁75	-6288
osite	-6289
▁City	-6290
▁Tele	-6291
▁Apost	-6292
▁horse	-6293
▁expert	-6294
▁grieve	-6295
▁Institut	-6296
▁humanity	-6297
▁.	-6298
uit	-6299
char	-6300
▁fulfilled	-6301
▁sustenance	-6302
▁Oper	-6303
▁sequ	-6304
▁Subhas	-6305
▁category	-6306
▁represents	-6307
▁fed	-6308
▁worlds	-6309
▁outstanding	-6310
urved	-6311
▁French	-6312
▁apostle	-6313
▁El	-6314
while	-6315
criber	-6316
▁concl	-6317
▁exhib	-6318
▁Certain	-6319
▁sculpture	-6320
▁7.	-6321
ested	-6322
gor	-6323
▁Inn	-6324
iated	-6325
isher	-6326
▁hurt	-6327
▁simply	-6328
operative	-6329
▁Bur	-6330
asters	-6331
▁Server	-6332
▁188	-6333
▁mel	-6334
plete	-6335
▁deeply	-6336
▁extremely	-6337
▁automatically	-6338
ena	-6339
uli	-6340
▁decor	-6341
▁walls	-6342
▁deleted	-6343
wered	-6344
▁Food	-6345
▁Museum	-6346
▁formal	-6347
▁entirely	-6348
▁illust	-6349
▁Ban	-6350
▁Nations	-6351
▁equally	-6352
▁creatures	-6353
▁sor	-6354
▁formation	-6355
▁commission	-6356
▁wrongdoers	-6357
▁Gan	-6358
▁Tool	-6359
▁Narendra	-6360
▁4,	-6361
▁(4)	-6362
alam	-6363
otton	-6364
▁sees	-6365
▁arbit	-6366
▁sexual	-6367
▁survey	-6368
▁starting	-6369
▁Lal	-6370
▁Link	-6371
▁narrow	-6372
▁strive	-6373
▁explain	-6374
▁allowance	-6375
▁belonging	-6376
▁Kor	-6377
▁aspir	-6378
▁refused	-6379
▁chargeable	-6380
▁distinguished	-6381
IF	-6382
▁10,	-6383
▁offers	-6384
▁proposal	-6385
▁proportion	-6386
▁flower	-6387
▁impart	-6388
▁opposition	-6389
iform	-6390
active	-6391
▁Password	-6392
▁directed	-6393
▁Scheduled	-6394
PC	-6395
enous	-6396
▁Support	-6397
▁Award	-6398
▁absor	-6399
▁transp	-6400
▁composed	-6401
rd	-6402
▁1999	-6403
▁owners	-6404
▁Related	-6405
▁transactions	-6406
uru	-6407
▁pregn	-6408
▁Apostle	-6409
▁initiated	-6410
▁architecture	-6411
NG	-6412
hel	-6413
▁Init	-6414
▁fuel	-6415
theists	-6416
▁Kolkata	-6417
{0}	-6418
▁Fa	-6419
▁Soft	-6420
▁wicked	-6421
▁calling	-6422
▁Association	-6423
▁Video	-6424
▁solid	-6425
▁Pacific	-6426
▁wherever	-6427
▁Dar	-6428
▁Has	-6429
▁Light	-6430
▁quickly	-6431
▁Mohammed	-6432
▁customer	-6433
▁speaking	-6434
▁improvement	-6435
▁deed	-6436
coming	-6437
▁dynam	-6438
▁equity	-6439
▁Further	-6440
ooth	-6441
▁Tab	-6442
▁hom	-6443
orter	-6444
▁colon	-6445
▁digital	-6446
▁tourism	-6447
yal	-6448
▁115	-6449
▁Line	-6450
▁towns	-6451
▁Mughal	-6452
OM	-6453
▁Jesus	-6454
▁perce	-6455
▁Economic	-6456
▁believes	-6457
▁stones	-6458
▁dealing	-6459
▁specify	-6460
▁prostrate	-6461
▁Lic	-6462
pends	-6463
▁clot	-6464
▁Joint	-6465
▁Deputy	-6466
▁border	-6467
▁steel	-6468
▁twelve	-6469
▁update	-6470
SL	-6471
▁prove	-6472
▁Industry	-6473
▁promoting	-6474
xic	-6475
pring	-6476
▁cool	-6477
▁fought	-6478
▁beneath	-6479
▁Bangladesh	-6480
▁Province	-6481
▁explained	-6482
▁dro	-6483
▁sustainable	-6484
▁instructions	-6485
▁Urdu	-6486
aration	-6487
▁sincere	-6488
▁admitted	-6489
▁hypocrites	-6490
oman	-6491
ename	-6492
▁clay	-6493
▁shad	-6494
▁Trade	-6495
▁theirs	-6496
▁council	-6497
▁pension	-6498
erate	-6499
iplom	-6500
▁Plug	-6501
▁career	-6502
▁railway	-6503
▁recited	-6504
▁remaining	-6505
St	-6506
abet	-6507
edia	-6508
▁Pras	-6509
▁Access	-6510
▁Sardar	-6511
▁befall	-6512
▁Mat	-6513
▁Persian	-6514
▁Through	-6515
▁happens	-6516
▁tro	-6517
▁vig	-6518
▁Build	-6519
▁Garden	-6520
▁conven	-6521
▁tribal	-6522
▁Schedule	-6523
ris	-6524
▁90	-6525
remony	-6526
▁bones	-6527
▁glory	-6528
▁tools	-6529
amation	-6530
▁Jawahar	-6531
▁Something	-6532
▁Chen	-6533
▁race	-6534
▁invited	-6535
▁Christians	-6536
▁5,	-6537
▁soldiers	-6538
▁core	-6539
earing	-6540
▁Never	-6541
▁leaving	-6542
▁Mahabhar	-6543
withstanding	-6544
TS	-6545
oes	-6546
agers	-6547
urb	-6548
oding	-6549
▁bone	-6550
▁pane	-6551
fortun	-6552
▁renew	-6553
▁asking	-6554
▁render	-6555
▁exports	-6556
▁trouble	-6557
▁hur	-6558
▁scope	-6559
▁Common	-6560
▁revenue	-6561
▁Document	-6562
▁Insurance	-6563
▁rising	-6564
▁judgement	-6565
▁respectively	-6566
rary	-6567
▁holy	-6568
▁actor	-6569
▁owner	-6570
▁Tar	-6571
▁obtain	-6572
▁immediate	-6573
aud	-6574
that	-6575
▁pull	-6576
▁cricket	-6577
DA	-6578
▁bag	-6579
▁Look	-6580
▁flat	-6581
▁Israeli	-6582
▁writers	-6583
▁ves	-6584
▁Full	-6585
▁satisfied	-6586
▁contributions	-6587
▁Status	-6588
▁recite	-6589
▁accompl	-6590
HA	-6591
▁hat	-6592
▁spr	-6593
owing	-6594
▁Babu	-6595
▁Geor	-6596
▁Keep	-6597
▁Unit	-6598
▁depth	-6599
▁tissue	-6600
▁palm	-6601
▁breed	-6602
▁overall	-6603
▁recognition	-6604
cts	-6605
▁adj	-6606
▁stick	-6607
OV	-6608
▁2001	-6609
▁cere	-6610
▁twice	-6611
▁crisis	-6612
▁thread	-6613
▁drinking	-6614
▁contribute	-6615
LE	-6616
roc	-6617
▁IC	-6618
aved	-6619
▁drown	-6620
▁counsel	-6621
▁framework	-6622
▁wear	-6623
▁Noble	-6624
▁invalid	-6625
▁offering	-6626
▁contemporary	-6627
De	-6628
ming	-6629
▁hen	-6630
▁unp	-6631
DU	-6632
▁Shiva	-6633
▁drama	-6634
▁rect	-6635
▁evolution	-6636
▁communications	-6637
▁Later	-6638
▁answered	-6639
oval	-6640
inder	-6641
▁pieces	-6642
▁detailed	-6643
▁neighbour	-6644
▁facilitate	-6645
)!	-6646
▁Ans	-6647
▁Note	-6648
▁Take	-6649
▁spect	-6650
▁harvest	-6651
▁employed	-6652
kan	-6653
▁era	-6654
▁labor	-6655
▁lying	-6656
▁split	-6657
▁tongue	-6658
▁depends	-6659
▁settlement	-6660
▁personality	-6661
Al	-6662
IM	-6663
▁tea	-6664
▁legs	-6665
▁stayed	-6666
▁availability	-6667
ads	-6668
▁shar	-6669
▁Except	-6670
▁continues	-6671
▁Vol	-6672
father	-6673
▁understood	-6674
osa	-6675
▁Rab	-6676
▁map	-6677
Indeed	-6678
▁Madhya	-6679
▁Member	-6680
▁couple	-6681
▁intended	-6682
▁restrict	-6683
room	-6684
▁Term	-6685
▁ends	-6686
▁Editor	-6687
▁firmly	-6688
▁Disable	-6689
▁revelation	-6690
pes	-6691
▁kn	-6692
▁shop	-6693
▁Table	-6694
▁chain	-6695
▁trading	-6696
▁behaviour	-6697
▁wa	-6698
▁unl	-6699
▁Malay	-6700
▁affair	-6701
▁equality	-6702
▁hyd	-6703
uality	-6704
▁thick	-6705
▁acknow	-6706
▁desired	-6707
▁consumer	-6708
Moses	-6709
▁flood	-6710
edience	-6711
▁appell	-6712
▁hardly	-6713
▁regarded	-6714
▁Assessing	-6715
ushed	-6716
▁News	-6717
▁Perm	-6718
▁shaped	-6719
▁arising	-6720
▁desktop	-6721
▁judicial	-6722
▁solutions	-6723
mic	-6724
▁icon	-6725
▁charity	-6726
▁repeated	-6727
▁celebrated	-6728
▁Lt	-6729
▁Main	-6730
urally	-6731
▁Local	-6732
▁conceal	-6733
▁derived	-6734
▁preview	-6735
▁sisters	-6736
▁communal	-6737
anka	-6738
ishment	-6739
▁slight	-6740
▁evident	-6741
▁component	-6742
IG	-6743
ds	-6744
care	-6745
ruit	-6746
▁gift	-6747
ded	-6748
▁Oft	-6749
▁gall	-6750
▁alarm	-6751
▁layer	-6752
version	-6753
▁clouds	-6754
▁computing	-6755
▁religions	-6756
▁sam	-6757
▁migr	-6758
▁ties	-6759
▁Comput	-6760
▁arrangement	-6761
ayer	-6762
riya	-6763
▁eggs	-6764
▁lamp	-6765
▁audit	-6766
▁seeds	-6767
▁Himself	-6768
▁interested	-6769
▁database	-6770
ona	-6771
ulty	-6772
ector	-6773
inter	-6774
▁pert	-6775
▁Innov	-6776
▁stake	-6777
▁driven	-6778
▁diverse	-6779
▁comprehensive	-6780
▁KDE	-6781
▁Sem	-6782
▁grain	-6783
▁difficulty	-6784
▁acquisition	-6785
Why	-6786
garh	-6787
▁Ele	-6788
▁Upd	-6789
▁Vir	-6790
▁Tell	-6791
▁alive	-6792
▁apparent	-6793
▁hardship	-6794
▁buildings	-6795
▁traditions	-6796
▁intelligence	-6797
rer	-6798
gent	-6799
▁ease	-6800
ounded	-6801
▁index	-6802
▁waters	-6803
ords	-6804
▁Run	-6805
▁fet	-6806
▁rub	-6807
▁Priv	-6808
ensity	-6809
▁guidelines	-6810
-19	-6811
Who	-6812
▁doll	-6813
▁persist	-6814
▁customers	-6815
▁suggested	-6816
▁Foundation	-6817
▁worshipped	-6818
appe	-6819
▁Dra	-6820
▁crores	-6821
▁Buddhist	-6822
▁hun	-6823
▁Army	-6824
▁Laksh	-6825
▁ships	-6826
▁detail	-6827
▁servant	-6828
▁efficiency	-6829
▁sets	-6830
▁Friends	-6831
▁185	-6832
▁span	-6833
▁symp	-6834
▁disgra	-6835
▁overcome	-6836
▁Ja	-6837
▁Liter	-6838
▁naught	-6839
▁improving	-6840
▁Hand	-6841
▁observe	-6842
▁definite	-6843
▁strategy	-6844
▁estimated	-6845
mun	-6846
▁Card	-6847
▁Gold	-6848
▁budget	-6849
▁entrust	-6850
▁collected	-6851
▁preferred	-6852
▁fram	-6853
▁Green	-6854
▁radio	-6855
▁achievement	-6856
PI	-6857
▁onto	-6858
▁Comment	-6859
▁discussed	-6860
▁enjoyment	-6861
ocks	-6862
▁pit	-6863
▁hills	-6864
▁Academ	-6865
▁victim	-6866
▁numerous	-6867
▁fix	-6868
▁hit	-6869
▁exch	-6870
▁Being	-6871
iel	-6872
▁Due	-6873
▁dan	-6874
rahim	-6875
▁2012	-6876
▁Allow	-6877
▁begins	-6878
▁repentance	-6879
On	-6880
arh	-6881
iche	-6882
▁Test	-6883
▁busy	-6884
▁judges	-6885
▁advised	-6886
▁grew	-6887
▁roads	-6888
▁spite	-6889
▁facing	-6890
▁Palestinian	-6891
▁filed	-6892
▁Houses	-6893
▁Window	-6894
esterday	-6895
▁forests	-6896
iri	-6897
▁Lot	-6898
▁Rece	-6899
▁floor	-6900
▁outer	-6901
▁deliber	-6902
▁expansion	-6903
book	-6904
▁incorpor	-6905
▁proclaim	-6906
▁recognized	-6907
▁consumption	-6908
ums	-6909
▁Lat	-6910
▁lect	-6911
▁aband	-6912
▁allot	-6913
what	-6914
▁Jain	-6915
▁Windows	-6916
▁eval	-6917
▁Pandit	-6918
▁integrated	-6919
▁rot	-6920
iliar	-6921
▁Spec	-6922
▁Count	-6923
▁Annual	-6924
▁millions	-6925
▁permitted	-6926
▁considerable	-6927
UM	-6928
lo	-6929
▁36	-6930
▁Ask	-6931
▁Size	-6932
▁linked	-6933
▁telephone	-6934
irs	-6935
oli	-6936
▁flight	-6937
▁masses	-6938
▁imperial	-6939
▁improved	-6940
▁impossible	-6941
▁inspiration	-6942
opal	-6943
▁Bra	-6944
▁Pad	-6945
▁vit	-6946
▁embra	-6947
▁investments	-6948
▁202	-6949
tical	-6950
▁2017	-6951
▁Commer	-6952
▁highlight	-6953
▁Bet	-6954
▁pious	-6955
ny	-6956
▁Tham	-6957
inating	-6958
▁housing	-6959
▁Deb	-6960
ificial	-6961
welling	-6962
▁decree	-6963
▁Germany	-6964
▁felicitations	-6965
nan	-6966
time	-6967
▁phen	-6968
inance	-6969
▁Chait	-6970
▁David	-6971
▁stages	-6972
▁offence	-6973
▁meetings	-6974
▁Afghanistan	-6975
▁'.	-6976
▁Ce	-6977
▁La	-6978
pelled	-6979
▁Dal	-6980
.2014	-6981
entle	-6982
▁agent	-6983
▁amalg	-6984
▁curse	-6985
▁observ	-6986
▁Accounts	-6987
▁Committees	-6988
mits	-6989
▁buff	-6990
▁pick	-6991
▁Global	-6992
▁spoken	-6993
▁vessel	-6994
▁yellow	-6995
▁deposits	-6996
▁identify	-6997
▁Left	-6998
▁Earth	-6999
▁Energy	-7000
▁mailing	-7001
▁talking	-7002
▁worldly	-7003
▁reasonable	-7004
▁regulations	-7005
ota	-7006
atar	-7007
▁raw	-7008
▁aggreg	-7009
▁commence	-7010
▁completion	-7011
▁excellence	-7012
▁45	-7013
▁Get	-7014
▁Jay	-7015
▁shel	-7016
ashing	-7017
▁toler	-7018
▁guardian	-7019
▁Similarly	-7020
ION	-7021
anga	-7022
▁Dig	-7023
▁Road	-7024
▁prohib	-7025
▁Tourism	-7026
▁disobey	-7027
▁emphasis	-7028
▁steadfast	-7029
▁harmony	-7030
▁incurred	-7031
asw	-7032
▁surg	-7033
▁Asian	-7034
▁adorn	-7035
▁armed	-7036
▁street	-7037
▁criminal	-7038
▁Saty	-7039
▁acting	-7040
▁encomp	-7041
▁farmer	-7042
▁Kingdom	-7043
▁empower	-7044
▁willing	-7045
▁discharge	-7046
▁attachment	-7047
As	-7048
DR	-7049
och	-7050
pens	-7051
▁Gupta	-7052
▁breath	-7053
▁helper	-7054
life	-7055
▁via	-7056
▁describ	-7057
▁Whatever	-7058
icent	-7059
▁thor	-7060
▁Email	-7061
▁Credit	-7062
▁respite	-7063
eer	-7064
otes	-7065
▁edge	-7066
▁idols	-7067
▁mirac	-7068
jection	-7069
justice	-7070
▁Master	-7071
▁demands	-7072
▁remembrance	-7073
▁organisations	-7074
Be	-7075
▁Gree	-7076
▁rebell	-7077
▁quantity	-7078
▁continuous	-7079
▁conservation	-7080
izer	-7081
▁Appe	-7082
iciary	-7083
▁noble	-7084
▁ratio	-7085
▁warned	-7086
1}	-7087
AGE	-7088
utt	-7089
▁bh	-7090
▁mixed	-7091
▁Follow	-7092
▁propag	-7093
▁faithless	-7094
▁constructed	-7095
▁Temple	-7096
▁starts	-7097
ographical	-7098
▁signature	-7099
▁Tor	-7100
anath	-7101
▁Phot	-7102
▁stamp	-7103
▁rulers	-7104
▁stored	-7105
▁reprodu	-7106
▁distributed	-7107
▁representative	-7108
OME	-7109
▁Rev	-7110
▁zone	-7111
▁Ambed	-7112
▁Police	-7113
▁liberal	-7114
▁Jawaharlal	-7115
▁mov	-7116
vation	-7117
orous	-7118
▁Ambedkar	-7119
umes	-7120
icipal	-7121
▁sites	-7122
▁irrigation	-7123
EG	-7124
▁du	-7125
▁allows	-7126
▁violent	-7127
▁encompass	-7128
▁remarkable	-7129
▁whomsoever	-7130
▁Equ	-7131
▁Mac	-7132
▁goals	-7133
▁Capital	-7134
▁touched	-7135
▁appearance	-7136
aks	-7137
ected	-7138
ureau	-7139
▁marks	-7140
▁complaint	-7141
▁electronic	-7142
ued	-7143
▁Fed	-7144
▁impr	-7145
▁crime	-7146
▁encry	-7147
▁eastern	-7148
▁pointed	-7149
▁prepare	-7150
▁interface	-7151
▁satisfaction	-7152
▁33	-7153
asty	-7154
itya	-7155
etary	-7156
essions	-7157
▁Cabinet	-7158
yas	-7159
odal	-7160
▁valley	-7161
▁Manager	-7162
▁Knowledge	-7163
ikh	-7164
ranch	-7165
▁Land	-7166
▁baby	-7167
▁meat	-7168
▁vacc	-7169
▁defin	-7170
▁Integr	-7171
▁college	-7172
▁involve	-7173
▁Himachal	-7174
▁productivity	-7175
otal	-7176
▁sed	-7177
▁hast	-7178
▁scen	-7179
▁disabled	-7180
▁ensuring	-7181
▁transmission	-7182
▁Sab	-7183
▁sav	-7184
▁dawn	-7185
▁notified	-7186
▁securities	-7187
aren	-7188
▁van	-7189
▁doom	-7190
▁Online	-7191
▁struck	-7192
▁Bharati	-7193
▁personnel	-7194
▁difficulties	-7195
uddin	-7196
▁clust	-7197
▁paramet	-7198
▁External	-7199
▁superior	-7200
▁Companies	-7201
▁recognize	-7202
▁Jh	-7203
▁rou	-7204
▁tot	-7205
▁Banks	-7206
▁camel	-7207
▁Ibrahim	-7208
”;	-7209
▁Farm	-7210
▁spring	-7211
imony	-7212
▁Democ	-7213
▁tender	-7214
▁Panchay	-7215
▁convert	-7216
▁windows	-7217
▁categories	-7218
▁competition	-7219
▁Agricultural	-7220
▁determination	-7221
▁enact	-7222
▁falls	-7223
▁silver	-7224
▁Subject	-7225
▁fulfill	-7226
▁Amendment	-7227
▁requested	-7228
▁interpretation	-7229
rum	-7230
▁ocean	-7231
▁theatre	-7232
▁Calendar	-7233
▁corporate	-7234
▁directions	-7235
CH	-7236
▁tag	-7237
▁virtue	-7238
▁relatives	-7239
▁elim	-7240
▁jobs	-7241
▁Ahmed	-7242
▁cried	-7243
▁finds	-7244
▁verse	-7245
▁universe	-7246
emic	-7247
▁bat	-7248
ounter	-7249
▁aught	-7250
▁herself	-7251
▁affection	-7252
▁Od	-7253
▁Lad	-7254
▁Tog	-7255
▁1956	-7256
izontal	-7257
▁planned	-7258
▁discussions	-7259
.“	-7260
▁diversity	-7261
▁mechanism	-7262
▁participate	-7263
aron	-7264
▁Cop	-7265
▁bug	-7266
organ	-7267
▁acid	-7268
▁metal	-7269
▁Territ	-7270
▁trained	-7271
▁writings	-7272
▁injustice	-7273
▁voluntary	-7274
how	-7275
▁jail	-7276
▁Level	-7277
▁Vedic	-7278
▁Source	-7279
▁divers	-7280
▁occurs	-7281
▁degrees	-7282
▁founded	-7283
▁strengthening	-7284
enn	-7285
▁Amb	-7286
▁Dom	-7287
▁upto	-7288
▁Guard	-7289
▁haply	-7290
▁executive	-7291
▁convention	-7292
YS	-7293
▁Fac	-7294
▁pair	-7295
▁sympt	-7296
▁Filter	-7297
▁chapter	-7298
▁enterprise	-7299
their	-7300
▁Chenn	-7301
▁usual	-7302
▁realize	-7303
▁accommod	-7304
ima	-7305
ether	-7306
icted	-7307
▁White	-7308
▁Spirit	-7309
▁Software	-7310
▁vegetables	-7311
▁Ang	-7312
▁None	-7313
▁Peace	-7314
▁addresses	-7315
▁righteousness	-7316
?'	-7317
▁HTML	-7318
▁grat	-7319
▁Super	-7320
▁Prasad	-7321
▁palace	-7322
▁courses	-7323
▁infection	-7324
▁intention	-7325
usal	-7326
bered	-7327
▁Cell	-7328
▁abst	-7329
▁breasts	-7330
▁employer	-7331
▁suffered	-7332
▁gradually	-7333
ALL	-7334
anks	-7335
illa	-7336
▁vain	-7337
▁older	-7338
▁socio	-7339
▁Screen	-7340
’.	-7341
AND	-7342
They	-7343
aked	-7344
▁cart	-7345
▁offs	-7346
▁claimed	-7347
▁liability	-7348
DP	-7349
▁UT	-7350
olic	-7351
wers	-7352
iques	-7353
rance	-7354
▁Vers	-7355
▁draft	-7356
▁saving	-7357
▁devoted	-7358
▁ordered	-7359
▁practical	-7360
▁prominent	-7361
OU	-7362
▁coc	-7363
▁corner	-7364
▁differ	-7365
▁equals	-7366
▁Vij	-7367
▁park	-7368
▁owned	-7369
cession	-7370
▁condem	-7371
▁domain	-7372
▁Ramayana	-7373
▁Parliamentary	-7374
▁8.	-7375
▁10.	-7376
▁Four	-7377
▁alle	-7378
▁silk	-7379
urated	-7380
▁invent	-7381
▁removal	-7382
▁Way	-7383
rease	-7384
▁Cond	-7385
▁needy	-7386
▁Madras	-7387
▁achievements	-7388
Pe	-7389
bles	-7390
▁Var	-7391
▁rhy	-7392
atell	-7393
▁Raja	-7394
▁axis	-7395
▁pard	-7396
▁widely	-7397
▁greatly	-7398
▁duration	-7399
▁anniversary	-7400
▁departments	-7401
chron	-7402
house	-7403
▁subt	-7404
▁Apart	-7405
▁panel	-7406
▁Ayurved	-7407
▁elephant	-7408
aze	-7409
▁Guid	-7410
ulatory	-7411
▁Exalted	-7412
▁stopped	-7413
▁increases	-7414
▁effectively	-7415
▁Wid	-7416
▁2011	-7417
▁resc	-7418
▁eternal	-7419
▁Australia	-7420
ker	-7421
obe	-7422
▁URI	-7423
▁accum	-7424
▁liars	-7425
▁quiet	-7426
▁resolve	-7427
▁attended	-7428
▁distress	-7429
▁acceptance	-7430
”,	-7431
part	-7432
▁sev	-7433
ounds	-7434
▁nurs	-7435
▁advoc	-7436
inations	-7437
▁awarded	-7438
▁equival	-7439
▁arrangements	-7440
▁cos	-7441
▁ran	-7442
lines	-7443
▁Mode	-7444
aching	-7445
▁approx	-7446
▁wholly	-7447
▁inhabit	-7448
▁accurate	-7449
▁significance	-7450
▁York	-7451
▁programs	-7452
▁contributed	-7453
da	-7454
unc	-7455
▁70	-7456
▁Eff	-7457
▁Mir	-7458
▁bell	-7459
▁boys	-7460
orders	-7461
istries	-7462
▁plaint	-7463
▁devices	-7464
▁printed	-7465
▁streams	-7466
▁assembly	-7467
▁southern	-7468
▁forwarded	-7469
yn	-7470
▁300	-7471
▁sake	-7472
▁beside	-7473
▁papers	-7474
chief	-7475
▁glass	-7476
▁disappe	-7477
END	-7478
jan	-7479
▁Exp	-7480
▁Lah	-7481
▁lev	-7482
▁yours	-7483
▁humble	-7484
▁pillars	-7485
▁specially	-7486
▁NPS	-7487
▁nom	-7488
▁2004	-7489
▁Task	-7490
▁Const	-7491
▁flesh	-7492
▁forty	-7493
▁claims	-7494
▁recommendations	-7495
bind	-7496
▁viz	-7497
inces	-7498
iously	-7499
▁Mercy	-7500
▁innoc	-7501
▁Details	-7502
▁drawing	-7503
▁faculty	-7504
▁subjected	-7505
)."	-7506
▁-,	-7507
upon	-7508
▁2003	-7509
▁Perhaps	-7510
▁controlled	-7511
IME	-7512
▁eve	-7513
asures	-7514
ronics	-7515
▁delic	-7516
▁sovere	-7517
off	-7518
urse	-7519
▁Mor	-7520
▁myth	-7521
▁Audio	-7522
▁Russia	-7523
▁shrine	-7524
▁weapons	-7525
▁ignorance	-7526
▁investors	-7527
▁partition	-7528
▁receiving	-7529
ua	-7530
▁determine	-7531
▁terrorist	-7532
14	-7533
▁fly	-7534
reement	-7535
▁recovery	-7536
OT	-7537
▁AN	-7538
rounds	-7539
▁License	-7540
bre	-7541
▁Tir	-7542
▁deaf	-7543
▁scene	-7544
▁usage	-7545
▁components	-7546
▁accompanied	-7547
▁Luc	-7548
▁Lanka	-7549
▁illeg	-7550
▁kings	-7551
▁covers	-7552
▁sentence	-7553
▁companions	-7554
▁Universities	-7555
acc	-7556
▁IM	-7557
tched	-7558
▁ungr	-7559
▁permiss	-7560
▁strange	-7561
umph	-7562
▁Far	-7563
▁Kam	-7564
▁Bhut	-7565
▁phenomen	-7566
Ad	-7567
lihood	-7568
▁unseen	-7569
▁ceremony	-7570
▁educated	-7571
▁monitoring	-7572
zy	-7573
peror	-7574
▁bridge	-7575
▁danger	-7576
▁package	-7577
▁Chaitanya	-7578
▁producing	-7579
▁admonition	-7580
aming	-7581
▁MSME	-7582
▁fasc	-7583
▁Binoy	-7584
gorithm	-7585
▁deities	-7586
▁Location	-7587
▁structures	-7588
▁nav	-7589
▁2009	-7590
▁stress	-7591
▁Connect	-7592
▁profile	-7593
▁ego	-7594
▁www	-7595
allel	-7596
▁Ever	-7597
▁Major	-7598
▁cloth	-7599
▁Action	-7600
▁bacter	-7601
▁Wik	-7602
attered	-7603
▁familiar	-7604
▁strategic	-7605
wing	-7606
▁lege	-7607
▁urge	-7608
▁cotton	-7609
▁aggress	-7610
medi	-7611
▁187	-7612
▁clar	-7613
▁prefer	-7614
▁indirect	-7615
isted	-7616
pping	-7617
▁player	-7618
▁browser	-7619
▁enforce	-7620
down	-7621
long	-7622
▁acce	-7623
▁bears	-7624
▁Download	-7625
▁Certainly	-7626
▁Executive	-7627
▁substantial	-7628
oram	-7629
▁mak	-7630
▁Orig	-7631
▁infinite	-7632
▁reckoning	-7633
het	-7634
azing	-7635
▁proxy	-7636
▁seeks	-7637
ailable	-7638
▁creates	-7639
▁classical	-7640
▁encouraged	-7641
icket	-7642
▁exem	-7643
▁myst	-7644
▁salt	-7645
▁Hence	-7646
▁fluid	-7647
▁worst	-7648
▁wrath	-7649
▁permit	-7650
▁retrie	-7651
▁realise	-7652
▁dwelling	-7653
▁testimony	-7654
▁Burn	-7655
▁Rights	-7656
▁diplom	-7657
▁eminent	-7658
▁musical	-7659
▁prophet	-7660
HER	-7661
itra	-7662
leum	-7663
▁Short	-7664
▁adopt	-7665
▁chair	-7666
▁ended	-7667
▁League	-7668
▁Sector	-7669
▁imagine	-7670
▁publish	-7671
▁internet	-7672
▁valuable	-7673
▁discipline	-7674
gage	-7675
There	-7676
arest	-7677
▁tear	-7678
▁Install	-7679
▁lessons	-7680
▁prevail	-7681
▁ignorant	-7682
▁innovative	-7683
lin	-7684
▁34	-7685
▁cup	-7686
.2016	-7687
▁bull	-7688
▁node	-7689
ashion	-7690
▁sharing	-7691
▁tremend	-7692
▁subsequent	-7693
▁Bo	-7694
iable	-7695
▁Shiv	-7696
▁pron	-7697
akrish	-7698
▁oaths	-7699
ository	-7700
▁testing	-7701
▁arranged	-7702
▁distinction	-7703
▁Sin	-7704
▁vide	-7705
▁northern	-7706
▁Center	-7707
▁Person	-7708
▁Medical	-7709
▁normally	-7710
▁resulting	-7711
ECH	-7712
ham	-7713
liest	-7714
▁Koran	-7715
▁lesson	-7716
▁biggest	-7717
▁despite	-7718
▁constitu	-7719
▁director	-7720
▁authorised	-7721
ITY	-7722
lex	-7723
ding	-7724
ounce	-7725
▁Somet	-7726
▁Forward	-7727
▁mothers	-7728
▁respondent	-7729
pat	-7730
thi	-7731
alore	-7732
▁vary	-7733
expected	-7734
▁quarter	-7735
▁Selection	-7736
▁alternative	-7737
▁Da	-7738
When	-7739
TIONAL	-7740
▁Value	-7741
▁faced	-7742
▁client	-7743
▁slaves	-7744
operation	-7745
▁representatives	-7746
▁(6	-7747
▁Cle	-7748
idences	-7749
▁debate	-7750
▁emerging	-7751
▁narr	-7752
worthy	-7753
▁dreams	-7754
▁constantly	-7755
▁collaboration	-7756
bl	-7757
ria	-7758
artments	-7759
▁combination	-7760
EF	-7761
▁Fe	-7762
▁NAB	-7763
▁bath	-7764
▁bomb	-7765
▁Nagar	-7766
Laughter	-7767
▁falling	-7768
▁killing	-7769
▁knoweth	-7770
▁carefully	-7771
.2015	-7772
▁Said	-7773
▁listed	-7774
▁exactly	-7775
▁entrusted	-7776
▁submission	-7777
▁Legislature	-7778
▁legislation	-7779
▁presentation	-7780
za	-7781
amber	-7782
▁Prot	-7783
▁patri	-7784
▁finding	-7785
▁Officers	-7786
▁qualities	-7787
80	-7788
eper	-7789
▁Ary	-7790
▁Tal	-7791
▁Vidy	-7792
▁compuls	-7793
▁Ek	-7794
▁mun	-7795
being	-7796
▁ring	-7797
▁midst	-7798
pection	-7799
▁minute	-7800
▁historic	-7801
▁painting	-7802
▁competent	-7803
▁cultivation	-7804
▁wed	-7805
angle	-7806
▁airc	-7807
▁beat	-7808
▁tube	-7809
▁unaw	-7810
▁cards	-7811
▁loves	-7812
▁humili	-7813
▁reader	-7814
▁Manipur	-7815
▁missing	-7816
▁pictures	-7817
▁ungrateful	-7818
▁IIT	-7819
▁Ltd	-7820
▁Rah	-7821
acing	-7822
▁diam	-7823
▁snow	-7824
▁Again	-7825
▁flour	-7826
▁closely	-7827
▁terminal	-7828
':%	-7829
rers	-7830
▁Sen	-7831
▁Hide	-7832
encing	-7833
roleum	-7834
▁solve	-7835
▁forced	-7836
▁injury	-7837
▁imprison	-7838
Re	-7839
husi	-7840
▁Taj	-7841
▁cycle	-7842
▁gradu	-7843
▁sales	-7844
▁decade	-7845
▁discrim	-7846
▁mandapa	-7847
▁arrogant	-7848
▁disgrace	-7849
▁reaching	-7850
▁weakness	-7851
▁transformation	-7852
ela	-7853
itud	-7854
omon	-7855
▁Sund	-7856
▁merg	-7857
ipping	-7858
▁advis	-7859
▁France	-7860
▁poetic	-7861
▁preparation	-7862
▁congratulate	-7863
Os	-7864
UG	-7865
▁Kir	-7866
▁anx	-7867
▁hence	-7868
lasting	-7869
▁Plugin	-7870
▁engage	-7871
▁goddess	-7872
oso	-7873
utory	-7874
▁worse	-7875
▁sports	-7876
▁helping	-7877
▁sinners	-7878
▁Japanese	-7879
▁Maharaja	-7880
▁commands	-7881
▁sensitive	-7882
▁represented	-7883
▁grief	-7884
▁motor	-7885
▁eating	-7886
entation	-7887
▁reserve	-7888
▁triumph	-7889
ador	-7890
▁pig	-7891
▁Does	-7892
▁females	-7893
▁raising	-7894
▁vehicle	-7895
▁arguments	-7896
▁authentication	-7897
fl	-7898
▁150	-7899
▁dealt	-7900
▁Courts	-7901
▁traffic	-7902
▁opposite	-7903
▁technique	-7904
wal	-7905
▁44	-7906
▁je	-7907
▁Abd	-7908
▁divor	-7909
▁wages	-7910
▁finger	-7911
▁enthusi	-7912
▁Template	-7913
)]	-7914
asy	-7915
olt	-7916
▁Ach	-7917
▁Durg	-7918
▁alike	-7919
▁anger	-7920
▁roots	-7921
▁resort	-7922
▁declare	-7923
▁ordained	-7924
▁technological	-7925
uv	-7926
rut	-7927
tha	-7928
alaya	-7929
orters	-7930
▁Object	-7931
▁carbon	-7932
▁ending	-7933
▁regularly	-7934
▁entrepreneur	-7935
▁diet	-7936
▁inev	-7937
▁rose	-7938
▁Order	-7939
▁signal	-7940
▁strict	-7941
▁concerns	-7942
▁proposals	-7943
▁requirement	-7944
pent	-7945
▁Working	-7946
▁largely	-7947
▁studied	-7948
▁Interest	-7949
▁offspring	-7950
▁livelihood	-7951
jud	-7952
▁02	-7953
▁kg	-7954
achi	-7955
▁wat	-7956
▁chrom	-7957
▁hosts	-7958
▁seats	-7959
▁advert	-7960
▁invoke	-7961
▁Britain	-7962
▁flowing	-7963
▁inserted	-7964
▁indigenous	-7965
▁consequences	-7966
xts	-7967
▁12.	-7968
▁kid	-7969
▁slave	-7970
▁Railway	-7971
▁pleases	-7972
▁subscribe	-7973
▁experiences	-7974
pad	-7975
araj	-7976
▁kne	-7977
▁keen	-7978
▁mine	-7979
▁deriv	-7980
▁Vaishn	-7981
mentation	-7982
▁reaction	-7983
▁Industries	-7984
▁instruction	-7985
▁constitutional	-7986
iya	-7987
▁Font	-7988
▁Sita	-7989
▁scar	-7990
▁tourist	-7991
▁execution	-7992
▁generated	-7993
▁ben	-7994
▁Miss	-7995
▁keys	-7996
▁NABARD	-7997
iculture	-7998
▁fearing	-7999
▁imposed	-8000
▁passion	-8001
SA	-8002
igned	-8003
▁Resp	-8004
▁closer	-8005
▁uniform	-8006
App	-8007
ashi	-8008
usuf	-8009
India	-8010
▁sixt	-8011
▁admin	-8012
▁royal	-8013
▁prince	-8014
▁worthy	-8015
▁bearing	-8016
▁conferred	-8017
PA	-8018
cles	-8019
power	-8020
▁bats	-8021
▁entity	-8022
▁yesterday	-8023
▁commencement	-8024
Go	-8025
ema	-8026
endra	-8027
▁depri	-8028
▁contrary	-8029
▁consisting	-8030
▁civilization	-8031
mal	-8032
ller	-8033
▁Exam	-8034
▁Supp	-8035
▁chose	-8036
▁route	-8037
▁wings	-8038
▁Majesty	-8039
▁finished	-8040
CD	-8041
iary	-8042
▁Fam	-8043
▁learnt	-8044
▁complic	-8045
▁announce	-8046
akk	-8047
▁od	-8048
ogue	-8049
rors	-8050
▁pix	-8051
▁rom	-8052
ifted	-8053
elfare	-8054
▁deals	-8055
▁tribes	-8056
▁careful	-8057
▁oriented	-8058
adur	-8059
ille	-8060
rase	-8061
▁Nic	-8062
▁PRAN	-8063
▁Sometimes	-8064
Ch	-8065
▁Yoj	-8066
▁Viet	-8067
▁shame	-8068
irement	-8069
▁attacks	-8070
▁farming	-8071
criptions	-8072
▁Resource	-8073
▁DAY	-8074
▁wheat	-8075
▁defeat	-8076
▁wished	-8077
ordinate	-8078
▁managed	-8079
ictionary	-8080
▁tremendous	-8081
▁CRA	-8082
▁Auto	-8083
▁synt	-8084
▁manage	-8085
▁drowned	-8086
▁enlight	-8087
▁feeding	-8088
▁Additional	-8089
nda	-8090
▁Five	-8091
▁react	-8092
▁Chrome	-8093
▁Empire	-8094
▁nutrit	-8095
▁visual	-8096
▁Properties	-8097
▁introduction	-8098
▁representation	-8099
oul	-8100
▁Br	-8101
▁2019	-8102
▁Faith	-8103
▁Quest	-8104
connect	-8105
secution	-8106
▁Hearing	-8107
▁emerged	-8108
▁feelings	-8109
▁succeeded	-8110
PP	-8111
ogen	-8112
▁mob	-8113
▁Gita	-8114
▁lady	-8115
▁broke	-8116
▁Labour	-8117
▁Welfare	-8118
▁venture	-8119
▁equivalent	-8120
▁Aj	-8121
▁Holy	-8122
▁aimed	-8123
▁liable	-8124
▁Gazette	-8125
▁realised	-8126
▁consequence	-8127
DI	-8128
rupt	-8129
▁Hor	-8130
▁lakhs	-8131
▁loose	-8132
utation	-8133
▁German	-8134
▁amounts	-8135
▁customs	-8136
▁investig	-8137
▁mischief	-8138
cure	-8139
▁Siva	-8140
▁quit	-8141
▁shell	-8142
▁elabor	-8143
▁fashion	-8144
▁techniques	-8145
▁essentially	-8146
▁participants	-8147
His	-8148
nty	-8149
▁Chat	-8150
▁throne	-8151
▁criticism	-8152
▁Mahabharata	-8153
▁abn	-8154
▁woe	-8155
▁Money	-8156
▁envis	-8157
▁George	-8158
▁Turkey	-8159
▁salary	-8160
ugu	-8161
arita	-8162
▁alter	-8163
▁cease	-8164
▁chest	-8165
▁dress	-8166
▁teeth	-8167
▁ruling	-8168
▁supporting	-8169
▁corresponding	-8170
heb	-8171
▁”“	-8172
amboo	-8173
izers	-8174
vance	-8175
▁monu	-8176
▁gross	-8177
▁carved	-8178
▁Marathi	-8179
▁favours	-8180
▁supposed	-8181
vals	-8182
wood	-8183
your	-8184
▁alleg	-8185
▁dignity	-8186
▁printer	-8187
▁commonly	-8188
▁modified	-8189
▁prospect	-8190
16	-8191
pa	-8192
otheism	-8193
▁earliest	-8194
▁Engineering	-8195
▁strengthened	-8196
-2	-8197
▁Sac	-8198
▁Scient	-8199
▁defect	-8200
▁Chennai	-8201
▁Governance	-8202
▁Protection	-8203
▁healthcare	-8204
DUCT	-8205
NAME	-8206
urch	-8207
▁Phys	-8208
▁Nothing	-8209
▁seconds	-8210
▁happening	-8211
▁calculated	-8212
ensus	-8213
▁dread	-8214
▁sheep	-8215
oresaid	-8216
▁Thamud	-8217
▁pledge	-8218
▁united	-8219
▁Defence	-8220
▁causing	-8221
▁fifteen	-8222
▁converted	-8223
▁operational	-8224
ilal	-8225
urit	-8226
inals	-8227
▁Gora	-8228
▁Books	-8229
▁Mohan	-8230
▁sheet	-8231
▁topic	-8232
▁invite	-8233
▁prompt	-8234
▁opposed	-8235
▁rightly	-8236
▁Configure	-8237
ATE	-8238
▁orn	-8239
eries	-8240
▁Vive	-8241
▁overse	-8242
▁Hinduism	-8243
▁symptoms	-8244
▁aforesaid	-8245
IB	-8246
ba	-8247
cers	-8248
onym	-8249
▁enl	-8250
ographic	-8251
HT	-8252
lor	-8253
▁Cy	-8254
chant	-8255
▁Indo	-8256
▁bread	-8257
including	-8258
▁9.	-8259
▁mix	-8260
▁{1}	-8261
ariat	-8262
▁encl	-8263
▁vent	-8264
▁Black	-8265
▁catch	-8266
▁laugh	-8267
▁ideals	-8268
▁Minimum	-8269
▁consumers	-8270
▁tub	-8271
▁NAME	-8272
▁vote	-8273
▁repay	-8274
▁Proced	-8275
▁incent	-8276
▁clothes	-8277
▁telling	-8278
▁ISO	-8279
▁Lib	-8280
▁clubs	-8281
▁fears	-8282
▁atomic	-8283
▁extract	-8284
▁printing	-8285
▁companion	-8286
▁endeavour	-8287
▁secondary	-8288
CS	-8289
DF	-8290
▁—	-8291
HAR	-8292
▁Thy	-8293
▁Pension	-8294
▁exalted	-8295
▁entertain	-8296
▁conclusion	-8297
▁statements	-8298
iso	-8299
yer	-8300
▁48	-8301
▁CS	-8302
▁Yusuf	-8303
▁dependent	-8304
▁performing	-8305
hesis	-8306
ignty	-8307
▁Kann	-8308
picious	-8309
▁belied	-8310
▁cancer	-8311
▁caught	-8312
▁poison	-8313
▁backward	-8314
▁deceased	-8315
▁protected	-8316
▁recommended	-8317
▁Job	-8318
▁isol	-8319
▁honor	-8320
▁lands	-8321
▁pairs	-8322
ificates	-8323
▁consent	-8324
▁rapidly	-8325
▁amendment	-8326
▁integrity	-8327
▁witnessed	-8328
PRO	-8329
▁/%	-8330
▁lord	-8331
▁seat	-8332
▁Mahal	-8333
▁disse	-8334
▁fever	-8335
▁noise	-8336
adation	-8337
▁intense	-8338
ultaneous	-8339
▁Messages	-8340
▁possessed	-8341
again	-8342
▁Hall	-8343
▁stim	-8344
▁Encry	-8345
▁diagn	-8346
ilation	-8347
▁Throne	-8348
▁Meeting	-8349
▁discovered	-8350
etan	-8351
▁11.	-8352
▁Sea	-8353
▁boat	-8354
ferent	-8355
▁Relig	-8356
▁bonds	-8357
▁secre	-8358
▁Punjabi	-8359
▁passage	-8360
▁restore	-8361
▁grievous	-8362
▁patients	-8363
▁involving	-8364
▁inhabitants	-8365
▁maintaining	-8366
roat	-8367
▁flo	-8368
▁wing	-8369
▁Whoso	-8370
▁Bhutan	-8371
▁decreed	-8372
▁stations	-8373
ih	-8374
key	-8375
▁37	-8376
this	-8377
liness	-8378
▁pipes	-8379
▁stuff	-8380
▁festiv	-8381
▁periods	-8382
▁secular	-8383
▁Selected	-8384
▁disputes	-8385
▁6,	-8386
▁Dw	-8387
itors	-8388
pless	-8389
▁devote	-8390
▁negoti	-8391
▁paying	-8392
▁produces	-8393
▁percentage	-8394
▁questioned	-8395
2)	-8396
CO	-8397
oty	-8398
reet	-8399
▁Anj	-8400
▁vim	-8401
ipher	-8402
▁clim	-8403
▁Solar	-8404
▁rough	-8405
▁Contin	-8406
▁humans	-8407
▁decline	-8408
▁illness	-8409
▁Standard	-8410
▁describe	-8411
▁preserve	-8412
isha	-8413
▁Cam	-8414
▁Fir	-8415
▁pup	-8416
▁Soon	-8417
▁Three	-8418
▁Previous	-8419
▁circular	-8420
▁Professor	-8421
▁implementing	-8422
rin	-8423
▁Sant	-8424
▁flex	-8425
▁bills	-8426
▁ruler	-8427
▁putting	-8428
▁involves	-8429
▁procedures	-8430
▁interaction	-8431
ste	-8432
▁''	-8433
▁Que	-8434
▁bliss	-8435
▁Investment	-8436
▁parliamentary	-8437
ques	-8438
itals	-8439
▁fate	-8440
▁analy	-8441
▁Attach	-8442
ibraries	-8443
▁carries	-8444
▁impress	-8445
▁totally	-8446
▁Projects	-8447
▁ultimate	-8448
▁newspaper	-8449
▁separated	-8450
▁varieties	-8451
▁influenced	-8452
▁declaration	-8453
utch	-8454
▁2010	-8455
▁Space	-8456
▁keeps	-8457
▁insert	-8458
▁inclusive	-8459
▁collective	-8460
▁enterprises	-8461
▁possibility	-8462
sp	-8463
rik	-8464
Then	-8465
asks	-8466
▁cas	-8467
▁dyn	-8468
arency	-8469
▁paras	-8470
▁ranks	-8471
▁empire	-8472
▁Quality	-8473
▁serving	-8474
▁rendered	-8475
▁Allahabad	-8476
▁reduction	-8477
▁Innovation	-8478
▁consultation	-8479
▁genu	-8480
▁tail	-8481
▁Transl	-8482
▁condol	-8483
▁talent	-8484
▁discover	-8485
▁naturally	-8486
▁constitute	-8487
xx	-8488
iam	-8489
▁88	-8490
roph	-8491
▁adding	-8492
▁celebrate	-8493
▁privilege	-8494
▁surrender	-8495
bits	-8496
lend	-8497
▁marg	-8498
▁thin	-8499
▁GNOME	-8500
▁Leave	-8501
▁Place	-8502
▁arise	-8503
▁disapp	-8504
▁readers	-8505
▁polytheists	-8506
mp	-8507
IST	-8508
atra	-8509
▁ash	-8510
▁Pack	-8511
▁elder	-8512
▁lasting	-8513
▁Islamist	-8514
dev	-8515
oub	-8516
ipped	-8517
osity	-8518
▁Give	-8519
▁Arabs	-8520
▁grave	-8521
▁stray	-8522
▁seated	-8523
▁kilomet	-8524
▁unaware	-8525
▁attained	-8526
▁childhood	-8527
Se	-8528
gue	-8529
▁Ir	-8530
onts	-8531
▁Sav	-8532
▁boost	-8533
▁proofs	-8534
igration	-8535
▁sequence	-8536
▁achieving	-8537
▁ministers	-8538
▁Monotheism	-8539
AO	-8540
ECT	-8541
▁Field	-8542
▁Region	-8543
▁mistake	-8544
▁guarantee	-8545
▁8,	-8546
▁AM	-8547
▁LD	-8548
asis	-8549
ixture	-8550
▁gained	-8551
▁gentle	-8552
▁enhanced	-8553
kim	-8554
▁(.	-8555
zing	-8556
▁Goa	-8557
▁2020	-8558
▁Agra	-8559
▁Devi	-8560
▁smooth	-8561
▁monthly	-8562
wide	-8563
oking	-8564
onent	-8565
▁Cast	-8566
▁permanently	-8567
▁PAR	-8568
hetic	-8569
▁clip	-8570
actory	-8571
▁Format	-8572
▁thrown	-8573
▁radical	-8574
▁Election	-8575
▁Railways	-8576
ipe	-8577
▁Woe	-8578
▁max	-8579
▁Stop	-8580
▁dict	-8581
agraph	-8582
▁calam	-8583
▁somebody	-8584
▁computers	-8585
▁emotional	-8586
▁experiment	-8587
▁retribution	-8588
▁Bro	-8589
▁pace	-8590
▁pand	-8591
ignment	-8592
▁Yojana	-8593
▁despair	-8594
▁aircraft	-8595
▁hundreds	-8596
▁stronger	-8597
▁Institutions	-8598
▁transgressors	-8599
ships	-8600
▁pret	-8601
ipedia	-8602
▁mouse	-8603
▁Monitor	-8604
▁enjoyed	-8605
▁arrested	-8606
▁aggregate	-8607
▁evidences	-8608
AK	-8609
▁Han	-8610
▁stup	-8611
aryana	-8612
▁Truly	-8613
▁Insert	-8614
▁protocol	-8615
▁inaugurated	-8616
▁BY	-8617
▁186	-8618
write	-8619
▁Game	-8620
▁blank	-8621
chandra	-8622
▁summer	-8623
▁selling	-8624
▁walking	-8625
▁primarily	-8626
▁accordingly	-8627
fil	-8628
▁(*	-8629
▁Tom	-8630
▁rig	-8631
ician	-8632
▁(1),	-8633
▁muse	-8634
▁trend	-8635
▁Should	-8636
▁dismiss	-8637
▁Sil	-8638
▁Fest	-8639
▁fifth	-8640
▁march	-8641
uscript	-8642
▁Valley	-8643
▁Islands	-8644
▁pertaining	-8645
7)	-8646
uh	-8647
uce	-8648
▁SPE	-8649
▁fib	-8650
▁ric	-8651
▁ancest	-8652
▁reaches	-8653
▁contrast	-8654
▁positions	-8655
▁entrepreneurs	-8656
BC	-8657
▁avo	-8658
▁Verm	-8659
▁Media	-8660
usively	-8661
▁hatred	-8662
▁Private	-8663
▁dynamic	-8664
▁audience	-8665
▁assuredly	-8666
met	-8667
vara	-8668
▁(5)	-8669
ulous	-8670
saying	-8671
▁infid	-8672
▁arrive	-8673
▁awards	-8674
8)	-8675
Th	-8676
▁Und	-8677
Peace	-8678
omous	-8679
▁dies	-8680
ushing	-8681
▁layout	-8682
▁slowly	-8683
▁Creator	-8684
▁peaceful	-8685
name	-8686
▁Zone	-8687
▁mathe	-8688
▁header	-8689
▁entering	-8690
▁algorithm	-8691
▁plaintiff	-8692
GP	-8693
ato	-8694
▁Py	-8695
▁Lear	-8696
▁enorm	-8697
▁mould	-8698
▁Having	-8699
▁perpet	-8700
▁worker	-8701
▁Culture	-8702
▁societies	-8703
▁stakeholders	-8704
son	-8705
acob	-8706
▁Brahma	-8707
▁restra	-8708
▁combined	-8709
▁translated	-8710
CA	-8711
kh	-8712
oys	-8713
▁Area	-8714
▁SAYS	-8715
▁charm	-8716
▁worry	-8717
▁circle	-8718
▁driver	-8719
▁novels	-8720
▁imported	-8721
▁stability	-8722
▁conversion	-8723
▁NI	-8724
step	-8725
term	-8726
inced	-8727
▁Hari	-8728
ienced	-8729
▁cheque	-8730
▁islands	-8731
▁Almighty	-8732
▁innocent	-8733
▁definition	-8734
can	-8735
rehe	-8736
▁vibr	-8737
▁wilt	-8738
▁shift	-8739
▁sport	-8740
▁criter	-8741
▁models	-8742
▁Lucknow	-8743
▁summary	-8744
▁confined	-8745
▁exceeding	-8746
▁operative	-8747
▁paintings	-8748
orne	-8749
▁Mang	-8750
lessly	-8751
▁Always	-8752
▁Comple	-8753
▁handic	-8754
▁honoured	-8755
▁Automatic	-8756
▁protector	-8757
▁progressive	-8758
▁characteristic	-8759
▁Notwithstanding	-8760
▁15,	-8761
▁vul	-8762
▁Jour	-8763
▁oral	-8764
▁motiv	-8765
▁pound	-8766
▁deduct	-8767
▁easier	-8768
▁fallen	-8769
▁Natural	-8770
▁remembered	-8771
icity	-8772
▁Togg	-8773
▁asce	-8774
abling	-8775
▁rhyth	-8776
▁returning	-8777
▁representing	-8778
quar	-8779
▁kin	-8780
▁cord	-8781
▁nose	-8782
▁Ident	-8783
▁Survey	-8784
▁Telugu	-8785
▁winter	-8786
▁proviso	-8787
▁Subscriber	-8788
▁surrounded	-8789
▁installation	-8790
▁revolutionary	-8791
-4	-8792
var	-8793
addy	-8794
avas	-8795
▁Bul	-8796
▁mil	-8797
chers	-8798
oving	-8799
erving	-8800
▁winds	-8801
▁Vivekan	-8802
▁factory	-8803
▁Ayurveda	-8804
▁treasure	-8805
▁residence	-8806
▁Organization	-8807
▁connectivity	-8808
▁Fu	-8809
▁NG	-8810
erty	-8811
nity	-8812
▁meal	-8813
▁Anand	-8814
▁ruled	-8815
▁handle	-8816
▁Bahadur	-8817
▁beneficial	-8818
no	-8819
▁dh	-8820
▁py	-8821
guard	-8822
gments	-8823
itative	-8824
▁Remote	-8825
▁channels	-8826
▁legislative	-8827
▁TV	-8828
▁ice	-8829
commun	-8830
▁bigger	-8831
▁regime	-8832
▁Computer	-8833
▁consolid	-8834
▁everywhere	-8835
▁proceeding	-8836
En	-8837
▁(_	-8838
agra	-8839
amma	-8840
atel	-8841
rane	-8842
amese	-8843
▁Bills	-8844
▁Imple	-8845
▁artist	-8846
▁bestow	-8847
▁Hindust	-8848
▁exposed	-8849
▁pilgrimage	-8850
▁MP	-8851
▁adm	-8852
▁shut	-8853
▁expiry	-8854
▁Maximum	-8855
▁Bangalore	-8856
atan	-8857
iven	-8858
▁Nam	-8859
avior	-8860
▁Govt	-8861
▁succ	-8862
▁Chhat	-8863
▁Greek	-8864
▁sixty	-8865
▁forbid	-8866
▁nearer	-8867
▁undertake	-8868
▁Mot	-8869
▁Pop	-8870
▁Sad	-8871
▁Wel	-8872
▁Hard	-8873
ulates	-8874
▁maybe	-8875
▁sharp	-8876
▁tooth	-8877
▁Several	-8878
▁engagement	-8879
dy	-8880
alo	-8881
amy	-8882
inct	-8883
antra	-8884
▁Advis	-8885
▁Update	-8886
▁hunger	-8887
▁subsid	-8888
▁appellant	-8889
▁perfection	-8890
shi	-8891
▁Bre	-8892
▁Isa	-8893
▁Kore	-8894
▁threw	-8895
ruitment	-8896
▁shelter	-8897
▁anywhere	-8898
▁multiply	-8899
▁attribute	-8900
▁associates	-8901
▁commodities	-8902
▁competitive	-8903
▁developments	-8904
▁hunt	-8905
▁texts	-8906
▁refuse	-8907
▁acceler	-8908
▁crucial	-8909
hai	-8910
ida	-8911
apse	-8912
auses	-8913
▁fees	-8914
itting	-8915
▁Nanak	-8916
▁organs	-8917
▁unbelie	-8918
▁believer	-8919
▁Background	-8920
▁institutional	-8921
aph	-8922
▁Cr	-8923
▁fro	-8924
icing	-8925
▁arts	-8926
▁enjo	-8927
▁tells	-8928
▁SPEECH	-8929
▁Summit	-8930
▁Haryana	-8931
▁exceeds	-8932
▁overseas	-8933
▁resulted	-8934
▁thorough	-8935
▁Convention	-8936
▁references	-8937
UK	-8938
gi	-8939
tr	-8940
lig	-8941
lla	-8942
was	-8943
▁Ji	-8944
▁cul	-8945
isite	-8946
▁exit	-8947
▁Saudi	-8948
▁obligation	-8949
▁imagination	-8950
UB	-8951
▁7,	-8952
▁Kol	-8953
▁Stra	-8954
ogether	-8955
▁Airport	-8956
▁distant	-8957
▁precise	-8958
▁spreading	-8959
▁sanctioned	-8960
▁conversation	-8961
▁auton	-8962
▁swift	-8963
▁patron	-8964
▁sinful	-8965
indranath	-8966
▁executed	-8967
alal	-8968
▁Bir	-8969
▁Kap	-8970
▁mart	-8971
▁newly	-8972
▁photo	-8973
naments	-8974
▁organic	-8975
▁invented	-8976
▁Registration	-8977
40	-8978
59	-8979
aha	-8980
olent	-8981
▁swall	-8982
▁wheel	-8983
▁murder	-8984
▁Himalayan	-8985
rian	-8986
rich	-8987
udra	-8988
▁Mur	-8989
▁Sank	-8990
▁rein	-8991
▁prest	-8992
ichever	-8993
▁Basava	-8994
ammation	-8995
▁grounds	-8996
▁occasions	-8997
▁institutes	-8998
▁newspapers	-8999
TING	-9000
ildo	-9001
wara	-9002
▁Wild	-9003
▁ruin	-9004
▁Phone	-9005
▁persu	-9006
▁twain	-9007
▁Centres	-9008
▁applies	-9009
▁outcome	-9010
▁blessing	-9011
▁extensive	-9012
▁attractive	-9013
▁impression	-9014
▁integration	-9015
CP	-9016
▁Long	-9017
▁duly	-9018
▁tall	-9019
▁tied	-9020
▁Obama	-9021
▁games	-9022
▁Family	-9023
▁grants	-9024
▁illegal	-9025
▁parallel	-9026
▁replaced	-9027
▁supports	-9028
▁transportation	-9029
tery	-9030
▁EVE	-9031
▁wre	-9032
ystem	-9033
▁Pune	-9034
▁roll	-9035
▁bamboo	-9036
▁Brahman	-9037
▁evolved	-9038
▁massive	-9039
▁maturity	-9040
▁Promotion	-9041
▁sustained	-9042
▁aspirations	-9043
▁Ba	-9044
▁Syn	-9045
▁elev	-9046
▁lust	-9047
▁Aaron	-9048
▁Young	-9049
▁recover	-9050
▁indicate	-9051
▁organisms	-9052
▁Employment	-9053
ENCE	-9054
aria	-9055
▁Tib	-9056
liance	-9057
▁Total	-9058
▁muscle	-9059
▁springs	-9060
▁Transfer	-9061
▁entrance	-9062
▁tourists	-9063
▁countrymen	-9064
mail	-9065
▁25,	-9066
▁bare	-9067
▁Title	-9068
PRODUCT	-9069
▁Sikkim	-9070
▁visits	-9071
▁ascribe	-9072
▁plugins	-9073
▁Personal	-9074
▁keyboard	-9075
▁sacrific	-9076
JP	-9077
▁USA	-9078
ounced	-9079
owered	-9080
▁Times	-9081
▁Nation	-9082
▁golden	-9083
▁experts	-9084
▁payments	-9085
▁Procedure	-9086
▁resistance	-9087
▁connections	-9088
asp	-9089
unch	-9090
eding	-9091
point	-9092
▁calf	-9093
▁brill	-9094
▁doors	-9095
▁immun	-9096
▁posts	-9097
▁genuine	-9098
▁players	-9099
▁Whenever	-9100
▁prevented	-9101
▁Ministries	-9102
01.	-9103
rav	-9104
▁Arun	-9105
▁alph	-9106
▁Grand	-9107
▁bount	-9108
▁lotus	-9109
▁memor	-9110
▁operate	-9111
▁colonial	-9112
▁comments	-9113
▁extraord	-9114
▁virtuous	-9115
▁accessible	-9116
▁candidates	-9117
rue	-9118
ymph	-9119
▁Jer	-9120
▁Kav	-9121
▁bin	-9122
▁pear	-9123
▁adapt	-9124
▁angel	-9125
issions	-9126
ifically	-9127
▁reducing	-9128
▁Wikipedia	-9129
ulus	-9130
▁Gos	-9131
▁hes	-9132
▁Mart	-9133
▁chat	-9134
▁fool	-9135
▁Champ	-9136
▁evildo	-9137
▁immort	-9138
▁module	-9139
▁realized	-9140
▁festivals	-9141
▁ly	-9142
▁ma	-9143
icer	-9144
▁Son	-9145
▁pul	-9146
eping	-9147
▁Java	-9148
▁hire	-9149
inking	-9150
▁Cance	-9151
▁guess	-9152
▁faster	-9153
▁varied	-9154
▁Washing	-9155
▁focused	-9156
▁nearest	-9157
▁dangerous	-9158
▁exclusively	-9159
bh	-9160
wali	-9161
avana	-9162
igarh	-9163
uting	-9164
▁Requ	-9165
▁Sovi	-9166
▁dish	-9167
herent	-9168
▁Indira	-9169
▁Jewish	-9170
▁prestig	-9171
▁unfortun	-9172
▁manuscript	-9173
▁Mas	-9174
▁awa	-9175
aning	-9176
▁SHRI	-9177
▁cust	-9178
▁Patel	-9179
▁loaded	-9180
▁silent	-9181
▁sounds	-9182
chnology	-9183
▁watching	-9184
rete	-9185
acious	-9186
▁Thank	-9187
▁spons	-9188
▁Moreover	-9189
▁presents	-9190
▁convinced	-9191
▁indicated	-9192
’,	-9193
▁younger	-9194
▁perceive	-9195
isan	-9196
atellite	-9197
▁Academy	-9198
▁damaged	-9199
▁Administration	-9200
SE	-9201
ino	-9202
▁Ord	-9203
▁cum	-9204
aired	-9205
▁amid	-9206
▁wave	-9207
▁acted	-9208
▁miles	-9209
▁colleges	-9210
▁organism	-9211
▁permissions	-9212
Did	-9213
inth	-9214
haust	-9215
rogen	-9216
▁Badr	-9217
▁Paper	-9218
ilitation	-9219
▁thankful	-9220
▁frequently	-9221
▁Departments	-9222
19	-9223
▁Je	-9224
eeds	-9225
▁400	-9226
▁Nir	-9227
▁Str	-9228
▁Vid	-9229
ainted	-9230
▁brave	-9231
▁recur	-9232
▁assumed	-9233
▁chromos	-9234
▁earthqu	-9235
▁depending	-9236
▁membership	-9237
BER	-9238
ofs	-9239
anth	-9240
▁Gir	-9241
▁Ish	-9242
▁Ven	-9243
▁lod	-9244
stone	-9245
which	-9246
▁stom	-9247
ricted	-9248
▁Forum	-9249
▁debug	-9250
▁bitter	-9251
▁colors	-9252
lessness	-9253
▁expanded	-9254
▁emergency	-9255
▁gathering	-9256
▁institute	-9257
▁scheduled	-9258
itate	-9259
▁Bhar	-9260
▁Kath	-9261
▁nerve	-9262
▁shade	-9263
▁Behold	-9264
▁binding	-9265
▁Transport	-9266
▁composition	-9267
▁Ru	-9268
asts	-9269
▁Bush	-9270
▁remed	-9271
▁adverse	-9272
▁villagers	-9273
▁suggestions	-9274
IAN	-9275
bing	-9276
▁Dam	-9277
▁III	-9278
▁LDAP	-9279
▁Mach	-9280
people	-9281
▁exped	-9282
▁shout	-9283
▁Design	-9284
▁disturb	-9285
▁Directory	-9286
▁acceptable	-9287
▁parameters	-9288
▁Rao	-9289
▁gri	-9290
.2013	-9291
▁Love	-9292
▁True	-9293
▁bore	-9294
▁magaz	-9295
▁Mosque	-9296
▁Terror	-9297
▁prejud	-9298
▁incorporated	-9299
How	-9300
▁Ve	-9301
▁ho	-9302
▁Smt	-9303
cient	-9304
▁Rule	-9305
▁Kabir	-9306
▁Return	-9307
▁troops	-9308
▁somewhat	-9309
▁Dou	-9310
▁rab	-9311
orses	-9312
▁storm	-9313
▁assert	-9314
▁fairly	-9315
▁resear	-9316
▁amalgam	-9317
▁startup	-9318
▁Gujarati	-9319
▁disorder	-9320
▁Sucharita	-9321
▁forgotten	-9322
ARY	-9323
▁Oh	-9324
▁fan	-9325
▁whis	-9326
▁tests	-9327
▁Mobile	-9328
▁doubts	-9329
▁wooden	-9330
▁Loading	-9331
▁entries	-9332
▁precious	-9333
▁utilised	-9334
▁furnished	-9335
▁corporation	-9336
,%	-9337
hash	-9338
▁loy	-9339
▁fost	-9340
▁Polit	-9341
▁loved	-9342
▁shadow	-9343
▁answers	-9344
▁doctors	-9345
▁loading	-9346
▁singing	-9347
▁belonged	-9348
▁visiting	-9349
▁philosoph	-9350
who	-9351
▁65	-9352
bled	-9353
shan	-9354
▁RBI	-9355
▁tun	-9356
▁Vill	-9357
isible	-9358
ovable	-9359
▁disag	-9360
▁saint	-9361
atories	-9362
▁cancel	-9363
▁batsman	-9364
▁regards	-9365
▁disaster	-9366
▁everybody	-9367
▁exchanges	-9368
▁exclusive	-9369
▁Washington	-9370
▁experienced	-9371
▁investigation	-9372
jun	-9373
ogy	-9374
▁20,	-9375
▁aer	-9376
ocket	-9377
▁doth	-9378
▁penet	-9379
▁snake	-9380
▁Solomon	-9381
▁NATIONAL	-9382
▁Himalayas	-9383
70	-9384
lec	-9385
▁11,	-9386
▁gap	-9387
▁ing	-9388
erals	-9389
orted	-9390
▁Star	-9391
▁seal	-9392
▁conqu	-9393
▁assemb	-9394
▁deprec	-9395
▁headed	-9396
▁holder	-9397
▁nearby	-9398
▁Russian	-9399
▁scattered	-9400
uri	-9401
▁ju	-9402
pura	-9403
ashed	-9404
▁CALL	-9405
▁Praise	-9406
▁Planning	-9407
▁exception	-9408
ye	-9409
▁Ray	-9410
ifier	-9411
xygen	-9412
ername	-9413
▁Birth	-9414
▁uncle	-9415
▁Sheikh	-9416
▁orphans	-9417
▁dramatic	-9418
▁punished	-9419
▁strongly	-9420
▁Governors	-9421
▁hereafter	-9422
▁derivative	-9423
nut	-9424
▁(5	-9425
▁la	-9426
isal	-9427
▁bef	-9428
ogram	-9429
▁misle	-9430
▁Portug	-9431
▁Review	-9432
▁Soviet	-9433
▁copies	-9434
▁examine	-9435
▁artificial	-9436
▁encouraging	-9437
▁residential	-9438
But	-9439
▁Own	-9440
▁Rot	-9441
incial	-9442
▁taxes	-9443
▁Enterpr	-9444
▁inspire	-9445
▁neglect	-9446
▁occupied	-9447
▁therewith	-9448
▁Beneficent	-9449
▁simultaneous	-9450
▁CA	-9451
erge	-9452
▁1000	-9453
▁Zoom	-9454
▁auth	-9455
▁maid	-9456
▁stro	-9457
screen	-9458
▁Event	-9459
▁Point	-9460
▁Vedas	-9461
▁devil	-9462
▁fright	-9463
▁planet	-9464
▁arrival	-9465
▁barrier	-9466
▁Contacts	-9467
▁generate	-9468
▁financing	-9469
▁Secretariat	-9470
All	-9471
coh	-9472
gal	-9473
aras	-9474
▁jack	-9475
▁Reminder	-9476
▁diamonds	-9477
▁warnings	-9478
▁Agreement	-9479
oa	-9480
ulum	-9481
▁Ber	-9482
apped	-9483
herry	-9484
▁Lead	-9485
▁drag	-9486
▁ward	-9487
retion	-9488
▁spell	-9489
atively	-9490
▁cutting	-9491
▁insight	-9492
▁Festival	-9493
▁wherewith	-9494
▁Literature	-9495
rh	-9496
▁08	-9497
▁CC	-9498
inar	-9499
zone	-9500
▁Mut	-9501
ighth	-9502
▁Prim	-9503
▁calm	-9504
▁mood	-9505
orious	-9506
▁Abdul	-9507
▁Conne	-9508
▁Speech	-9509
▁Toolbar	-9510
▁descendants	-9511
▁appreciation	-9512
15	-9513
EV	-9514
▁AW	-9515
▁Na	-9516
ahan	-9517
anti	-9518
▁asc	-9519
rected	-9520
▁shock	-9521
▁injured	-9522
▁acknowled	-9523
▁agreements	-9524
▁geographical	-9525
▁characteristics	-9526
bra	-9527
soft	-9528
whel	-9529
▁Aur	-9530
▁Jam	-9531
▁1996	-9532
▁Cost	-9533
▁Paul	-9534
▁urged	-9535
▁cursed	-9536
▁retain	-9537
▁pending	-9538
▁eventually	-9539
ifts	-9540
▁mac	-9541
umpet	-9542
▁Until	-9543
▁norms	-9544
▁bought	-9545
▁regret	-9546
▁reflected	-9547
▁recipients	-9548
igg	-9549
▁CP	-9550
emor	-9551
▁1998	-9552
▁pool	-9553
▁suck	-9554
icians	-9555
▁Durga	-9556
▁tribe	-9557
omplete	-9558
▁Branch	-9559
▁inputs	-9560
▁prayed	-9561
▁splend	-9562
ifferent	-9563
▁Without	-9564
▁bondmen	-9565
▁closing	-9566
▁rational	-9567
▁encounter	-9568
▁preceding	-9569
▁approaches	-9570
▁controvers	-9571
kes	-9572
zen	-9573
▁Max	-9574
▁POP	-9575
▁Vik	-9576
▁env	-9577
▁voc	-9578
▁Real	-9579
▁Vish	-9580
▁drum	-9581
▁epic	-9582
▁gates	-9583
▁Ganges	-9584
▁handed	-9585
▁Position	-9586
▁reserved	-9587
▁recording	-9588
▁appreciate	-9589
To	-9590
mans	-9591
▁Put	-9592
▁cav	-9593
▁gun	-9594
▁memb	-9595
▁nerv	-9596
▁piety	-9597
▁plane	-9598
▁grains	-9599
▁island	-9600
▁African	-9601
▁William	-9602
▁acquire	-9603
▁revision	-9604
▁altogether	-9605
▁ll	-9606
xide	-9607
▁Exc	-9608
▁Gar	-9609
▁seas	-9610
▁cater	-9611
▁frust	-9612
▁mining	-9613
▁Protocol	-9614
▁dwellers	-9615
▁patterns	-9616
▁prophets	-9617
▁pest	-9618
▁Activ	-9619
▁diver	-9620
▁relie	-9621
▁freely	-9622
▁warrant	-9623
▁Consider	-9624
▁kindness	-9625
▁clipboard	-9626
▁interview	-9627
So	-9628
ATES	-9629
asion	-9630
▁1992	-9631
▁Band	-9632
▁trek	-9633
▁mixture	-9634
▁silence	-9635
▁whichever	-9636
agon	-9637
▁Inv	-9638
▁drew	-9639
▁intr	-9640
▁lung	-9641
▁repair	-9642
▁Turkish	-9643
▁boiling	-9644
▁dynasty	-9645
▁routine	-9646
▁abundant	-9647
▁applicant	-9648
▁delegation	-9649
▁supplement	-9650
▁extraordinary	-9651
▁aus	-9652
▁kit	-9653
icode	-9654
▁Were	-9655
▁ages	-9656
▁lowest	-9657
▁thrust	-9658
▁attracted	-9659
▁enhancing	-9660
▁ornaments	-9661
oda	-9662
▁1990	-9663
▁breat	-9664
▁brown	-9665
▁dates	-9666
▁moves	-9667
▁Maurit	-9668
▁Movement	-9669
▁Municipal	-9670
uti	-9671
▁EX	-9672
▁gro	-9673
▁pec	-9674
aland	-9675
archy	-9676
lause	-9677
▁Thee	-9678
▁unre	-9679
▁grows	-9680
▁ridic	-9681
▁openly	-9682
▁upright	-9683
▁instruct	-9684
zer	-9685
airy	-9686
▁rear	-9687
▁shap	-9688
▁slay	-9689
ighter	-9690
▁alloc	-9691
▁indul	-9692
▁label	-9693
▁perish	-9694
▁widget	-9695
13	-9696
tis	-9697
▁gn	-9698
anes	-9699
ario	-9700
▁Rich	-9701
▁butt	-9702
▁pour	-9703
▁Topics	-9704
▁partly	-9705
▁purity	-9706
▁helpers	-9707
▁partial	-9708
▁dialogue	-9709
▁handling	-9710
▁necessity	-9711
▁exploitation	-9712
.).	-9713
ademi	-9714
utosh	-9715
▁degr	-9716
▁gest	-9717
itudes	-9718
olence	-9719
▁excav	-9720
▁lease	-9721
▁seize	-9722
▁pretty	-9723
▁Desktop	-9724
▁wearing	-9725
▁reminded	-9726
▁statutory	-9727
▁photograph	-9728
▁capabilities	-9729
KS	-9730
oz	-9731
pay	-9732
fold	-9733
lock	-9734
▁Draw	-9735
▁Megh	-9736
▁Shall	-9737
▁cache	-9738
▁lingu	-9739
▁Session	-9740
▁profound	-9741
▁television	-9742
▁accommodation	-9743
1)	-9744
ffee	-9745
awful	-9746
ulses	-9747
ounder	-9748
▁films	-9749
bour	-9750
film	-9751
▁Lam	-9752
tends	-9753
▁Sult	-9754
▁Estab	-9755
▁deter	-9756
▁Device	-9757
quarters	-9758
▁outlook	-9759
▁actively	-9760
▁indicates	-9761
pert	-9762
▁12,	-9763
osted	-9764
▁Vert	-9765
▁pupp	-9766
▁Amrit	-9767
▁optim	-9768
▁perse	-9769
assador	-9770
▁Switch	-9771
▁arises	-9772
eches	-9773
icide	-9774
▁Prior	-9775
▁Accept	-9776
▁metres	-9777
▁treaty	-9778
▁exhaust	-9779
▁glorify	-9780
▁noticed	-9781
▁commerce	-9782
Ab	-9783
ca	-9784
orse	-9785
araja	-9786
▁1947	-9787
▁Sang	-9788
▁rans	-9789
▁wire	-9790
▁Patna	-9791
▁hotel	-9792
▁reign	-9793
▁Modern	-9794
▁favors	-9795
▁tested	-9796
▁breaking	-9797
▁Directors	-9798
▁ownership	-9799
▁considering	-9800
itan	-9801
▁alms	-9802
▁hung	-9803
▁begun	-9804
▁crowd	-9805
▁merit	-9806
essment	-9807
▁Netaji	-9808
mination	-9809
▁Digital	-9810
▁bacteria	-9811
▁premises	-9812
▁radiation	-9813
▁Ms	-9814
▁Kon	-9815
water	-9816
▁Math	-9817
▁liar	-9818
▁luck	-9819
▁spin	-9820
▁wand	-9821
▁talks	-9822
▁intent	-9823
▁plains	-9824
▁purify	-9825
▁thinks	-9826
▁pursued	-9827
▁vessels	-9828
▁hardware	-9829
▁excessive	-9830
▁increasingly	-9831
▁Infrastructure	-9832
Are	-9833
akar	-9834
more	-9835
rafts	-9836
▁intu	-9837
▁semi	-9838
▁Jacob	-9839
▁larva	-9840
▁emerge	-9841
▁adoption	-9842
▁interact	-9843
▁inaugurate	-9844
▁preference	-9845
▁scriptures	-9846
▁ultimately	-9847
▁dil	-9848
▁Lake	-9849
▁ther	-9850
▁ceremon	-9851
▁equation	-9852
▁overwhel	-9853
▁supplied	-9854
▁wonderful	-9855
▁commencing	-9856
▁unexpected	-9857
▁innovations	-9858
Lord	-9859
mble	-9860
noon	-9861
▁Dri	-9862
▁Gram	-9863
▁outl	-9864
▁depic	-9865
▁dimin	-9866
▁hopes	-9867
▁nomin	-9868
▁Bureau	-9869
▁Narayan	-9870
▁locally	-9871
▁Commerce	-9872
▁travelled	-9873
Where	-9874
olved	-9875
▁Narm	-9876
▁Radh	-9877
▁Trad	-9878
▁puts	-9879
▁camera	-9880
▁castes	-9881
▁videos	-9882
▁furnish	-9883
▁vertical	-9884
▁Technical	-9885
▁originally	-9886
▁celebrations	-9887
▁Configuration	-9888
iga	-9889
▁2)	-9890
▁mm	-9891
they	-9892
icular	-9893
▁holid	-9894
▁Lahore	-9895
▁Period	-9896
▁advers	-9897
▁corrupt	-9898
▁ignored	-9899
▁imports	-9900
▁tribute	-9901
▁volumes	-9902
▁schedule	-9903
▁abundance	-9904
▁evildoers	-9905
▁obtaining	-9906
▁Preferences	-9907
▁realisation	-9908
▁conventional	-9909
▁Beh	-9910
idian	-9911
▁genus	-9912
itarian	-9913
▁Preview	-9914
▁artists	-9915
▁stomach	-9916
▁literacy	-9917
▁obligations	-9918
▁Debug	-9919
▁Ocean	-9920
▁Track	-9921
▁nodes	-9922
▁chiefs	-9923
▁preval	-9924
▁subsidy	-9925
▁Integrated	-9926
▁programming	-9927
but	-9928
iest	-9929
onut	-9930
▁Ken	-9931
▁dow	-9932
verage	-9933
▁Raman	-9934
▁domin	-9935
▁eager	-9936
fathers	-9937
▁complim	-9938
▁genetic	-9939
Ass	-9940
▁43	-9941
▁bulk	-9942
▁intim	-9943
▁Anjuta	-9944
▁bounds	-9945
▁flying	-9946
▁pursue	-9947
▁worksh	-9948
▁Akademi	-9949
▁conflic	-9950
akrishnan	-9951
▁cultures	-9952
▁restored	-9953
▁connecting	-9954
ef	-9955
▁Vig	-9956
▁unb	-9957
.2019	-9958
gramm	-9959
▁pion	-9960
▁Dwark	-9961
▁Urban	-9962
▁fonts	-9963
▁assume	-9964
▁margin	-9965
▁suspend	-9966
▁thunder	-9967
▁disposal	-9968
▁fragment	-9969
odox	-9970
▁Haz	-9971
▁Ign	-9972
▁bio	-9973
aunch	-9974
▁blow	-9975
▁Citiz	-9976
▁Indra	-9977
▁feared	-9978
▁pardon	-9979
▁themes	-9980
▁Instead	-9981
▁comprom	-9982
▁gracious	-9983
▁mathemat	-9984
▁Standards	-9985
▁correctly	-9986
▁decorated	-9987
rob	-9988
▁NH	-9989
Have	-9990
emat	-9991
▁ped	-9992
llate	-9993
▁waves	-9994
istrate	-9995
▁Normal	-9996
▁Cultural	-9997
▁recognise	-9998
▁therefrom	-9999
▁Vivekananda	-10000
fare	-10001
onic	-10002
asted	-10003
plant	-10004
▁Turn	-10005
▁edit	-10006
▁horn	-10007
▁stem	-10008
▁Plant	-10009
▁Width	-10010
▁blown	-10011
▁Effect	-10012
▁mortal	-10013
▁resemb	-10014
▁Authent	-10015
▁enormous	-10016
▁Guidelines	-10017
▁dedication	-10018
atri	-10019
▁tack	-10020
▁tape	-10021
ankind	-10022
▁angry	-10023
▁queen	-10024
▁smoke	-10025
▁tries	-10026
▁Rename	-10027
▁backend	-10028
▁Constitu	-10029
▁protecting	-10030
▁transparency	-10031
alli	-10032
▁Saf	-10033
▁Nand	-10034
▁lake	-10035
oubted	-10036
▁Sahib	-10037
▁login	-10038
▁males	-10039
▁stret	-10040
▁wider	-10041
▁oldest	-10042
▁circuit	-10043
▁networks	-10044
▁requests	-10045
▁bookmarks	-10046
▁idolaters	-10047
▁BAR	-10048
▁Try	-10049
▁Poly	-10050
▁corn	-10051
▁argue	-10052
▁modify	-10053
▁commend	-10054
▁abnormal	-10055
▁invested	-10056
▁slightly	-10057
▁broadcast	-10058
▁patiently	-10059
▁explanation	-10060
sa	-10061
stru	-10062
▁cin	-10063
▁Grie	-10064
▁Prab	-10065
▁Whom	-10066
ologist	-10067
▁Budget	-10068
▁estate	-10069
▁unlike	-10070
iliation	-10071
▁attacked	-10072
▁conveyed	-10073
▁Processing	-10074
vas	-10075
▁1"	-10076
them	-10077
eenth	-10078
oused	-10079
▁Rate	-10080
▁Index	-10081
▁chart	-10082
▁plate	-10083
▁agenda	-10084
▁ignore	-10085
▁intest	-10086
▁stable	-10087
▁summon	-10088
▁enables	-10089
▁skilled	-10090
▁targets	-10091
▁intermedi	-10092
▁Directorate	-10093
eling	-10094
▁movie	-10095
▁horses	-10096
▁Goddess	-10097
▁Vietnam	-10098
▁colours	-10099
▁allotted	-10100
▁computed	-10101
▁glorious	-10102
▁Malayalam	-10103
▁Assistance	-10104
▁grievances	-10105
▁situations	-10106
▁subsequently	-10107
DO	-10108
oma	-10109
yam	-10110
▁42	-10111
MENT	-10112
▁lac	-10113
▁Bhai	-10114
ESSAGE	-10115
▁desir	-10116
▁Column	-10117
▁destiny	-10118
▁testify	-10119
▁dominion	-10120
▁pregnancy	-10121
▁afterwards	-10122
▁allocation	-10123
▁occupation	-10124
▁continuously	-10125
▁Lit	-10126
agues	-10127
▁Chal	-10128
▁wine	-10129
apping	-10130
▁tears	-10131
▁wound	-10132
▁daniel	-10133
▁harmful	-10134
▁updated	-10135
▁separately	-10136
▁developmental	-10137
▁Pu	-10138
_01.	-10139
evil	-10140
pite	-10141
▁Fre	-10142
▁haz	-10143
▁mud	-10144
▁Able	-10145
▁hect	-10146
▁pump	-10147
akhand	-10148
acharya	-10149
▁Record	-10150
▁Swaraj	-10151
▁butter	-10152
▁orphan	-10153
▁photos	-10154
Applause	-10155
▁license	-10156
▁province	-10157
▁reposted	-10158
▁Organisation	-10159
oil	-10160
▁NE	-10161
▁Oil	-10162
▁Care	-10163
▁Appro	-10164
▁Frame	-10165
▁flags	-10166
▁Canada	-10167
▁adults	-10168
▁errors	-10169
▁legend	-10170
▁museum	-10171
▁Oneness	-10172
▁PRESENT	-10173
▁afflict	-10174
▁sovereignty	-10175
▁approximately	-10176
▁identification	-10177
oka	-10178
▁CV	-10179
cond	-10180
▁Miz	-10181
IVERS	-10182
idity	-10183
steps	-10184
▁Poll	-10185
▁rely	-10186
▁awaits	-10187
▁oppress	-10188
▁segment	-10189
▁winning	-10190
▁RA	-10191
▁vag	-10192
▁wal	-10193
▁tank	-10194
▁Agency	-10195
▁native	-10196
▁Iranian	-10197
▁essence	-10198
▁goodness	-10199
▁forefathers	-10200
▁Notification	-10201
dis	-10202
▁Hig	-10203
▁Camp	-10204
iceroy	-10205
▁Basic	-10206
▁gramm	-10207
▁sixth	-10208
▁Prince	-10209
▁advise	-10210
▁spades	-10211
ointment	-10212
oubtedly	-10213
▁MESSAGE	-10214
▁Studies	-10215
▁Consumer	-10216
▁estimate	-10217
▁describes	-10218
▁compassionate	-10219
ford	-10220
▁adul	-10221
▁borne	-10222
▁feels	-10223
▁infer	-10224
▁risks	-10225
▁Tribes	-10226
▁mosque	-10227
▁credited	-10228
▁variable	-10229
▁Thereafter	-10230
▁complaints	-10231
iki	-10232
▁()	-10233
regard	-10234
▁Torah	-10235
▁fails	-10236
▁jinns	-10237
▁virus	-10238
▁switch	-10239
▁welcom	-10240
▁Neither	-10241
▁enquiry	-10242
▁mineral	-10243
▁defeated	-10244
▁machines	-10245
▁automatic	-10246
orticulture	-10247
cel	-10248
▁sme	-10249
night	-10250
uated	-10251
▁Vict	-10252
▁nurt	-10253
thodox	-10254
▁landl	-10255
▁reass	-10256
▁legacy	-10257
▁resign	-10258
▁rejoice	-10259
▁Advanced	-10260
ishe	-10261
▁spir	-10262
▁Block	-10263
▁logic	-10264
▁Housing	-10265
▁dividend	-10266
▁continuing	-10267
MA	-10268
PG	-10269
olf	-10270
▁Old	-10271
▁Suk	-10272
▁Abdu	-10273
▁Come	-10274
▁fing	-10275
▁gland	-10276
▁tight	-10277
▁Employ	-10278
▁Rather	-10279
▁amended	-10280
▁decimal	-10281
▁38	-10282
▁55	-10283
chen	-10284
▁ICT	-10285
▁Till	-10286
▁loft	-10287
▁Shast	-10288
▁beach	-10289
▁attempts	-10290
▁devotees	-10291
▁enabling	-10292
▁retirement	-10293
▁surrounding	-10294
agn	-10295
▁Pa	-10296
▁SM	-10297
emia	-10298
rine	-10299
thon	-10300
▁ham	-10301
▁mah	-10302
▁Azad	-10303
▁Bach	-10304
abetes	-10305
idency	-10306
▁Indus	-10307
▁foods	-10308
▁manual	-10309
▁heights	-10310
▁vaccine	-10311
clamation	-10312
▁packages	-10313
▁reserves	-10314
otechnology	-10315
▁comprising	-10316
▁succession	-10317
▁territories	-10318
▁establishing	-10319
▁congratulated	-10320
LS	-10321
VIC	-10322
atal	-10323
idal	-10324
soon	-10325
▁ine	-10326
▁Loan	-10327
▁Phil	-10328
▁bold	-10329
cessor	-10330
▁batter	-10331
▁genius	-10332
▁oxygen	-10333
▁Brahmin	-10334
▁Buddhism	-10335
▁Contract	-10336
▁Property	-10337
▁marginal	-10338
aeological	-10339
▁expertise	-10340
▁listening	-10341
▁appreciated	-10342
17	-10343
JEE	-10344
▁Til	-10345
▁sper	-10346
▁Isaac	-10347
against	-10348
▁Sacred	-10349
▁demerg	-10350
▁vimana	-10351
▁formula	-10352
▁premium	-10353
▁Northern	-10354
▁likeness	-10355
▁secretly	-10356
▁Badruddin	-10357
▁cooperative	-10358
▁restrictions	-10359
ele	-10360
▁39	-10361
▁Yam	-10362
▁isn	-10363
▁Chak	-10364
▁Evil	-10365
otions	-10366
▁alien	-10367
▁digit	-10368
▁ports	-10369
sequently	-10370
▁garments	-10371
▁accounting	-10372
▁necessarily	-10373
ago	-10374
▁kh	-10375
▁exh	-10376
These	-10377
nagar	-10378
▁Hosp	-10379
▁Mant	-10380
pector	-10381
▁Chance	-10382
▁repeat	-10383
▁Offices	-10384
▁cooking	-10385
▁denomin	-10386
▁enacted	-10387
▁fortune	-10388
▁resolved	-10389
▁Microsoft	-10390
▁preserved	-10391
▁Connection	-10392
▁Institution	-10393
▁imprisonment	-10394
das	-10395
eem	-10396
elt	-10397
iti	-10398
eers	-10399
okes	-10400
▁VIS	-10401
▁Bhav	-10402
▁Face	-10403
▁fraud	-10404
▁Header	-10405
▁harmon	-10406
▁speaks	-10407
▁utmost	-10408
▁Initial	-10409
▁Subhash	-10410
▁surgery	-10411
▁commodity	-10412
▁tolerance	-10413
gl	-10414
inte	-10415
▁vot	-10416
▁rocks	-10417
▁crafts	-10418
▁nervous	-10419
▁visitors	-10420
▁Islamists	-10421
▁defendant	-10422
habilitation	-10423
▁Implementation	-10424
kal	-10425
nath	-10426
▁Abs	-10427
andra	-10428
field	-10429
there	-10430
▁Issu	-10431
▁MIME	-10432
tended	-10433
▁tales	-10434
▁trick	-10435
▁Bhagat	-10436
▁refund	-10437
▁surprise	-10438
▁disciples	-10439
▁seriously	-10440
▁withdrawal	-10441
▁complicated	-10442
▁certificates	-10443
%.	-10444
ANG	-10445
acco	-10446
rous	-10447
stan	-10448
▁125	-10449
▁30,	-10450
▁Mim	-10451
▁Mis	-10452
▁din	-10453
▁tons	-10454
▁unem	-10455
formed	-10456
▁Clean	-10457
▁crown	-10458
fulness	-10459
▁denial	-10460
▁Replace	-10461
▁designs	-10462
▁dischar	-10463
▁resting	-10464
▁streets	-10465
▁strings	-10466
▁obedient	-10467
▁pregnant	-10468
▁elsewhere	-10469
▁q	-10470
bly	-10471
▁vo	-10472
▁Atl	-10473
▁GNU	-10474
▁PRO	-10475
▁Auro	-10476
▁Heav	-10477
▁Mill	-10478
▁shed	-10479
▁Reply	-10480
▁Royal	-10481
▁vouch	-10482
▁Island	-10483
▁plenty	-10484
▁utility	-10485
▁examined	-10486
▁Resources	-10487
▁teachings	-10488
▁addressing	-10489
▁substituted	-10490
▁‘%	-10491
▁Gen	-10492
▁Rain	-10493
▁Sidd	-10494
▁Chann	-10495
▁guests	-10496
▁protein	-10497
▁Languages	-10498
MM	-10499
UD	-10500
Yes	-10501
▁Ast	-10502
▁peak	-10503
▁token	-10504
▁ransom	-10505
▁divorce	-10506
▁outward	-10507
▁thereon	-10508
▁whereof	-10509
assionate	-10510
▁Building	-10511
▁shoulder	-10512
pass	-10513
▁Gas	-10514
▁MUK	-10515
otism	-10516
▁abol	-10517
▁Street	-10518
▁virtual	-10519
▁vehicles	-10520
▁admission	-10521
▁Regulations	-10522
▁Uttarakhand	-10523
▁SE	-10524
▁TH	-10525
That	-10526
iler	-10527
▁resur	-10528
istence	-10529
▁Jagann	-10530
▁purchased	-10531
▁confirming	-10532
▁sculptures	-10533
BS	-10534
list	-10535
▁IPv	-10536
arted	-10537
▁aest	-10538
▁Third	-10539
▁pharm	-10540
▁Forces	-10541
▁protest	-10542
▁savings	-10543
struction	-10544
▁Progress	-10545
▁speeches	-10546
▁withhold	-10547
▁formulation	-10548
▁Rabindranath	-10549
▁specifically	-10550
ANT	-10551
hta	-10552
nex	-10553
you	-10554
▁Sug	-10555
▁Anal	-10556
course	-10557
wealth	-10558
▁Night	-10559
▁Treat	-10560
▁await	-10561
▁Sindhi	-10562
▁detect	-10563
▁nobody	-10564
▁Electric	-10565
▁helpless	-10566
▁striving	-10567
▁colleagues	-10568
umps	-10569
▁600	-10570
▁Ori	-10571
▁Vaj	-10572
▁Hill	-10573
▁Prat	-10574
▁ling	-10575
▁alcoh	-10576
▁writes	-10577
▁deposited	-10578
sole	-10579
▁14.	-10580
ulent	-10581
▁wont	-10582
HERJEE	-10583
stream	-10584
▁acute	-10585
▁uncom	-10586
ificent	-10587
▁couldn	-10588
▁insult	-10589
▁behavior	-10590
▁creature	-10591
▁MUKHERJEE	-10592
log	-10593
▁Os	-10594
nals	-10595
▁1-4	-10596
▁Was	-10597
▁unw	-10598
pread	-10599
▁Bras	-10600
▁Broad	-10601
▁smart	-10602
▁Station	-10603
▁Teacher	-10604
▁drought	-10605
▁advances	-10606
▁empowerment	-10607
uni	-10608
▁>%	-10609
anqu	-10610
hari	-10611
utra	-10612
▁15.	-10613
▁Dest	-10614
▁Rani	-10615
manship	-10616
▁cometh	-10617
▁Unicode	-10618
▁Warning	-10619
▁borders	-10620
▁ancients	-10621
▁breeding	-10622
▁promises	-10623
▁spending	-10624
▁discovery	-10625
▁inevitable	-10626
REE	-10627
▁MA	-10628
rawn	-10629
▁Hot	-10630
▁pag	-10631
DRESS	-10632
itary	-10633
▁IMAP	-10634
▁aged	-10635
▁india	-10636
▁authors	-10637
▁credits	-10638
▁possibly	-10639
▁Americans	-10640
▁dwellings	-10641
▁publications	-10642
4)	-10643
OW	-10644
iot	-10645
olar	-10646
▁14,	-10647
▁SSL	-10648
▁Tim	-10649
▁1948	-10650
▁1950	-10651
▁caut	-10652
agraha	-10653
▁Scale	-10654
▁genes	-10655
onymous	-10656
▁allied	-10657
▁Viceroy	-10658
▁victims	-10659
▁symbolic	-10660
▁dimension	-10661
▁incidents	-10662
▁preparing	-10663
▁conviction	-10664
▁earthquake	-10665
▁inspection	-10666
▁righteously	-10667
▁transparent	-10668
▁shareholders	-10669
arkar	-10670
▁irre	-10671
erable	-10672
Prophet	-10673
▁Market	-10674
▁Request	-10675
▁satisfy	-10676
▁thereto	-10677
▁Prophets	-10678
▁economies	-10679
▁conducting	-10680
▁enthusiasm	-10681
▁Cooperation	-10682
▁Naz	-10683
▁Nok	-10684
▁flee	-10685
▁lion	-10686
▁wake	-10687
▁trash	-10688
▁append	-10689
▁habits	-10690
▁serves	-10691
▁Express	-10692
▁Journal	-10693
▁explains	-10694
▁fraction	-10695
▁unlawful	-10696
▁transmitted	-10697
▁worshipping	-10698
PM	-10699
▁,	-10700
imet	-10701
mand	-10702
▁tum	-10703
▁Sort	-10704
▁fond	-10705
▁tomb	-10706
▁unsu	-10707
icious	-10708
▁Vijay	-10709
▁honey	-10710
▁molec	-10711
▁Unseen	-10712
▁cursor	-10713
▁urgent	-10714
▁vulner	-10715
▁plastic	-10716
▁disputed	-10717
▁enjoined	-10718
▁comprises	-10719
▁judiciary	-10720
▁*.	-10721
▁Ut	-10722
▁Bay	-10723
▁Hus	-10724
uliar	-10725
▁pipe	-10726
▁Roman	-10727
▁agents	-10728
▁losses	-10729
▁specim	-10730
▁Shankar	-10731
▁beliefs	-10732
▁linkages	-10733
▁railways	-10734
▁Appellate	-10735
▁electrical	-10736
▁productive	-10737
uran	-10738
▁Suf	-10739
▁wet	-10740
enary	-10741
▁Junk	-10742
▁Mich	-10743
▁cryst	-10744
▁slain	-10745
November	-10746
▁Benefit	-10747
▁meanings	-10748
▁peculiar	-10749
▁Community	-10750
▁afflicted	-10751
▁compliance	-10752
09	-10753
also	-10754
ilee	-10755
▁mini	-10756
▁shot	-10757
▁Apply	-10758
▁legit	-10759
▁weigh	-10760
▁Multip	-10761
▁bearer	-10762
▁copper	-10763
▁trusted	-10764
▁typical	-10765
▁birthday	-10766
▁generous	-10767
▁passengers	-10768
▁relatively	-10769
▁Radhakrishnan	-10770
CL	-10771
Us	-10772
Mus	-10773
ald	-10774
owers	-10775
▁Jinn	-10776
▁rope	-10777
▁Samaj	-10778
▁labou	-10779
▁paths	-10780
▁tempt	-10781
▁levied	-10782
▁capture	-10783
▁checked	-10784
▁lending	-10785
▁infidels	-10786
▁studying	-10787
▁guardians	-10788
▁mandatory	-10789
▁Governorate	-10790
▁administrator	-10791
▁54	-10792
five	-10793
▁INA	-10794
▁Pub	-10795
▁tap	-10796
Shall	-10797
▁Deep	-10798
▁Death	-10799
▁Nicob	-10800
▁Radio	-10801
aranasi	-10802
▁Arabia	-10803
▁Father	-10804
▁Sultan	-10805
▁thirst	-10806
▁Brasero	-10807
▁execute	-10808
▁Sciences	-10809
▁complain	-10810
▁managing	-10811
▁receives	-10812
▁Corporate	-10813
▁confusion	-10814
▁occurrence	-10815
▁depreciation	-10816
iph	-10817
lam	-10818
▁UP	-10819
▁Obs	-10820
mates	-10821
▁1980	-10822
▁Acts	-10823
▁glac	-10824
▁Bring	-10825
▁paddy	-10826
theless	-10827
▁Mahade	-10828
▁Odisha	-10829
▁accepts	-10830
▁forming	-10831
▁Chhattis	-10832
▁Establish	-10833
▁regulation	-10834
▁suggestion	-10835
▁particulars	-10836
RU	-10837
TO	-10838
mind	-10839
▁Haj	-10840
▁Rai	-10841
ctive	-10842
▁Laws	-10843
▁pixels	-10844
▁scroll	-10845
ologists	-10846
▁demanded	-10847
▁interval	-10848
▁enforcement	-10849
▁Six	-10850
▁nigh	-10851
▁Amount	-10852
▁awaken	-10853
▁barren	-10854
▁coconut	-10855
▁leather	-10856
▁discount	-10857
▁residents	-10858
▁searching	-10859
▁designated	-10860
▁previously	-10861
▁prosperous	-10862
▁restricted	-10863
.),	-10864
kin	-10865
▁ul	-10866
▁”.	-10867
▁Dan	-10868
▁Pot	-10869
▁cha	-10870
apore	-10871
▁clin	-10872
▁dumb	-10873
▁loud	-10874
▁tone	-10875
▁Jaipur	-10876
▁framed	-10877
▁Upanish	-10878
▁jointly	-10879
▁balanced	-10880
▁medicines	-10881
▁incomplete	-10882
▁prosecution	-10883
Un	-10884
aza	-10885
▁51	-10886
▁Age	-10887
▁Fig	-10888
▁sar	-10889
▁Crit	-10890
▁cogn	-10891
igence	-10892
▁Entry	-10893
▁burst	-10894
▁flows	-10895
tlement	-10896
▁deeper	-10897
▁eleven	-10898
▁licence	-10899
▁rituals	-10900
▁toolbar	-10901
▁Partners	-10902
▁Vertical	-10903
▁pandemic	-10904
▁Judgement	-10905
▁Monitoring	-10906
▁complement	-10907
HO	-10908
bum	-10909
obi	-10910
sar	-10911
udh	-10912
▁56	-10913
▁9,	-10914
▁Ca	-10915
▁MW	-10916
vati	-10917
▁Mys	-10918
▁Squ	-10919
▁gov	-10920
TIONS	-10921
teenth	-10922
▁Queen	-10923
▁crack	-10924
▁advent	-10925
▁emails	-10926
▁talked	-10927
▁Perform	-10928
▁elephants	-10929
▁intensity	-10930
▁processed	-10931
▁affliction	-10932
▁terrorists	-10933
▁experiments	-10934
25	-10935
CI	-10936
▁bid	-10937
riers	-10938
▁Conv	-10939
▁Fold	-10940
▁zoom	-10941
▁bride	-10942
▁edited	-10943
▁ADDRESS	-10944
▁Emperor	-10945
▁Programm	-10946
▁prisoners	-10947
▁modification	-10948
▁85	-10949
gged	-10950
ohan	-10951
rious	-10952
urbed	-10953
▁Ayat	-10954
▁Rang	-10955
isting	-10956
urrent	-10957
▁Along	-10958
▁abdom	-10959
▁afore	-10960
▁angle	-10961
arkhand	-10962
▁pestic	-10963
▁Kannada	-10964
▁obviously	-10965
▁functional	-10966
▁Accordingly	-10967
▁determining	-10968
▁discrimination	-10969
PL	-10970
isk	-10971
▁BI	-10972
▁cm	-10973
pany	-10974
▁bon	-10975
▁Week	-10976
▁jump	-10977
▁unus	-10978
▁wond	-10979
utical	-10980
▁Nodal	-10981
▁Rajput	-10982
▁Version	-10983
▁affects	-10984
▁Abdullah	-10985
▁Guardian	-10986
▁Religion	-10987
▁sessions	-10988
▁sympathy	-10989
▁verified	-10990
▁Ahmedabad	-10991
▁Whosoever	-10992
▁afternoon	-10993
▁locations	-10994
▁Revolution	-10995
▁involvement	-10996
▁Administrative	-10997
saf	-10998
▁Emb	-10999
▁Occ	-11000
named	-11001
ordan	-11002
▁epis	-11003
aterial	-11004
imental	-11005
▁Prepar	-11006
▁Sharma	-11007
▁enters	-11008
▁relate	-11009
▁Persons	-11010
▁earning	-11011
▁headers	-11012
▁helpful	-11013
▁utterly	-11014
▁Gracious	-11015
▁assessed	-11016
▁coloured	-11017
▁Securities	-11018
▁substitute	-11019
▁threatened	-11020
▁participated	-11021
▁Authentication	-11022
col	-11023
▁64	-11024
▁Jo	-11025
▁Ki	-11026
▁pa	-11027
emen	-11028
▁13.	-11029
neath	-11030
rowse	-11031
scape	-11032
▁Gate	-11033
▁Icon	-11034
▁Lock	-11035
▁Pall	-11036
limate	-11037
▁reven	-11038
wellery	-11039
▁Kanpur	-11040
▁absent	-11041
▁liberty	-11042
▁Aurobind	-11043
▁Straight	-11044
▁monetary	-11045
▁libraries	-11046
▁reception	-11047
▁referring	-11048
▁compulsory	-11049
▁incentives	-11050
▁separation	-11051
▁disobedience	-11052
▁concentration	-11053
▁professionals	-11054
OD	-11055
osc	-11056
▁Gal	-11057
▁Sit	-11058
▁rows	-11059
ifting	-11060
▁Youth	-11061
▁mango	-11062
▁Golden	-11063
▁conspir	-11064
▁endowed	-11065
▁Varanasi	-11066
▁artistic	-11067
▁concrete	-11068
▁candidate	-11069
▁Regulation	-11070
▁absolutely	-11071
▁Compassionate	-11072
:'	-11073
▁13,	-11074
▁tiny	-11075
akings	-11076
itated	-11077
▁query	-11078
▁digest	-11079
▁Primary	-11080
▁relates	-11081
▁respects	-11082
▁generating	-11083
▁invitation	-11084
▁Chhattisgarh	-11085
▁Hem	-11086
▁Rat	-11087
▁Poet	-11088
▁Wait	-11089
▁coin	-11090
▁germ	-11091
▁push	-11092
▁supr	-11093
▁Month	-11094
▁Photo	-11095
▁grade	-11096
uminous	-11097
▁quoted	-11098
▁disable	-11099
▁funding	-11100
▁lecture	-11101
▁symbols	-11102
▁auspicious	-11103
pus	-11104
▁47	-11105
hers	-11106
▁Sou	-11107
ivest	-11108
▁(200	-11109
▁Swed	-11110
▁quad	-11111
usalem	-11112
▁Reset	-11113
▁flame	-11114
▁solemn	-11115
▁tenant	-11116
▁Changes	-11117
▁Singles	-11118
▁vitamin	-11119
▁airports	-11120
▁borrower	-11121
▁intimate	-11122
▁chemicals	-11123
▁constitut	-11124
▁footsteps	-11125
▁initially	-11126
mad	-11127
▁49	-11128
▁Tat	-11129
▁fer	-11130
▁fors	-11131
▁Paris	-11132
▁Prize	-11133
▁Active	-11134
▁Senior	-11135
▁matches	-11136
▁mutually	-11137
▁rainfall	-11138
▁personally	-11139
▁imperialism	-11140
▁architectural	-11141
API	-11142
rix	-11143
▁2:	-11144
▁Sn	-11145
▁COV	-11146
▁Hum	-11147
▁mit	-11148
alled	-11149
pered	-11150
▁Hast	-11151
▁Mong	-11152
▁doct	-11153
▁nest	-11154
▁nice	-11155
▁seiz	-11156
ulator	-11157
▁Pract	-11158
▁surve	-11159
cribers	-11160
▁allies	-11161
▁goodly	-11162
▁honest	-11163
▁upload	-11164
▁seventy	-11165
▁prevention	-11166
▁travelling	-11167
uis	-11168
▁CR	-11169
▁aqu	-11170
▁HTTP	-11171
▁Host	-11172
▁swit	-11173
▁Moosa	-11174
▁Nokia	-11175
▁Works	-11176
▁irres	-11177
▁lists	-11178
▁Within	-11179
▁curric	-11180
▁Acharya	-11181
roduction	-11182
▁interpre	-11183
▁concluded	-11184
▁discourse	-11185
▁perception	-11186
▁philosophical	-11187
HI	-11188
hin	-11189
iac	-11190
amar	-11191
▁50,	-11192
▁Tun	-11193
▁ray	-11194
▁tact	-11195
ubilee	-11196
▁rests	-11197
▁slope	-11198
▁Jordan	-11199
▁Seeing	-11200
▁anyway	-11201
▁ruined	-11202
▁timely	-11203
▁retired	-11204
▁minority	-11205
▁pleasant	-11206
▁Aurobindo	-11207
▁Available	-11208
▁rebellion	-11209
tw	-11210
pal	-11211
▁Ro	-11212
born	-11213
even	-11214
oult	-11215
▁Cut	-11216
▁Vari	-11217
▁maxim	-11218
▁Mysore	-11219
▁Toggle	-11220
▁affirm	-11221
▁picked	-11222
▁Village	-11223
▁rewarded	-11224
▁paragraph	-11225
▁rendering	-11226
ROM	-11227
cons	-11228
isco	-11229
▁Tre	-11230
▁1991	-11231
▁outs	-11232
▁rejo	-11233
▁scan	-11234
▁trig	-11235
▁admir	-11236
▁crude	-11237
▁penis	-11238
▁betray	-11239
▁endure	-11240
▁Schemes	-11241
▁abandon	-11242
▁anybody	-11243
▁pursuit	-11244
▁retreat	-11245
▁humility	-11246
▁immortal	-11247
▁inferior	-11248
▁manpower	-11249
▁withdrawn	-11250
▁Dwarkanath	-11251
Com	-11252
map	-11253
ocy	-11254
ania	-11255
yles	-11256
▁wax	-11257
Bring	-11258
▁1997	-11259
▁Very	-11260
▁lots	-11261
acular	-11262
▁Nobel	-11263
▁enjoin	-11264
▁intend	-11265
▁plural	-11266
▁weapon	-11267
▁Consult	-11268
▁Despite	-11269
▁discard	-11270
▁proceeds	-11271
▁tributes	-11272
▁elaborate	-11273
▁capability	-11274
▁perspective	-11275
TA	-11276
pi	-11277
iah	-11278
itr	-11279
rak	-11280
▁1'	-11281
onia	-11282
▁rat	-11283
▁bent	-11284
▁hole	-11285
▁palms	-11286
▁semin	-11287
▁Govind	-11288
▁extrem	-11289
▁mature	-11290
▁adorned	-11291
▁tissues	-11292
aceutical	-11293
▁captured	-11294
▁immovable	-11295
▁simultaneously	-11296
An	-11297
thren	-11298
▁dupl	-11299
cessors	-11300
▁Econom	-11301
▁Manual	-11302
▁dollar	-11303
▁lesser	-11304
▁nights	-11305
▁Finally	-11306
▁Mizoram	-11307
▁chamber	-11308
▁survive	-11309
▁obedience	-11310
▁recovered	-11311
DM	-11312
unto	-11313
.2017	-11314
isans	-11315
itted	-11316
▁agro	-11317
▁beet	-11318
▁rand	-11319
▁ster	-11320
▁void	-11321
roller	-11322
urable	-11323
▁fount	-11324
▁numer	-11325
▁makers	-11326
▁passes	-11327
▁Writing	-11328
▁muscles	-11329
▁secured	-11330
▁declined	-11331
▁heedless	-11332
▁Arunachal	-11333
▁expanding	-11334
▁safeguard	-11335
▁inheritance	-11336
!'	-11337
cho	-11338
uma	-11339
▁16,	-11340
agari	-11341
feren	-11342
▁Quit	-11343
▁junk	-11344
▁Large	-11345
▁coins	-11346
▁Memory	-11347
▁desist	-11348
▁extends	-11349
▁bounties	-11350
▁checking	-11351
▁romantic	-11352
▁Jerusalem	-11353
▁phenomenon	-11354
▁Environmental	-11355
bab	-11356
▁Ku	-11357
▁sq	-11358
rapy	-11359
▁Sul	-11360
▁hub	-11361
ceans	-11362
cence	-11363
ieval	-11364
▁1993	-11365
▁Alif	-11366
▁Bagh	-11367
itably	-11368
▁PRANAB	-11369
▁rename	-11370
▁anticip	-11371
▁untouch	-11372
▁retrieve	-11373
▁wretched	-11374
▁endeavours	-11375
SC	-11376
bo	-11377
win	-11378
▁Ho	-11379
▁remun	-11380
▁hosted	-11381
▁weaken	-11382
▁Banking	-11383
▁revised	-11384
▁Original	-11385
▁welcomed	-11386
▁Petroleum	-11387
▁narrative	-11388
▁prevalent	-11389
▁indirectly	-11390
▁possibilities	-11391
ROW	-11392
▁AL	-11393
▁Chh	-11394
▁Decl	-11395
▁Moon	-11396
▁Sand	-11397
▁fled	-11398
▁Shakti	-11399
▁blocks	-11400
▁mouths	-11401
economic	-11402
▁Payment	-11403
▁contrad	-11404
▁contempt	-11405
▁controls	-11406
▁extending	-11407
▁liberation	-11408
▁rebellious	-11409
py	-11410
ERN	-11411
isa	-11412
kha	-11413
▁66	-11414
quet	-11415
uate	-11416
anger	-11417
▁Film	-11418
ickets	-11419
▁Glory	-11420
▁vigil	-11421
▁concess	-11422
▁fingers	-11423
▁concepts	-11424
▁coverage	-11425
▁unjustly	-11426
▁vouchsaf	-11427
▁Highlight	-11428
▁evaluation	-11429
▁underneath	-11430
▁scholarship	-11431
ky	-11432
ael	-11433
oqu	-11434
ori	-11435
▁UK	-11436
acle	-11437
akat	-11438
awan	-11439
etus	-11440
phal	-11441
▁16.	-11442
▁XML	-11443
▁bew	-11444
▁que	-11445
▁Shar	-11446
holder	-11447
iative	-11448
illing	-11449
person	-11450
▁ordin	-11451
▁upset	-11452
▁Applic	-11453
▁laying	-11454
ivestock	-11455
▁Sahitya	-11456
▁abiding	-11457
▁avoided	-11458
▁secrets	-11459
▁criteria	-11460
▁assistant	-11461
▁criminals	-11462
▁fertilizers	-11463
aga	-11464
▁AC	-11465
ball	-11466
▁183	-11467
▁Moz	-11468
▁WOR	-11469
▁hol	-11470
anned	-11471
▁Body	-11472
▁Ital	-11473
▁Memo	-11474
▁Veda	-11475
▁mamm	-11476
ressal	-11477
▁Audit	-11478
▁lofty	-11479
▁random	-11480
▁Systems	-11481
▁Particip	-11482
▁Extension	-11483
▁definitely	-11484
▁sanitation	-11485
▁',	-11486
▁WIT	-11487
itime	-11488
ridge	-11489
▁ambit	-11490
▁ought	-11491
reshold	-11492
▁Worlds	-11493
▁riches	-11494
▁stores	-11495
▁explore	-11496
▁mailbox	-11497
▁monsoon	-11498
▁upgrade	-11499
▁whereon	-11500
▁deprived	-11501
▁measured	-11502
▁moderate	-11503
▁receipts	-11504
▁favourite	-11505
▁comparison	-11506
▁Electronics	-11507
▁possessions	-11508
▁accomplished	-11509
anc	-11510
amba	-11511
fers	-11512
▁cad	-11513
apati	-11514
oints	-11515
▁Mall	-11516
▁Grace	-11517
▁Legal	-11518
▁Stock	-11519
▁hears	-11520
▁nucle	-11521
▁warri	-11522
▁meters	-11523
curement	-11524
iciaries	-11525
▁columns	-11526
▁logical	-11527
▁serpent	-11528
▁Question	-11529
▁magnetic	-11530
▁suggests	-11531
NR	-11532
▁46	-11533
oshi	-11534
▁(6)	-11535
▁Naw	-11536
isive	-11537
ursed	-11538
▁inqu	-11539
▁Menon	-11540
▁Paste	-11541
▁creed	-11542
▁rooms	-11543
▁Output	-11544
▁Saving	-11545
▁averse	-11546
▁explos	-11547
▁Tripura	-11548
▁dollars	-11549
▁neglected	-11550
▁classified	-11551
▁collecting	-11552
▁liabilities	-11553
ki	-11554
eda	-11555
▁50%	-11556
iscal	-11557
▁bits	-11558
▁Following	-11559
▁Secondary	-11560
▁confirmed	-11561
▁greatness	-11562
LIC	-11563
pex	-11564
▁ii	-11565
uild	-11566
▁aug	-11567
▁Dhar	-11568
▁chol	-11569
▁flav	-11570
▁Shait	-11571
▁accru	-11572
▁greed	-11573
emption	-11574
▁Medium	-11575
▁decent	-11576
▁calamity	-11577
▁comprehe	-11578
▁Reference	-11579
▁lightning	-11580
▁Enterprises	-11581
▁disobedient	-11582
▁entertainment	-11583
AA	-11584
ias	-11585
some	-11586
▁Hyd	-11587
▁Vin	-11588
▁Feed	-11589
▁Puri	-11590
icable	-11591
▁Cross	-11592
▁Front	-11593
itaries	-11594
▁excuse	-11595
▁voting	-11596
▁existed	-11597
▁brethren	-11598
▁Mauritius	-11599
▁Palestine	-11600
▁engineers	-11601
▁factories	-11602
▁charitable	-11603
▁convenient	-11604
18	-11605
OST	-11606
OUR	-11607
ket	-11608
▁Tu	-11609
▁Uz	-11610
riend	-11611
▁Fran	-11612
▁disb	-11613
▁Medic	-11614
▁Estate	-11615
hibition	-11616
▁Andaman	-11617
▁Revenue	-11618
▁goodwill	-11619
▁Territory	-11620
▁condemned	-11621
▁Horizontal	-11622
▁households	-11623
▁Partnership	-11624
▁transformed	-11625
08	-11626
aki	-11627
ibh	-11628
▁Lay	-11629
▁Decc	-11630
▁indec	-11631
▁mobil	-11632
▁ninet	-11633
▁purely	-11634
▁sensit	-11635
ternally	-11636
▁Farmers	-11637
▁compact	-11638
▁clothing	-11639
▁Terrorism	-11640
▁satellite	-11641
▁disability	-11642
▁transition	-11643
▁Automatically	-11644
▁significantly	-11645
cca	-11646
mas	-11647
tar	-11648
only	-11649
thal	-11650
▁MIN	-11651
verted	-11652
▁Kalam	-11653
▁stern	-11654
▁armies	-11655
▁rescue	-11656
▁anxious	-11657
▁tongues	-11658
▁Nagaland	-11659
▁predomin	-11660
▁synchron	-11661
▁Allowance	-11662
▁scientist	-11663
▁Ambassador	-11664
▁coordinate	-11665
▁mechanical	-11666
▁nationalism	-11667
▁observation	-11668
▁Op	-11669
usha	-11670
▁Lin	-11671
▁fur	-11672
nders	-11673
▁Base	-11674
onents	-11675
▁Compl	-11676
▁brand	-11677
▁cheap	-11678
▁irrit	-11679
▁repro	-11680
▁Bhagav	-11681
▁Client	-11682
▁Reform	-11683
▁vested	-11684
▁befalls	-11685
▁deserve	-11686
▁prolong	-11687
▁Recovery	-11688
▁Portugues	-11689
▁brilliant	-11690
▁divisions	-11691
▁honourable	-11692
▁intercourse	-11693
23	-11694
lis	-11695
▁gh	-11696
Will	-11697
mity	-11698
wari	-11699
▁lux	-11700
▁sul	-11701
ograp	-11702
▁Gran	-11703
▁INAUG	-11704
▁minim	-11705
▁tiger	-11706
▁coffee	-11707
▁tempor	-11708
remember	-11709
▁exposure	-11710
▁purified	-11711
▁Statement	-11712
▁abandoned	-11713
▁supramental	-11714
BB	-11715
eta	-11716
held	-11717
omas	-11718
ptic	-11719
▁Hit	-11720
▁kids	-11721
▁misd	-11722
▁Based	-11723
▁Bless	-11724
▁chick	-11725
fortune	-11726
▁deaths	-11727
▁lights	-11728
▁retail	-11729
Amendment	-11730
▁confused	-11731
▁differed	-11732
▁disclose	-11733
▁shortcut	-11734
▁Copyright	-11735
▁nominated	-11736
▁Production	-11737
gon	-11738
hal	-11739
ajan	-11740
arus	-11741
▁apt	-11742
▁ard	-11743
▁Desh	-11744
▁Vall	-11745
▁enqu	-11746
▁tang	-11747
Script	-11748
▁Gopal	-11749
▁Tasks	-11750
▁Tilak	-11751
▁Trash	-11752
▁disqu	-11753
▁enrich	-11754
▁forged	-11755
▁Hanuman	-11756
▁membrane	-11757
▁accepting	-11758
▁frequency	-11759
▁misfortune	-11760
▁translator	-11761
▁undoubtedly	-11762
▁Palestinians	-11763
▁headquarters	-11764
▁intercession	-11765
anim	-11766
▁Box	-11767
▁Cro	-11768
▁sho	-11769
acles	-11770
▁1986	-11771
▁Thir	-11772
▁stub	-11773
istrar	-11774
▁clock	-11775
▁hyper	-11776
▁whoso	-11777
▁Couldn	-11778
▁loving	-11779
▁subtle	-11780
▁alleged	-11781
▁inmates	-11782
▁subtract	-11783
▁Jharkhand	-11784
▁inflation	-11785
▁renewable	-11786
▁horizontal	-11787
▁reputation	-11788
▁vegetation	-11789
FS	-11790
RC	-11791
▁Ep	-11792
Your	-11793
arse	-11794
ieth	-11795
andum	-11796
itter	-11797
▁Virt	-11798
▁cows	-11799
▁lays	-11800
▁merc	-11801
▁Oriya	-11802
▁Staff	-11803
▁marble	-11804
▁Hamachi	-11805
▁similit	-11806
▁minerals	-11807
▁accompany	-11808
▁formulated	-11809
▁repository	-11810
▁1)	-11811
▁Ya	-11812
▁ov	-11813
link	-11814
▁Den	-11815
▁obe	-11816
gence	-11817
▁Mean	-11818
▁Cause	-11819
▁Sikhs	-11820
▁Chaluk	-11821
▁INDIAN	-11822
▁poster	-11823
▁Penalty	-11824
▁vibrant	-11825
▁earnings	-11826
▁orthodox	-11827
▁promoted	-11828
▁gratitude	-11829
▁worldwide	-11830
▁mechanisms	-11831
▁prevailing	-11832
▁accumulated	-11833
▁GT	-11834
▁tired	-11835
October	-11836
▁fortun	-11837
▁powder	-11838
▁weaker	-11839
▁Copying	-11840
▁Indones	-11841
▁Nicobar	-11842
▁beloved	-11843
▁buttons	-11844
▁conform	-11845
▁Standing	-11846
▁compound	-11847
▁frequent	-11848
▁miracles	-11849
▁mistakes	-11850
▁tendency	-11851
▁Relations	-11852
▁disregard	-11853
▁consistent	-11854
▁vouchsafed	-11855
▁acknowledge	-11856
05	-11857
EST	-11858
agu	-11859
happ	-11860
plus	-11861
rama	-11862
zzle	-11863
▁23.	-11864
▁AIR	-11865
state	-11866
▁Kitt	-11867
ivided	-11868
▁rupee	-11869
▁Cancel	-11870
▁filing	-11871
▁harass	-11872
▁Strateg	-11873
▁guiding	-11874
▁inquiry	-11875
▁Hospital	-11876
▁crossing	-11877
▁everyday	-11878
▁sciences	-11879
▁stressed	-11880
▁equitable	-11881
▁justified	-11882
▁objection	-11883
▁reporting	-11884
▁humiliating	-11885
▁DR	-11886
▁lin	-11887
matic	-11888
▁Input	-11889
▁scrut	-11890
▁Adjust	-11891
▁coastal	-11892
unciation	-11893
▁expressions	-11894
▁confirmation	-11895
▁considerably	-11896
MOR	-11897
Ver	-11898
leep	-11899
loom	-11900
▁Vas	-11901
▁thr	-11902
seless	-11903
▁Khand	-11904
▁buffer	-11905
▁compos	-11906
▁exempt	-11907
▁sealed	-11908
▁conject	-11909
▁ensured	-11910
▁ranging	-11911
▁Universe	-11912
▁cautious	-11913
▁monuments	-11914
▁originated	-11915
▁privileges	-11916
▁intelligent	-11917
draw	-11918
mist	-11919
otee	-11920
▁Beg	-11921
▁DNA	-11922
▁NIT	-11923
▁lag	-11924
▁cher	-11925
▁ride	-11926
▁swim	-11927
advant	-11928
▁spark	-11929
▁trace	-11930
▁Height	-11931
▁chains	-11932
▁enmity	-11933
▁Manilal	-11934
connected	-11935
▁Circular	-11936
▁Creating	-11937
▁forehead	-11938
▁inherent	-11939
▁ministry	-11940
▁presently	-11941
▁provinces	-11942
▁wherefore	-11943
▁advantages	-11944
▁successors	-11945
▁neighbouring	-11946
▁characterized	-11947
▁notifications	-11948
Dep	-11949
▁Dur	-11950
▁Swit	-11951
▁glob	-11952
▁jute	-11953
▁uter	-11954
▁wast	-11955
inding	-11956
proofs	-11957
▁Funds	-11958
▁capac	-11959
▁gifts	-11960
▁rains	-11961
▁widow	-11962
▁Hearer	-11963
▁argued	-11964
▁saints	-11965
▁parable	-11966
▁praises	-11967
▁reveals	-11968
▁Chancell	-11969
▁allowing	-11970
▁lectures	-11971
▁reconcil	-11972
▁medicinal	-11973
▁Portuguese	-11974
▁limitations	-11975
▁subordinate	-11976
▁preservation	-11977
}.	-11978
fig	-11979
▁63	-11980
▁ki	-11981
andi	-11982
▁SOC	-11983
▁SRI	-11984
▁nic	-11985
throp	-11986
▁Dhan	-11987
▁modes	-11988
ropical	-11989
▁Sarasw	-11990
▁buying	-11991
▁excite	-11992
▁hereby	-11993
▁auction	-11994
▁driving	-11995
▁edition	-11996
▁governed	-11997
▁striking	-11998
▁Democratic	-11999
▁wrongdoing	-12000
▁negotiations	-12001
▁beneficiaries	-12002
Tube	-12003
▁245	-12004
▁Low	-12005
agger	-12006
▁Pars	-12007
▁fare	-12008
▁Impro	-12009
▁James	-12010
▁moist	-12011
Pharaoh	-12012
▁ascend	-12013
▁Climate	-12014
▁Earlier	-12015
▁deceive	-12016
▁joining	-12017
▁diabetes	-12018
▁Europeans	-12019
▁Institutes	-12020
▁affordable	-12021
▁businesses	-12022
▁fulfilment	-12023
▁substances	-12024
▁Constituent	-12025
1%	-12026
ec	-12027
ppe	-12028
inea	-12029
oves	-12030
▁(18	-12031
▁Ten	-12032
reens	-12033
▁Used	-12034
▁heir	-12035
▁stir	-12036
▁vice	-12037
oultry	-12038
▁dense	-12039
angular	-12040
▁Church	-12041
▁Higher	-12042
▁amidst	-12043
▁Asutosh	-12044
▁shrines	-12045
▁traders	-12046
▁basically	-12047
▁Chandigarh	-12048
▁participating	-12049
zil	-12050
▁AP	-12051
uced	-12052
▁Nas	-12053
▁vel	-12054
inety	-12055
▁Baba	-12056
▁cure	-12057
inions	-12058
orship	-12059
▁Empty	-12060
▁Aurang	-12061
▁Launch	-12062
▁minded	-12063
▁revival	-12064
▁dominant	-12065
▁scenario	-12066
▁inclusion	-12067
▁surprised	-12068
▁deficiency	-12069
▁exhibition	-12070
▁quantities	-12071
:—	-12072
EB	-12073
uj	-12074
▁EN	-12075
▁GDP	-12076
▁Lol	-12077
ersed	-12078
▁1995	-12079
▁8859	-12080
▁COVID	-12081
▁batch	-12082
▁overs	-12083
▁rises	-12084
▁graves	-12085
▁marine	-12086
▁Various	-12087
▁Weather	-12088
▁instant	-12089
▁Singapore	-12090
▁empowered	-12091
▁Conservation	-12092
god	-12093
▁72	-12094
▁Sha	-12095
atics	-12096
henna	-12097
▁Abhi	-12098
▁brah	-12099
▁soph	-12100
▁Music	-12101
▁burnt	-12102
▁hindi	-12103
▁devils	-12104
▁mirror	-12105
▁Specify	-12106
▁alcohol	-12107
▁crossed	-12108
▁conceived	-12109
▁hospitals	-12110
▁jewellery	-12111
▁meaningful	-12112
▁controlling	-12113
raj	-12114
▁CVS	-12115
aimed	-12116
itage	-12117
▁Gall	-12118
▁Upon	-12119
▁curt	-12120
▁gran	-12121
▁Draft	-12122
▁Final	-12123
▁VISIT	-12124
▁Write	-12125
▁manip	-12126
▁rarely	-12127
▁earnest	-12128
▁magazine	-12129
▁reliable	-12130
▁exercised	-12131
▁qualified	-12132
▁somewhere	-12133
▁boundaries	-12134
▁prohibited	-12135
▁distinguish	-12136
▁intervention	-12137
▁translations	-12138
RD	-12139
Con	-12140
dens	-12141
▁(23	-12142
▁Norm	-12143
▁Sach	-12144
▁sung	-12145
intend	-12146
▁Hamas	-12147
▁Might	-12148
▁cruel	-12149
▁Castes	-12150
▁oceans	-12151
▁topics	-12152
December	-12153
▁shifted	-12154
▁governing	-12155
▁Collection	-12156
▁Federation	-12157
▁discretion	-12158
▁statistics	-12159
▁subscriber	-12160
▁Cooperative	-12161
'%	-12162
DL	-12163
poly	-12164
rage	-12165
▁(10	-12166
▁Hel	-12167
▁cel	-12168
▁1970	-12169
▁2018	-12170
▁Issue	-12171
▁Latin	-12172
▁Owner	-12173
▁likes	-12174
▁Deccan	-12175
▁breach	-12176
▁propri	-12177
▁Freedom	-12178
▁Success	-12179
▁harness	-12180
▁hostile	-12181
▁reverse	-12182
▁stretch	-12183
▁Chemical	-12184
▁encoding	-12185
▁reflects	-12186
▁intensive	-12187
▁proceeded	-12188
▁repayment	-12189
▁publishing	-12190
▁Territories	-12191
▁acknowledged	-12192
WA	-12193
due	-12194
▁1%	-12195
olve	-12196
rose	-12197
vity	-12198
▁184	-12199
▁Loc	-12200
▁Lut	-12201
▁tit	-12202
ercul	-12203
▁'{0}	-12204
▁Venk	-12205
▁torn	-12206
▁worn	-12207
ancies	-12208
eshwar	-12209
▁nutri	-12210
▁relax	-12211
▁tract	-12212
▁Lolita	-12213
▁Recent	-12214
▁scales	-12215
▁steady	-12216
▁Summary	-12217
▁critics	-12218
▁custody	-12219
▁Wildlife	-12220
▁emotions	-12221
▁enduring	-12222
▁removing	-12223
▁Commercial	-12224
▁thoroughly	-12225
sis	-12226
wah	-12227
asse	-12228
osph	-12229
rise	-12230
▁Oly	-12231
▁awe	-12232
▁mol	-12233
▁Room	-12234
▁Symb	-12235
▁zeal	-12236
▁Words	-12237
▁owing	-12238
▁parse	-12239
▁Almast	-12240
▁cavity	-12241
▁homage	-12242
▁pillar	-12243
▁traged	-12244
▁walked	-12245
▁corners	-12246
▁foolish	-12247
▁mortgage	-12248
▁spectrum	-12249
▁approached	-12250
▁biological	-12251
▁describing	-12252
▁dignitaries	-12253
▁recommendation	-12254
imp	-12255
▁92	-12256
▁Ren	-12257
ropri	-12258
▁Mahe	-12259
▁Sust	-12260
▁idle	-12261
ortion	-12262
▁smell	-12263
pported	-12264
regular	-12265
▁Gehenna	-12266
▁burdens	-12267
▁leaflet	-12268
▁clusters	-12269
▁Marketing	-12270
▁continent	-12271
▁departure	-12272
▁systematic	-12273
hem	-12274
▁99	-12275
▁KB	-12276
▁PL	-12277
▁Mrs	-12278
▁Yah	-12279
▁adds	-12280
aduate	-12281
cience	-12282
usions	-12283
▁Graph	-12284
▁Label	-12285
▁jihad	-12286
▁necks	-12287
▁shops	-12288
ictions	-12289
▁backup	-12290
▁Believe	-12291
▁cabinet	-12292
▁orientation	-12293
“%	-12294
anz	-12295
esa	-12296
uda	-12297
▁Bug	-12298
▁Kat	-12299
▁Yog	-12300
▁umb	-12301
anchi	-12302
rates	-12303
▁"{0}	-12304
▁peas	-12305
▁sail	-12306
▁stip	-12307
▁Chrom	-12308
▁Mexic	-12309
▁blast	-12310
▁embry	-12311
▁fancy	-12312
▁globe	-12313
▁renow	-12314
istical	-12315
▁Website	-12316
▁YouTube	-12317
▁decrease	-12318
▁delicate	-12319
▁Scientific	-12320
▁credential	-12321
▁devotional	-12322
▁Commonwealth	-12323
VAN	-12324
fly	-12325
Hind	-12326
juna	-12327
▁Pil	-12328
iency	-12329
orest	-12330
▁Cave	-12331
▁FROM	-12332
▁neut	-12333
rupted	-12334
▁Sanct	-12335
▁abuse	-12336
ruption	-12337
▁hollow	-12338
▁impose	-12339
▁infant	-12340
▁ranges	-12341
▁statue	-12342
▁verify	-12343
▁Shaitan	-12344
▁illiter	-12345
▁miracle	-12346
▁Advisory	-12347
▁Heritage	-12348
▁supplies	-12349
▁underlying	-12350
▁Distribution	-12351
▁associations	-12352
':	-12353
'?	-12354
▁OK	-12355
orph	-12356
▁800	-12357
▁Abu	-12358
▁Gop	-12359
▁HIV	-12360
▁Kaz	-12361
▁raj	-12362
▁ram	-12363
▁tob	-12364
essed	-12365
▁Calc	-12366
erated	-12367
▁Saint	-12368
▁annum	-12369
▁tends	-12370
▁cement	-12371
▁dances	-12372
▁gender	-12373
▁spaces	-12374
▁tranqu	-12375
▁asunder	-12376
▁mislead	-12377
izational	-12378
▁Continue	-12379
▁Function	-12380
▁Memorial	-12381
▁medieval	-12382
▁Documents	-12383
▁directors	-12384
▁introduce	-12385
▁autonomous	-12386
▁conception	-12387
▁regulatory	-12388
▁nationalist	-12389
▁manufactured	-12390
Ms	-12391
▁FDI	-12392
▁Ice	-12393
▁MAPI	-12394
▁Maul	-12395
▁lips	-12396
▁sect	-12397
▁Italy	-12398
▁decre	-12399
▁score	-12400
osystem	-12401
▁Kittur	-12402
▁inward	-12403
▁throat	-12404
▁Empathy	-12405
▁Witness	-12406
▁clauses	-12407
▁founder	-12408
▁disadvant	-12409
▁envisaged	-12410
▁literally	-12411
▁particles	-12412
▁treasures	-12413
▁Communication	-12414
EA	-12415
200	-12416
▁Ta	-12417
▁eg	-12418
achh	-12419
▁Van	-12420
adequ	-12421
roots	-12422
▁conj	-12423
ioxide	-12424
▁Armed	-12425
▁crash	-12426
▁wombs	-12427
Abraham	-12428
icating	-12429
▁confer	-12430
▁Deposit	-12431
▁staying	-12432
▁worried	-12433
▁absorbed	-12434
▁foremost	-12435
▁disobeyed	-12436
";	-12437
ourn	-12438
rium	-12439
▁22.	-12440
▁27,	-12441
▁Pul	-12442
▁Sep	-12443
▁Tea	-12444
ierce	-12445
riday	-12446
▁Coll	-12447
▁Srin	-12448
▁deer	-12449
ananda	-12450
▁Coast	-12451
▁Imper	-12452
▁accur	-12453
▁drain	-12454
▁smile	-12455
▁Corona	-12456
▁breaks	-12457
▁patent	-12458
▁Burning	-12459
▁Country	-12460
▁Cricket	-12461
▁boundary	-12462
▁ideology	-12463
▁template	-12464
▁slaughter	-12465
▁uncertain	-12466
▁amendments	-12467
▁dictionary	-12468
▁dimensions	-12469
▁popularity	-12470
By	-12471
cus	-12472
▁1974	-12473
▁Fear	-12474
▁cant	-12475
▁tort	-12476
▁2000.	-12477
▁Games	-12478
▁alert	-12479
▁haven	-12480
▁nodal	-12481
▁modest	-12482
▁sphere	-12483
▁condemn	-12484
▁envelop	-12485
▁Internal	-12486
▁offences	-12487
▁Political	-12488
▁ancestors	-12489
▁conflicts	-12490
▁expensive	-12491
▁grievance	-12492
▁shoulders	-12493
▁determines	-12494
▁strategies	-12495
▁Examination	-12496
abs	-12497
abil	-12498
arct	-12499
▁17,	-12500
▁Shu	-12501
▁upl	-12502
eline	-12503
liant	-12504
▁wash	-12505
Verily	-12506
▁craft	-12507
▁exempl	-12508
▁sender	-12509
aternity	-12510
▁devotee	-12511
▁nursing	-12512
omination	-12513
▁accorded	-12514
▁Panchayat	-12515
▁delighted	-12516
▁arbitration	-12517
▁collections	-12518
▁Introduction	-12519
▁psychological	-12520
▁relationships	-12521
EX	-12522
him	-12523
▁iv	-12524
adhy	-12525
iety	-12526
▁INS	-12527
thood	-12528
those	-12529
▁Alph	-12530
▁Taur	-12531
▁chap	-12532
▁debts	-12533
▁decay	-12534
▁pests	-12535
▁postp	-12536
▁steep	-12537
▁Thomas	-12538
▁updates	-12539
▁Inspector	-12540
▁Provision	-12541
▁suspended	-12542
▁subsidiary	-12543
▁Unbelievers	-12544
▁resurrection	-12545
▁rehabilitation	-12546
3)	-12547
such	-12548
▁23,	-12549
anmar	-12550
▁1957	-12551
▁brid	-12552
▁nour	-12553
▁arrow	-12554
▁climb	-12555
▁federal	-12556
▁undergo	-12557
▁provider	-12558
▁retained	-12559
▁sickness	-12560
▁wildlife	-12561
▁sponsored	-12562
▁compromise	-12563
▁impressive	-12564
▁controversy	-12565
▁researchers	-12566
24	-12567
awn	-12568
▁1:	-12569
▁MB	-12570
▁Mc	-12571
asim	-12572
▁Bij	-12573
▁Ell	-12574
▁bod	-12575
doers	-12576
▁gene	-12577
▁grid	-12578
▁ware	-12579
idding	-12580
▁Emerg	-12581
▁Mahav	-12582
▁Maybe	-12583
▁Saroj	-12584
▁Valid	-12585
▁shirt	-12586
▁trains	-12587
idespread	-12588
▁abstract	-12589
▁certainty	-12590
▁undivided	-12591
▁attraction	-12592
▁coordination	-12593
▁inflammation	-12594
▁substantially	-12595
awa	-12596
ito	-12597
▁07	-12598
▁BS	-12599
▁Infl	-12600
▁hang	-12601
▁jung	-12602
▁slip	-12603
atable	-12604
▁caves	-12605
▁deput	-12606
▁Attend	-12607
▁Little	-12608
▁oppose	-12609
▁speedy	-12610
▁dancing	-12611
▁tobacco	-12612
▁shortage	-12613
▁transcend	-12614
▁sentiments	-12615
▁manuscripts	-12616
INK	-12617
kay	-12618
▁CE	-12619
▁Eat	-12620
TINGS	-12621
resent	-12622
▁Gandh	-12623
▁Kisan	-12624
▁Surya	-12625
▁liked	-12626
▁plead	-12627
▁popup	-12628
▁casual	-12629
isheries	-12630
ferencing	-12631
▁Everyone	-12632
▁pressing	-12633
▁surgical	-12634
▁transmit	-12635
▁breathing	-12636
▁clearance	-12637
▁Encryption	-12638
▁attributes	-12639
▁hospitality	-12640
▁magnificent	-12641
rot	-12642
ints	-12643
▁Hen	-12644
▁Ran	-12645
▁eco	-12646
heast	-12647
unath	-12648
▁Capt	-12649
▁Near	-12650
▁erad	-12651
▁emigr	-12652
▁fract	-12653
▁prede	-12654
▁sects	-12655
▁skins	-12656
▁Notice	-12657
▁Series	-12658
▁infect	-12659
▁senses	-12660
▁ongoing	-12661
▁painted	-12662
▁expelled	-12663
▁husbands	-12664
GR	-12665
May	-12666
uts	-12667
acts	-12668
atta	-12669
urna	-12670
▁250	-12671
▁Alt	-12672
▁Amit	-12673
▁NIOS	-12674
asaheb	-12675
▁dying	-12676
▁incap	-12677
▁preca	-12678
▁sperm	-12679
▁Sports	-12680
▁beware	-12681
▁judged	-12682
▁revive	-12683
▁Myanmar	-12684
▁heavily	-12685
▁surplus	-12686
▁canceled	-12687
▁commemor	-12688
▁inclined	-12689
▁producer	-12690
▁impressed	-12691
▁nutrition	-12692
▁laboratories	-12693
ORT	-12694
bat	-12695
nat	-12696
aunt	-12697
▁Fav	-12698
▁disl	-12699
inence	-12700
▁meets	-12701
▁Compet	-12702
▁ceiling	-12703
▁grammar	-12704
▁graduate	-12705
▁journals	-12706
▁sleeping	-12707
▁Character	-12708
▁contracts	-12709
▁utilization	-12710
aba	-12711
▁AR	-12712
▁OS	-12713
▁ow	-12714
riel	-12715
▁Imm	-12716
▁RTI	-12717
▁Rub	-12718
llers	-12719
▁Navy	-12720
▁mask	-12721
pensed	-12722
ployed	-12723
▁guest	-12724
▁locked	-12725
▁trends	-12726
▁Database	-12727
▁isolated	-12728
▁considers	-12729
▁respected	-12730
▁responded	-12731
▁Programmes	-12732
▁capacities	-12733
▁telecommun	-12734
▁vulnerable	-12735
▁comfortable	-12736
▁recompensed	-12737
▁reservation	-12738
PR	-12739
iro	-12740
adha	-12741
▁18,	-12742
▁18.	-12743
▁Fax	-12744
▁Alex	-12745
▁lean	-12746
▁unav	-12747
▁Range	-12748
▁boast	-12749
▁champ	-12750
▁liver	-12751
▁Reload	-12752
▁Yamuna	-12753
▁astron	-12754
▁portra	-12755
▁viable	-12756
▁Folders	-12757
▁Printer	-12758
▁conserv	-12759
▁fasting	-12760
▁strikes	-12761
▁Atlantic	-12762
▁equipped	-12763
▁obstruct	-12764
▁taxation	-12765
▁affecting	-12766
▁disappear	-12767
▁practised	-12768
fortunately	-12769
▁committees	-12770
▁laboratory	-12771
02	-12772
vag	-12773
oria	-12774
rass	-12775
adhan	-12776
▁Labor	-12777
▁exalt	-12778
▁harsh	-12779
▁lover	-12780
▁quote	-12781
▁Result	-12782
▁Volume	-12783
▁ninety	-12784
▁obeyed	-12785
▁Michael	-12786
▁assault	-12787
▁bellies	-12788
▁kitchen	-12789
▁Philosop	-12790
▁alphabet	-12791
▁Signature	-12792
▁labourers	-12793
▁Entreprene	-12794
▁neighbours	-12795
▁advancement	-12796
▁unfortunate	-12797
%)	-12798
_0	-12799
alim	-12800
emon	-12801
itic	-12802
▁Fif	-12803
▁tie	-12804
opard	-12805
payee	-12806
ringe	-12807
▁Scan	-12808
utable	-12809
▁AWARD	-12810
▁Salat	-12811
▁brack	-12812
▁tyran	-12813
fearing	-12814
▁1-4-19	-12815
▁beasts	-12816
▁marvel	-12817
▁gallery	-12818
▁conclude	-12819
▁prejudice	-12820
Wh	-12821
uds	-12822
▁09	-12823
oded	-12824
▁24,	-12825
▁Nuh	-12826
▁SEL	-12827
▁hem	-12828
▁rum	-12829
ardly	-12830
▁Arts	-12831
▁gang	-12832
▁Grant	-12833
▁Sound	-12834
▁bench	-12835
▁Bhopal	-12836
▁robust	-12837
▁tracks	-12838
▁Extract	-12839
▁Opening	-12840
▁confront	-12841
▁Currently	-12842
▁compliment	-12843
▁cultivated	-12844
▁reflection	-12845
▁Everlasting	-12846
▁classification	-12847
▁Bat	-12848
▁Jat	-12849
▁ours	-12850
▁turm	-12851
▁conse	-12852
▁Belarus	-12853
▁availed	-12854
▁tragedy	-12855
erculosis	-12856
▁Assamese	-12857
▁disposed	-12858
▁touching	-12859
▁Addressing	-12860
▁Hindustani	-12861
▁denominator	-12862
▁legislature	-12863
GN	-12864
▁Mi	-12865
adra	-12866
ayat	-12867
wait	-12868
▁17.	-12869
▁28,	-12870
▁Jal	-12871
words	-12872
▁fart	-12873
drawal	-12874
▁stiff	-12875
▁Wealth	-12876
▁Gandhar	-12877
▁density	-12878
▁sanctum	-12879
▁superst	-12880
▁Brahmins	-12881
▁Rajendra	-12882
▁Starting	-12883
cellaneous	-12884
▁Telephone	-12885
▁compelled	-12886
▁desirable	-12887
▁livestock	-12888
▁passenger	-12889
▁Dictionary	-12890
▁widespread	-12891
▁notwithstanding	-12892
26	-12893
haz	-12894
▁53	-12895
▁VA	-12896
▁Hom	-12897
▁bot	-12898
▁100%	-12899
▁1989	-12900
▁Dise	-12901
▁asks	-12902
▁lend	-12903
▁Areas	-12904
▁Ghosh	-12905
▁Padma	-12906
▁Still	-12907
▁edges	-12908
▁laden	-12909
▁spots	-12910
▁unpre	-12911
▁2016).	-12912
▁Letter	-12913
▁devour	-12914
▁floral	-12915
▁ticket	-12916
▁centers	-12917
▁consume	-12918
▁Egyptian	-12919
▁Southern	-12920
▁ornament	-12921
▁Important	-12922
▁Socialist	-12923
▁Vaishnava	-12924
▁exemption	-12925
▁diplomatic	-12926
▁structural	-12927
▁everlasting	-12928
Tax	-12929
mael	-12930
▁Sus	-12931
▁Dial	-12932
▁Bhatt	-12933
▁Using	-12934
▁verte	-12935
▁scenes	-12936
itations	-12937
ndranath	-12938
▁Restore	-12939
▁filling	-12940
▁Vajpayee	-12941
▁forgives	-12942
▁Champions	-12943
▁emergence	-12944
▁Panchayats	-12945
▁authorized	-12946
▁linguistic	-12947
▁Convocation	-12948
FIC	-12949
▁-%	-12950
berg	-12951
etch	-12952
▁gal	-12953
▁auto	-12954
▁Early	-12955
▁Style	-12956
▁icons	-12957
▁phrase	-12958
▁inadequ	-12959
▁issuing	-12960
▁Himalaya	-12961
▁applying	-12962
▁username	-12963
▁Premchand	-12964
▁furniture	-12965
▁hostility	-12966
▁variations	-12967
▁recruitment	-12968
▁Unfortunately	-12969
ASHT	-12970
idas	-12971
▁21,	-12972
▁Nal	-12973
▁fame	-12974
▁hier	-12975
▁sync	-12976
others	-12977
rapped	-12978
▁Rober	-12979
▁eaten	-12980
▁naked	-12981
▁urine	-12982
▁reserv	-12983
▁solved	-12984
cedented	-12985
▁Between	-12986
▁cluster	-12987
▁dioxide	-12988
▁expects	-12989
▁permits	-12990
▁winners	-12991
▁Bookmark	-12992
▁Sarojini	-12993
▁professor	-12994
▁correspondence	-12995
eg	-12996
okh	-12997
▁95	-12998
▁BE	-12999
alih	-13000
rics	-13001
uven	-13002
▁Wal	-13003
▁cyl	-13004
▁jun	-13005
ECTED	-13006
avati	-13007
▁Forb	-13008
▁Step	-13009
▁Wood	-13010
▁lift	-13011
▁yoga	-13012
ailing	-13013
▁autoc	-13014
▁shore	-13015
▁Others	-13016
▁binary	-13017
▁portal	-13018
▁valued	-13019
missible	-13020
▁counted	-13021
▁warming	-13022
▁Pollution	-13023
▁adjustment	-13024
▁measurement	-13025
▁expectations	-13026
▁reconstruction	-13027
ART	-13028
IDS	-13029
apu	-13030
▁Ga	-13031
▁Vr	-13032
▁ol	-13033
arts	-13034
yers	-13035
indra	-13036
▁Mass	-13037
▁NGOs	-13038
▁Pain	-13039
▁Prak	-13040
▁bowl	-13041
ifully	-13042
▁dairy	-13043
▁embod	-13044
▁spare	-13045
▁Ganesh	-13046
▁Jinnah	-13047
▁finest	-13048
▁rhythm	-13049
▁viewed	-13050
▁Arabian	-13051
▁textile	-13052
▁detected	-13053
▁landlord	-13054
▁unbelief	-13055
▁encrypted	-13056
▁supervision	-13057
▁irrespective	-13058
45	-13059
Had	-13060
ahi	-13061
arna	-13062
aryn	-13063
keys	-13064
lves	-13065
▁Tub	-13066
lings	-13067
▁barg	-13068
▁inex	-13069
inates	-13070
▁acres	-13071
▁aston	-13072
▁canal	-13073
▁embed	-13074
▁toile	-13075
▁walks	-13076
▁Answer	-13077
▁Poresh	-13078
▁deceit	-13079
▁voices	-13080
National	-13081
▁Channel	-13082
▁emperor	-13083
▁pressed	-13084
▁borrowed	-13085
▁preceded	-13086
▁Registrar	-13087
▁oppressed	-13088
▁publicity	-13089
▁meditation	-13090
▁implications	-13091
▁manufacturers	-13092
9)	-13093
mm	-13094
adas	-13095
ilst	-13096
▁09.	-13097
▁GOV	-13098
ocity	-13099
▁1976	-13100
▁Ball	-13101
▁Ahmad	-13102
▁grasp	-13103
▁spont	-13104
▁terra	-13105
▁trunk	-13106
▁Intell	-13107
▁hungry	-13108
▁lawyer	-13109
ursement	-13110
▁Lakshmi	-13111
▁airport	-13112
▁expired	-13113
▁varying	-13114
▁reviewed	-13115
▁survival	-13116
▁writable	-13117
▁attempted	-13118
polytheists	-13119
▁challenged	-13120
▁encryption	-13121
▁Educational	-13122
sm	-13123
▁PC	-13124
babu	-13125
pled	-13126
▁Dog	-13127
▁ups	-13128
igate	-13129
▁pars	-13130
▁wasn	-13131
......	-13132
asagar	-13133
ilated	-13134
▁Phase	-13135
▁knees	-13136
entures	-13137
uctions	-13138
▁Origin	-13139
▁camels	-13140
▁intens	-13141
▁kidney	-13142
▁strait	-13143
▁unfair	-13144
ventions	-13145
▁INAUGUR	-13146
▁holders	-13147
▁intends	-13148
▁swallow	-13149
▁Register	-13150
▁assurance	-13151
▁producers	-13152
▁circulation	-13153
BM	-13154
aws	-13155
spe	-13156
▁Il	-13157
Wise	-13158
rons	-13159
▁SID	-13160
▁fol	-13161
▁Pant	-13162
▁Tree	-13163
▁grey	-13164
▁wars	-13165
▁Brows	-13166
▁Units	-13167
casting	-13168
▁Krishn	-13169
▁bureau	-13170
▁indian	-13171
▁Italian	-13172
▁Package	-13173
▁Seminar	-13174
▁hunting	-13175
▁rotation	-13176
▁Bookmarks	-13177
▁relevance	-13178
▁favourable	-13179
▁imperative	-13180
▁limitation	-13181
06	-13182
PCL	-13183
Reg	-13184
▁0,	-13185
▁52	-13186
reth	-13187
roid	-13188
▁Fun	-13189
▁Row	-13190
▁Wis	-13191
▁imb	-13192
acent	-13193
faces	-13194
inees	-13195
▁(2),	-13196
▁Amar	-13197
▁coat	-13198
▁cycl	-13199
▁laud	-13200
▁lump	-13201
lisher	-13202
▁Preet	-13203
▁annoy	-13204
▁veter	-13205
▁votes	-13206
▁Living	-13207
▁Method	-13208
▁Single	-13209
▁Welcome	-13210
▁appeals	-13211
▁discont	-13212
▁hearted	-13213
eneration	-13214
▁Comments	-13215
▁providers	-13216
▁successor	-13217
▁wandering	-13218
▁Withdrawal	-13219
▁successive	-13220
▁Appointment	-13221
▁electronics	-13222
,.	-13223
vii	-13224
brid	-13225
▁nit	-13226
utter	-13227
▁1960	-13228
▁GREE	-13229
▁Pict	-13230
▁gram	-13231
estone	-13232
ivable	-13233
ometry	-13234
▁Given	-13235
▁Recom	-13236
▁Verma	-13237
▁revol	-13238
▁rival	-13239
▁cosmic	-13240
▁define	-13241
▁eighth	-13242
▁reiter	-13243
▁unwill	-13244
fficiency	-13245
▁Absolute	-13246
▁Creation	-13247
▁Highness	-13248
▁advocate	-13249
▁fourteen	-13250
▁refugees	-13251
▁Architect	-13252
▁Operation	-13253
▁passwords	-13254
▁sanctuary	-13255
▁Settlement	-13256
▁surprising	-13257
▁disbelieving	-13258
erk	-13259
▁Du	-13260
oths	-13261
▁Jab	-13262
▁PDF	-13263
erver	-13264
▁1988	-13265
▁fron	-13266
illary	-13267
raisal	-13268
▁Claim	-13269
▁Leban	-13270
▁pitch	-13271
▁tenth	-13272
▁waist	-13273
▁Target	-13274
▁uncons	-13275
▁Sending	-13276
▁onwards	-13277
▁strayed	-13278
▁favoured	-13279
▁incoming	-13280
▁misdeeds	-13281
▁Saraswati	-13282
▁measuring	-13283
▁committing	-13284
▁fabricated	-13285
▁administered	-13286
▁announcement	-13287
▁facilitating	-13288
▁documentation	-13289
")	-13290
opl	-13291
▁SW	-13292
cane	-13293
gian	-13294
▁28.	-13295
▁Niz	-13296
▁Sex	-13297
▁oct	-13298
erson	-13299
iatic	-13300
▁boot	-13301
MORROW	-13302
▁sorry	-13303
▁Guinea	-13304
▁Instru	-13305
▁Prompt	-13306
▁admire	-13307
▁pollut	-13308
▁unhapp	-13309
▁guarded	-13310
▁servers	-13311
▁suicide	-13312
▁Imperial	-13313
▁TOMORROW	-13314
▁conspiracy	-13315
▁pronounced	-13316
04	-13317
iser	-13318
olly	-13319
quer	-13320
▁22,	-13321
▁Sor	-13322
▁Ult	-13323
hered	-13324
range	-13325
▁Drug	-13326
▁Dutt	-13327
▁Grow	-13328
▁Hold	-13329
▁Sale	-13330
▁lone	-13331
▁webs	-13332
▁MSMEs	-13333
▁babies	-13334
▁finish	-13335
▁Ancient	-13336
▁Virtual	-13337
▁chronic	-13338
▁portray	-13339
▁praised	-13340
▁suppose	-13341
▁unusual	-13342
▁watched	-13343
▁Amritsar	-13344
▁interven	-13345
▁strictly	-13346
▁versions	-13347
▁Meghalaya	-13348
▁proclaimed	-13349
▁resurrected	-13350
▁surrendered	-13351
▁constructive	-13352
SH	-13353
URE	-13354
eor	-13355
▁NS	-13356
iban	-13357
▁Bez	-13358
▁Ange	-13359
▁Sent	-13360
Surely	-13361
▁Quick	-13362
▁Spain	-13363
▁Syria	-13364
▁cough	-13365
▁shoes	-13366
▁teams	-13367
▁vocal	-13368
▁Player	-13369
▁eighty	-13370
▁weekly	-13371
jections	-13372
▁Antarct	-13373
▁crooked	-13374
▁oneness	-13375
September	-13376
▁Resident	-13377
▁adversity	-13378
▁ecosystem	-13379
▁electoral	-13380
▁pursuance	-13381
▁grassroots	-13382
▁indicating	-13383
▁condolences	-13384
▁unprecedented	-13385
07	-13386
gic	-13387
jid	-13388
wad	-13389
▁na	-13390
Appe	-13391
case	-13392
outs	-13393
pace	-13394
▁Rul	-13395
print	-13396
▁atom	-13397
▁Break	-13398
▁Deleg	-13399
▁evils	-13400
▁rites	-13401
▁spray	-13402
ilitary	-13403
ipation	-13404
▁Excise	-13405
▁ethnic	-13406
▁herein	-13407
▁Nanalal	-13408
▁constra	-13409
▁discipl	-13410
▁rewards	-13411
▁Keyboard	-13412
▁kilogram	-13413
▁segments	-13414
▁agitation	-13415
▁configure	-13416
▁identical	-13417
▁recipient	-13418
▁aggression	-13419
▁priorities	-13420
▁foundations	-13421
▁practically	-13422
▁disabilities	-13423
▁satisfactory	-13424
▁79	-13425
▁IV	-13426
▁MD	-13427
▁26,	-13428
▁ven	-13429
arman	-13430
break	-13431
class	-13432
odhya	-13433
▁Anti	-13434
▁Fast	-13435
▁tent	-13436
▁Price	-13437
▁avert	-13438
▁penit	-13439
▁County	-13440
▁actors	-13441
▁revolt	-13442
▁safely	-13443
▁wholes	-13444
▁signals	-13445
▁deducted	-13446
▁dreadful	-13447
▁turnover	-13448
▁secretary	-13449
▁configured	-13450
vy	-13451
IAL	-13452
fix	-13453
occ	-13454
ocus	-13455
▁ANN	-13456
▁Mel	-13457
▁Rom	-13458
▁spo	-13459
arium	-13460
▁Atal	-13461
▁Case	-13462
▁Sunday	-13463
▁sevent	-13464
▁styles	-13465
▁tenure	-13466
umerable	-13467
▁Century	-13468
▁Collect	-13469
▁Customs	-13470
▁battery	-13471
▁recalled	-13472
▁Democracy	-13473
▁Generally	-13474
▁Meanwhile	-13475
▁acquiring	-13476
▁adornment	-13477
▁adventure	-13478
▁instances	-13479
▁sentiment	-13480
▁attainment	-13481
▁distressed	-13482
▁legitimate	-13483
▁economically	-13484
▁neighbourhood	-13485
po	-13486
dar	-13487
bert	-13488
leys	-13489
when	-13490
▁27.	-13491
▁odd	-13492
▁tin	-13493
aksha	-13494
ropol	-13495
▁Gaza	-13496
▁hate	-13497
▁knot	-13498
▁veil	-13499
ussion	-13500
▁Joshi	-13501
▁Manik	-13502
▁curve	-13503
▁enfor	-13504
▁nemat	-13505
atching	-13506
ighters	-13507
▁faults	-13508
▁pagans	-13509
alendars	-13510
▁Profile	-13511
▁deniers	-13512
▁storing	-13513
▁whereby	-13514
▁Citizens	-13515
▁assisted	-13516
▁flexible	-13517
▁prestige	-13518
▁disturbed	-13519
▁inherited	-13520
▁similarly	-13521
▁workshops	-13522
▁Sufficient	-13523
▁accomplish	-13524
DS	-13525
▁""	-13526
▁VI	-13527
gone	-13528
▁19,	-13529
▁Gul	-13530
opter	-13531
▁rehe	-13532
▁slot	-13533
ASHTRA	-13534
umbent	-13535
▁artic	-13536
▁fibre	-13537
▁heirs	-13538
▁paste	-13539
▁larvae	-13540
▁mystic	-13541
▁sample	-13542
▁Masters	-13543
▁Product	-13544
▁couches	-13545
▁generic	-13546
▁greeted	-13547
▁seventh	-13548
▁Physical	-13549
▁dismissed	-13550
▁amalgamation	-13551
▁improvements	-13552
75	-13553
Tr	-13554
Res	-13555
▁68	-13556
good	-13557
▁20.	-13558
rator	-13559
▁Rand	-13560
▁epid	-13561
▁garb	-13562
▁Items	-13563
▁array	-13564
▁cable	-13565
▁inequ	-13566
▁roles	-13567
▁2015).	-13568
▁Ravana	-13569
▁Simple	-13570
▁breeds	-13571
▁fiscal	-13572
▁misery	-13573
▁repaid	-13574
▁Reading	-13575
▁Respons	-13576
▁irregular	-13577
▁perfectly	-13578
▁rejection	-13579
▁dissolution	-13580
▁upgradation	-13581
NS	-13582
-200	-13583
ATED	-13584
cery	-13585
▁kms	-13586
▁tip	-13587
ursor	-13588
▁Acqu	-13589
▁COMM	-13590
before	-13591
rating	-13592
terior	-13593
▁Devan	-13594
▁Tools	-13595
▁Varma	-13596
▁desce	-13597
▁sever	-13598
▁sulph	-13599
riminal	-13600
▁Celebr	-13601
▁Module	-13602
▁Python	-13603
▁losing	-13604
▁remedy	-13605
▁riding	-13606
▁remarks	-13607
▁shining	-13608
▁somehow	-13609
▁Terminal	-13610
▁bookmark	-13611
▁destined	-13612
▁militant	-13613
▁socialism	-13614
▁apparently	-13615
▁influences	-13616
▁victorious	-13617
▁compositions	-13618
▁interference	-13619
▁transgression	-13620
TIC	-13621
▁PS	-13622
Come	-13623
▁26.	-13624
▁Nil	-13625
▁yes	-13626
Satan	-13627
cular	-13628
ertil	-13629
▁Deal	-13630
▁Sens	-13631
▁amen	-13632
▁beds	-13633
▁begg	-13634
▁heap	-13635
▁prox	-13636
▁recl	-13637
rolled	-13638
▁BIHAR	-13639
▁dried	-13640
▁enric	-13641
▁monop	-13642
▁panch	-13643
▁Altern	-13644
▁Perman	-13645
▁Tender	-13646
▁Verses	-13647
▁Jubilee	-13648
▁denying	-13649
▁embrace	-13650
▁ethical	-13651
▁Learning	-13652
▁greeting	-13653
▁listened	-13654
▁maternal	-13655
▁momentum	-13656
▁godfearing	-13657
▁enlightened	-13658
▁pharmaceutical	-13659
bi	-13660
dh	-13661
ORE	-13662
UNT	-13663
▁41	-13664
▁58	-13665
▁Es	-13666
▁GU	-13667
aser	-13668
bhar	-13669
igue	-13670
▁Fit	-13671
▁Neg	-13672
▁ink	-13673
▁1994	-13674
▁Jack	-13675
▁Magn	-13676
▁anch	-13677
rified	-13678
▁Ananda	-13679
▁ceased	-13680
▁Machine	-13681
▁Prakrit	-13682
▁ascetic	-13683
▁carrier	-13684
▁scatter	-13685
▁tension	-13686
▁globally	-13687
▁Different	-13688
▁computation	-13689
▁collectively	-13690
PN	-13691
▁74	-13692
cede	-13693
▁700	-13694
▁nay	-13695
odder	-13696
orage	-13697
▁Cash	-13698
▁Milk	-13699
▁Pray	-13700
▁Repe	-13701
▁pond	-13702
▁tune	-13703
eneral	-13704
iketan	-13705
▁Korea	-13706
▁Theme	-13707
▁illum	-13708
▁Boards	-13709
▁Brazil	-13710
▁Martin	-13711
▁campus	-13712
▁cinema	-13713
▁pulses	-13714
▁seller	-13715
▁verbal	-13716
▁mandate	-13717
▁smoking	-13718
penditure	-13719
▁Contents	-13720
▁municipal	-13721
▁Translation	-13722
▁disappeared	-13723
▁exceptional	-13724
DC	-13725
IND	-13726
asha	-13727
ayya	-13728
▁08.	-13729
▁Heb	-13730
▁ail	-13731
areth	-13732
stein	-13733
▁tale	-13734
leness	-13735
rition	-13736
▁Goods	-13737
▁embar	-13738
▁lakes	-13739
▁shalt	-13740
▁shoot	-13741
▁sword	-13742
▁GOVERN	-13743
▁Prayer	-13744
▁asleep	-13745
▁contra	-13746
▁crimes	-13747
▁pearls	-13748
▁storey	-13749
▁Archive	-13750
▁Finland	-13751
▁dialect	-13752
▁threats	-13753
▁infected	-13754
▁opinions	-13755
▁Provinces	-13756
▁copyright	-13757
▁occurring	-13758
▁petroleum	-13759
▁Magistrate	-13760
▁acquainted	-13761
▁instituted	-13762
▁Anniversary	-13763
hot	-13764
city	-13765
udal	-13766
posed	-13767
alinga	-13768
▁Iblis	-13769
▁brass	-13770
▁lymph	-13771
▁thumb	-13772
▁treas	-13773
quisite	-13774
▁Backup	-13775
▁Narmad	-13776
▁foster	-13777
▁progen	-13778
▁uphold	-13779
▁varies	-13780
▁compens	-13781
▁dropped	-13782
▁sorcery	-13783
▁annually	-13784
▁founding	-13785
▁monument	-13786
▁paradise	-13787
▁pleasing	-13788
▁swelling	-13789
▁prospects	-13790
▁vegetable	-13791
▁administer	-13792
▁curriculum	-13793
▁kilometres	-13794
▁supporters	-13795
▁communicate	-13796
▁credentials	-13797
▁differently	-13798
▁accountability	-13799
OG	-13800
AIN	-13801
iat	-13802
yot	-13803
File	-13804
▁Opp	-13805
overe	-13806
▁Role	-13807
▁hymn	-13808
▁Exper	-13809
▁pilot	-13810
▁uncon	-13811
▁Recogn	-13812
▁dishon	-13813
▁humour	-13814
▁lovely	-13815
▁rooted	-13816
▁rubber	-13817
▁spices	-13818
▁excuses	-13819
▁handled	-13820
isticated	-13821
▁formally	-13822
▁peasants	-13823
▁peripher	-13824
▁publicly	-13825
▁Indonesia	-13826
▁incorrect	-13827
▁Prevention	-13828
▁attributed	-13829
▁encompasses	-13830
▁demonstrated	-13831
FA	-13832
EAR	-13833
mah	-13834
ups	-13835
▁Bod	-13836
▁Jad	-13837
▁Teh	-13838
▁vow	-13839
Islam	-13840
ariah	-13841
▁Days	-13842
▁apex	-13843
arshan	-13844
opathy	-13845
▁Naval	-13846
▁prize	-13847
▁rebel	-13848
▁sorce	-13849
▁Bhakti	-13850
▁Travel	-13851
▁checks	-13852
▁cooked	-13853
▁instal	-13854
▁notify	-13855
▁ponder	-13856
▁rating	-13857
▁remitt	-13858
▁selves	-13859
▁Reforms	-13860
▁Shastri	-13861
▁premier	-13862
▁spouses	-13863
▁tarried	-13864
▁touches	-13865
▁prevents	-13866
▁allotment	-13867
▁detection	-13868
▁eliminate	-13869
▁innovators	-13870
▁convocation	-13871
▁illustrious	-13872
▁politicians	-13873
FR	-13874
GE	-13875
ype	-13876
Make	-13877
abul	-13878
untu	-13879
▁07.	-13880
▁Ark	-13881
▁Gib	-13882
▁muc	-13883
▁Kind	-13884
▁club	-13885
▁disd	-13886
▁nick	-13887
▁rage	-13888
▁sums	-13889
istani	-13890
▁Purch	-13891
▁boxes	-13892
▁fatal	-13893
▁firms	-13894
▁prone	-13895
▁tower	-13896
▁Serial	-13897
▁puppet	-13898
▁Priority	-13899
▁doctrine	-13900
▁Employees	-13901
▁GREETINGS	-13902
▁concealed	-13903
▁disclosed	-13904
▁indication	-13905
▁termination	-13906
▁unconscious	-13907
▁remuneration	-13908
▁manifestation	-13909
22	-13910
arb	-13911
▁120	-13912
▁pel	-13913
▁sem	-13914
▁spl	-13915
.2012	-13916
arama	-13917
illic	-13918
▁Info	-13919
▁Priy	-13920
▁echo	-13921
▁trip	-13922
ameter	-13923
▁Sangh	-13924
▁https	-13925
▁parad	-13926
▁vivid	-13927
▁zones	-13928
▁Brahmo	-13929
▁Double	-13930
▁Palace	-13931
▁dealer	-13932
▁devout	-13933
chandise	-13934
▁Federal	-13935
▁depicts	-13936
▁peasant	-13937
▁restart	-13938
▁quarters	-13939
▁Attachment	-13940
▁Profession	-13941
▁mathematics	-13942
▁procurement	-13943
sl	-13944
OLD	-13945
TIT	-13946
cha	-13947
pre	-13948
rup	-13949
▁Dy	-13950
▁wit	-13951
Enter	-13952
etime	-13953
▁COND	-13954
▁acre	-13955
itious	-13956
▁2000,	-13957
▁Study	-13958
▁exult	-13959
▁Taurat	-13960
▁drinks	-13961
▁metaph	-13962
▁suspic	-13963
▁Missing	-13964
▁Sankara	-13965
▁seizure	-13966
▁wedding	-13967
▁Consolid	-13968
▁Vaishnav	-13969
▁dissemin	-13970
▁embedded	-13971
▁overtook	-13972
▁valuation	-13973
▁physically	-13974
▁sacrifices	-13975
▁celebration	-13976
▁realization	-13977
▁traditionally	-13978
▁multiplication	-13979
ulc	-13980
via	-13981
inee	-13982
kara	-13983
opia	-13984
pire	-13985
rels	-13986
▁Bag	-13987
▁Cyr	-13988
▁Map	-13989
▁nas	-13990
based	-13991
urday	-13992
▁Mont	-13993
▁cock	-13994
▁Eleph	-13995
▁indis	-13996
▁loyal	-13997
▁Wisdom	-13998
▁preach	-13999
▁pulled	-14000
▁Balance	-14001
▁freight	-14002
▁impetus	-14003
▁mosques	-14004
▁excluded	-14005
▁operated	-14006
▁Wherefore	-14007
▁socialist	-14008
▁Subversion	-14009
▁underground	-14010
▁utilisation	-14011
▁contributing	-14012
bek	-14013
▁5%	-14014
▁19.	-14015
▁Dak	-14016
▁Fall	-14017
▁Kish	-14018
▁Kumb	-14019
▁Team	-14020
▁prey	-14021
▁tens	-14022
▁wary	-14023
▁Burma	-14024
▁Panel	-14025
▁Pipes	-14026
▁catal	-14027
▁cheer	-14028
lements	-14029
▁Unless	-14030
▁behave	-14031
▁denies	-14032
▁ingred	-14033
▁relent	-14034
▁spouse	-14035
▁Ayodhya	-14036
▁Worship	-14037
▁clearing	-14038
▁compiled	-14039
▁divinity	-14040
▁immunity	-14041
▁insisted	-14042
▁sovereign	-14043
▁attachments	-14044
Bs	-14045
OI	-14046
ogl	-14047
she	-14048
ulu	-14049
upa	-14050
abar	-14051
aine	-14052
▁Pap	-14053
▁SEC	-14054
▁ate	-14055
Taste	-14056
ourge	-14057
uster	-14058
▁slew	-14059
▁summ	-14060
▁wool	-14061
atible	-14062
▁Tibet	-14063
▁gases	-14064
▁Gospel	-14065
▁devoid	-14066
▁justly	-14067
▁layers	-14068
▁lifest	-14069
▁lovers	-14070
▁mandap	-14071
▁Sustain	-14072
▁amazing	-14073
▁holiday	-14074
▁artisans	-14075
▁contempl	-14076
▁imagined	-14077
▁investor	-14078
▁maritime	-14079
▁performs	-14080
▁renowned	-14081
▁launching	-14082
▁restraint	-14083
▁Electricity	-14084
▁multilateral	-14085
03	-14086
▁("	-14087
azed	-14088
ipse	-14089
oric	-14090
umni	-14091
▁DAC	-14092
uture	-14093
▁Diff	-14094
▁Half	-14095
▁prol	-14096
▁Meher	-14097
▁Salih	-14098
▁arose	-14099
▁Sovere	-14100
▁Undert	-14101
▁titled	-14102
▁youths	-14103
▁decides	-14104
▁priests	-14105
▁Councils	-14106
▁graphics	-14107
▁pursuing	-14108
▁ridicule	-14109
▁indecency	-14110
▁oppression	-14111
▁pesticides	-14112
▁highlighted	-14113
▁Intelligence	-14114
}%	-14115
bhai	-14116
illy	-14117
pora	-14118
▁Gab	-14119
actor	-14120
inous	-14121
▁1987	-14122
▁aunt	-14123
▁bron	-14124
▁guru	-14125
necess	-14126
▁Smart	-14127
▁compe	-14128
▁flash	-14129
Appeals	-14130
tically	-14131
▁Border	-14132
▁aright	-14133
▁buried	-14134
▁fisher	-14135
▁incarn	-14136
▁strain	-14137
▁whilst	-14138
▁clients	-14139
▁constru	-14140
▁devised	-14141
▁masters	-14142
▁supplic	-14143
▁warfare	-14144
▁inviting	-14145
▁appearing	-14146
▁cancelled	-14147
▁magicians	-14148
▁calculation	-14149
▁spontaneous	-14150
zes	-14151
▁".	-14152
▁03.	-14153
isers	-14154
▁Fair	-14155
▁Town	-14156
▁dual	-14157
▁sear	-14158
ergies	-14159
iating	-14160
orical	-14161
▁Cisco	-14162
▁Model	-14163
▁enlar	-14164
▁shake	-14165
▁steam	-14166
limited	-14167
parable	-14168
iability	-14169
▁Minutes	-14170
▁SELECTED	-14171
▁luminous	-14172
▁websites	-14173
▁Gandharva	-14174
▁aesthetic	-14175
▁magnitude	-14176
▁selecting	-14177
▁violation	-14178
▁procession	-14179
▁Expenditure	-14180
▁humiliation	-14181
▁comparatively	-14182
/-	-14183
AV	-14184
ITI	-14185
hee	-14186
nar	-14187
rao	-14188
▁86	-14189
eros	-14190
▁ATAL	-14191
▁Gulf	-14192
▁Prin	-14193
▁Talk	-14194
raints	-14195
unning	-14196
▁Browse	-14197
▁Fellow	-14198
▁essays	-14199
▁mocked	-14200
▁poured	-14201
▁scarce	-14202
▁chooses	-14203
▁posting	-14204
▁speaker	-14205
▁Students	-14206
▁develops	-14207
▁hectares	-14208
▁rightful	-14209
▁aforetime	-14210
▁alignment	-14211
▁intervals	-14212
▁intestine	-14213
▁perceived	-14214
▁creativity	-14215
▁ordinarily	-14216
▁patriotism	-14217
▁Traditional	-14218
▁challenging	-14219
▁convenience	-14220
Ar	-14221
oea	-14222
rea	-14223
neys	-14224
▁25.	-14225
▁31,	-14226
▁BJP	-14227
▁Opt	-14228
▁RES	-14229
▁iii	-14230
▁sen	-14231
adeva	-14232
heres	-14233
ullah	-14234
▁Kesh	-14235
▁Less	-14236
▁Ragh	-14237
▁Thak	-14238
▁angu	-14239
▁cruc	-14240
▁hint	-14241
▁turb	-14242
headed	-14243
rishna	-14244
▁Khadi	-14245
▁Plate	-14246
▁Round	-14247
▁brace	-14248
▁delta	-14249
▁expel	-14250
▁impug	-14251
▁Parent	-14252
▁burned	-14253
▁panels	-14254
▁wicket	-14255
ithmetic	-14256
▁Charles	-14257
▁solving	-14258
▁decisive	-14259
▁depicted	-14260
▁portions	-14261
▁inscribed	-14262
▁variation	-14263
▁willingly	-14264
▁equipments	-14265
▁periodical	-14266
▁similitude	-14267
▁concessions	-14268
▁civilisation	-14269
▁deliberately	-14270
▁verification	-14271
ui	-14272
ATH	-14273
▁77	-14274
ends	-14275
▁SER	-14276
apsed	-14277
▁Gamb	-14278
▁Mald	-14279
▁Song	-14280
▁Undo	-14281
▁para	-14282
hatkar	-14283
▁2007,	-14284
▁Zalim	-14285
▁assim	-14286
▁essay	-14287
▁Manage	-14288
▁comply	-14289
▁harder	-14290
▁pocket	-14291
▁Guarant	-14292
▁Receipt	-14293
▁Refresh	-14294
▁microsc	-14295
itiveness	-14296
▁extravag	-14297
▁floating	-14298
▁embarrass	-14299
▁landscape	-14300
▁threshold	-14301
▁Provincial	-14302
▁Upanishads	-14303
▁depression	-14304
▁repeatedly	-14305
▁consecutive	-14306
▁observations	-14307
di	-14308
Gov	-14309
▁Qa	-14310
nage	-14311
wala	-14312
worm	-14313
▁Din	-14314
▁Ill	-14315
▁bee	-14316
akkah	-14317
▁AIDS	-14318
▁Coal	-14319
▁Prob	-14320
▁Ramm	-14321
▁Shik	-14322
▁cars	-14323
▁unin	-14324
Indian	-14325
wahati	-14326
▁bunch	-14327
▁forum	-14328
ulative	-14329
zerland	-14330
▁Compos	-14331
▁Groups	-14332
▁assure	-14333
▁hiding	-14334
▁myster	-14335
▁phones	-14336
▁priest	-14337
▁revert	-14338
▁vagina	-14339
▁wander	-14340
▁Prakash	-14341
▁fearful	-14342
▁horizon	-14343
igibility	-14344
▁Criminal	-14345
▁lighting	-14346
▁Protector	-14347
▁borrowing	-14348
▁resignation	-14349
▁appointments	-14350
▁modifications	-14351
21	-14352
Te	-14353
ASS	-14354
rey	-14355
▁73	-14356
ayam	-14357
lims	-14358
neum	-14359
oven	-14360
ulla	-14361
▁01.	-14362
▁Bol	-14363
▁Kur	-14364
▁Sak	-14365
▁pip	-14366
ashes	-14367
▁Sure	-14368
▁Maryam	-14369
▁revers	-14370
▁superf	-14371
▁tackle	-14372
liminary	-14373
▁Content	-14374
▁Messiah	-14375
▁Zalimun	-14376
▁confron	-14377
▁editing	-14378
▁mastery	-14379
▁poultry	-14380
▁screens	-14381
▁Checking	-14382
▁Complete	-14383
▁emission	-14384
▁treacher	-14385
▁employers	-14386
▁mentality	-14387
▁miserable	-14388
▁prolonged	-14389
▁Satyagraha	-14390
▁chromosomes	-14391
CR	-14392
Pre	-14393
▁57	-14394
miki	-14395
luent	-14396
▁plun	-14397
uclear	-14398
▁2001,	-14399
▁Farid	-14400
▁Lower	-14401
▁Split	-14402
▁draws	-14403
▁hydro	-14404
▁tough	-14405
▁Daniel	-14406
▁Nagpur	-14407
▁Option	-14408
▁shapes	-14409
▁Multiple	-14410
▁Teachers	-14411
▁consumed	-14412
ordination	-14413
▁Bharatiya	-14414
▁enlighten	-14415
▁exclusion	-14416
▁Jagannatha	-14417
▁Resolution	-14418
▁plantation	-14419
▁governmental	-14420
.]	-14421
2}	-14422
▁03	-14423
▁Sr	-14424
AYEE	-14425
pher	-14426
uits	-14427
▁Dip	-14428
▁dub	-14429
ocate	-14430
▁bags	-14431
▁bite	-14432
▁nigg	-14433
▁slog	-14434
odhpur	-14435
▁Speed	-14436
▁Vrind	-14437
▁ample	-14438
▁monks	-14439
▁penal	-14440
whether	-14441
▁hazard	-14442
▁superv	-14443
ructural	-14444
▁dislike	-14445
▁doubled	-14446
▁readily	-14447
ifference	-14448
▁dividing	-14449
▁magician	-14450
▁overlook	-14451
▁Assessment	-14452
▁specialized	-14453
▁occasionally	-14454
▁demonstration	-14455
▁TB	-14456
aval	-14457
iana	-14458
▁05.	-14459
▁Cry	-14460
▁HIS	-14461
▁Ras	-14462
▁UTs	-14463
▁rib	-14464
March	-14465
▁VAJP	-14466
mother	-14467
▁snakes	-14468
▁Records	-14469
▁Setting	-14470
▁VAJPAYEE	-14471
▁feedback	-14472
▁shipping	-14473
▁Sanctuary	-14474
▁Universal	-14475
▁Presidency	-14476
▁organizing	-14477
▁merchandise	-14478
ns	-14479
cow	-14480
ugg	-14481
▁AB	-14482
▁Ess	-14483
arter	-14484
astro	-14485
izard	-14486
▁Cant	-14487
▁Saha	-14488
▁gamb	-14489
▁kins	-14490
abhuti	-14491
amount	-14492
insula	-14493
recogn	-14494
▁Griev	-14495
▁Iraqi	-14496
▁meter	-14497
▁Diwali	-14498
▁Friday	-14499
▁evolve	-14500
▁pushed	-14501
ertained	-14502
▁submiss	-14503
▁Guwahati	-14504
▁instinct	-14505
▁arrogance	-14506
▁offerings	-14507
▁projected	-14508
▁displaying	-14509
▁elementary	-14510
▁Entrepreneur	-14511
▁dissemination	-14512
AF	-14513
GC	-14514
FER	-14515
burg	-14516
folk	-14517
opes	-14518
▁hal	-14519
giene	-14520
▁Pill	-14521
August	-14522
ometer	-14523
▁Blood	-14524
▁Mathe	-14525
▁Relie	-14526
▁brick	-14527
▁saith	-14528
▁AWARDS	-14529
▁Animal	-14530
▁Korean	-14531
▁Robert	-14532
▁Safety	-14533
▁basket	-14534
▁fierce	-14535
▁mantra	-14536
▁racial	-14537
▁Purusha	-14538
▁Regular	-14539
▁circles	-14540
▁mindful	-14541
▁washing	-14542
▁whisper	-14543
▁SPEECHES	-14544
▁ambitious	-14545
▁exploited	-14546
▁fashioned	-14547
▁regulated	-14548
PRODUCTNAME	-14549
▁conjecture	-14550
▁fertilizer	-14551
▁exploration	-14552
▁Championship	-14553
▁congratulations	-14554
CII	-14555
EAN	-14556
iece	-14557
seud	-14558
umar	-14559
▁10%	-14560
▁Ple	-14561
▁sik	-14562
▁une	-14563
buntu	-14564
▁Iron	-14565
▁Sast	-14566
▁Snow	-14567
▁Tata	-14568
▁hook	-14569
▁mant	-14570
▁tabs	-14571
istent	-14572
▁2015.	-14573
▁Skill	-14574
▁horiz	-14575
General	-14576
▁Hebrew	-14577
▁Retrie	-14578
▁Supply	-14579
▁invari	-14580
▁exagger	-14581
▁guideth	-14582
▁legends	-14583
▁revenge	-14584
▁Recently	-14585
▁operator	-14586
▁pilgrims	-14587
▁validity	-14588
▁dominated	-14589
▁requisite	-14590
▁propaganda	-14591
▁transplant	-14592
▁horticulture	-14593
igm	-14594
olu	-14595
ESCO	-14596
appa	-14597
bone	-14598
esis	-14599
▁(7)	-14600
▁Mil	-14601
▁ved	-14602
ensed	-14603
orney	-14604
ostic	-14605
▁Gods	-14606
▁Wing	-14607
▁budd	-14608
▁ensh	-14609
▁thri	-14610
icking	-14611
▁Above	-14612
▁Watch	-14613
▁coinc	-14614
▁feeds	-14615
▁Ashram	-14616
▁Harish	-14617
▁Portal	-14618
▁analys	-14619
▁occupy	-14620
▁solely	-14621
▁cleared	-14622
▁restaur	-14623
▁Guidance	-14624
▁illusion	-14625
▁migrated	-14626
▁Kolhatkar	-14627
▁completing	-14628
▁emphasized	-14629
▁counterpart	-14630
oi	-14631
nis	-14632
▁29,	-14633
▁FIR	-14634
▁Hud	-14635
▁NHS	-14636
▁cub	-14637
rolog	-14638
▁Much	-14639
▁feas	-14640
▁jeal	-14641
▁scal	-14642
▁thir	-14643
▁Heavy	-14644
▁Hills	-14645
▁codes	-14646
▁dozen	-14647
▁flora	-14648
▁Demand	-14649
▁assent	-14650
▁Complex	-14651
▁Ishmael	-14652
▁Pradhan	-14653
▁Vallabh	-14654
▁elderly	-14655
▁escaped	-14656
▁spirits	-14657
▁Printing	-14658
▁likewise	-14659
▁textiles	-14660
obiography	-14661
▁Thereupon	-14662
▁sincerely	-14663
▁translate	-14664
▁Devanagari	-14665
▁conscience	-14666
▁minorities	-14667
▁cleanliness	-14668
▁unemployment	-14669
LD	-14670
Sw	-14671
Now	-14672
Par	-14673
ahu	-14674
cot	-14675
uan	-14676
▁FL	-14677
▁dos	-14678
erald	-14679
▁1971	-14680
▁Grad	-14681
▁Sadd	-14682
▁deem	-14683
▁verd	-14684
▁Croat	-14685
▁Kabul	-14686
▁Saheb	-14687
▁overr	-14688
▁portf	-14689
▁toxic	-14690
athetic	-14691
▁Judges	-14692
▁uterus	-14693
▁Confirm	-14694
▁approve	-14695
▁percept	-14696
▁physics	-14697
▁progeny	-14698
▁signing	-14699
▁sunrise	-14700
▁Articles	-14701
▁barriers	-14702
▁disciple	-14703
▁imposing	-14704
▁matching	-14705
▁GroupWise	-14706
▁impartial	-14707
▁salvation	-14708
▁deliberate	-14709
tk	-14710
.08	-14711
esc	-14712
sen	-14713
yar	-14714
▁SV	-14715
PATI	-14716
▁kap	-14717
▁pin	-14718
▁urg	-14719
comes	-14720
venth	-14721
▁1949	-14722
▁Arth	-14723
▁Kali	-14724
▁Poon	-14725
▁ferv	-14726
▁foss	-14727
aspora	-14728
erance	-14729
▁CALLS	-14730
▁Dutch	-14731
▁Names	-14732
▁Proxy	-14733
▁Stone	-14734
▁frank	-14735
▁loses	-14736
▁BIHARI	-14737
▁Dharma	-14738
▁Layout	-14739
▁Purana	-14740
▁Scroll	-14741
▁Taking	-14742
▁floods	-14743
▁lifted	-14744
▁Blessed	-14745
▁Spanish	-14746
▁contest	-14747
▁endorse	-14748
▁hanging	-14749
▁invoked	-14750
▁palaces	-14751
rehension	-14752
▁deterior	-14753
▁merchant	-14754
▁Societies	-14755
▁assembled	-14756
▁invention	-14757
▁Publications	-14758
ATI	-14759
III	-14760
▁HE	-14761
aret	-14762
bral	-14763
▁30.	-14764
▁Hap	-14765
▁Pud	-14766
▁maj	-14767
▁1930	-14768
▁Lect	-14769
▁SMTP	-14770
▁Bench	-14771
▁Puran	-14772
▁SIDBI	-14773
▁hoped	-14774
▁incub	-14775
▁mines	-14776
▁Almost	-14777
▁Bezbar	-14778
▁derive	-14779
▁fodder	-14780
▁guards	-14781
▁incons	-14782
▁Browser	-14783
▁incline	-14784
▁reduces	-14785
▁eighteen	-14786
▁fruitful	-14787
▁regulate	-14788
▁tropical	-14789
▁unnecess	-14790
▁alternate	-14791
▁economics	-14792
▁estimates	-14793
▁possesses	-14794
▁remainder	-14795
▁requiring	-14796
▁allowances	-14797
▁directories	-14798
▁inscription	-14799
▁instrumental	-14800
▁05	-14801
▁IR	-14802
avil	-14803
olio	-14804
ribe	-14805
▁Bor	-14806
▁jew	-14807
▁rod	-14808
adium	-14809
anyan	-14810
▁1973	-14811
▁clan	-14812
▁rays	-14813
▁trap	-14814
▁twin	-14815
luence	-14816
ulture	-14817
▁Minor	-14818
▁fetch	-14819
▁frames	-14820
▁notion	-14821
▁Convert	-14822
▁lawyers	-14823
▁texture	-14824
▁compiler	-14825
▁entities	-14826
▁initiate	-14827
▁sugarcane	-14828
▁Vidyasagar	-14829
▁distinctive	-14830
▁Nevertheless	-14831
▁Establishment	-14832
DB	-14833
ESH	-14834
Jan	-14835
abi	-14836
▁Ud	-14837
card	-14838
utor	-14839
▁29.	-14840
▁BHA	-14841
▁Jun	-14842
▁Mak	-14843
front	-14844
▁1985	-14845
▁Blue	-14846
▁Rish	-14847
▁Memor	-14848
▁Penal	-14849
▁aided	-14850
▁fauna	-14851
▁knock	-14852
▁scoff	-14853
▁Mantri	-14854
▁Mexico	-14855
▁Sudden	-14856
▁dinner	-14857
▁serial	-14858
▁tragic	-14859
▁Highway	-14860
▁arrives	-14861
▁fitting	-14862
▁mounted	-14863
[...]
